<pad>	0
<unk>	0
[CLS]	0
[SEP]	0
[MASK]	0
▁t	-0
ng	-1
▁क	-2
▁c	-3
▁th	-4
▁đ	-5
▁a	-6
▁b	-7
▁n	-8
▁स	-9
▁s	-10
▁v	-11
▁h	-12
er	-13
▁ह	-14
in	-15
▁l	-16
▁म	-17
▁the	-18
▁m	-19
on	-20
▁प	-21
▁के	-22
▁p	-23
an	-24
re	-25
▁ch	-26
▁tr	-27
ने	-28
्र	-29
en	-30
ed	-31
at	-32
▁k	-33
▁w	-34
▁d	-35
ार	-36
ें	-37
or	-38
या	-39
▁o	-40
▁g	-41
nh	-42
▁ब	-43
▁nh	-44
is	-45
▁ज	-46
ar	-47
es	-48
▁है	-49
al	-50
it	-51
▁अ	-52
ों	-53
▁T	-54
▁में	-55
▁f	-56
▁व	-57
▁द	-58
▁ल	-59
ing	-60
▁to	-61
▁in	-62
र्	-63
▁kh	-64
▁"	-65
▁và	-66
▁ng	-67
▁of	-68
▁an	-69
as	-70
▁ph	-71
▁र	-72
▁की	-73
▁r	-74
ic	-75
ou	-76
▁C	-77
▁को	-78
▁कि	-79
▁ग	-80
ông	-81
ác	-82
ủa	-83
▁của	-84
ên	-85
ion	-86
▁S	-87
▁न	-88
िक	-89
iệ	-90
▁M	-91
▁A	-92
▁से	-93
il	-94
ता	-95
▁and	-96
▁ए	-97
▁औ	-98
qu	-99
▁और	-100
▁đã	-101
▁उ	-102
्य	-103
▁gi	-104
om	-105
ột	-106
ान	-107
ay	-108
el	-109
ent	-110
▁ने	-111
▁कर	-112
▁qu	-113
▁B	-114
ườ	-115
स्	-116
ượ	-117
▁một	-118
ong	-119
▁Th	-120
id	-121
iế	-122
ना	-123
ch	-124
▁re	-125
▁N	-126
▁1	-127
▁प्र	-128
▁H	-129
▁2	-130
▁का	-131
am	-132
▁थ	-133
▁आ	-134
▁इ	-135
▁là	-136
क्	-137
ới	-138
▁các	-139
00	-140
ाल	-141
▁त	-142
ược	-143
▁पर	-144
le	-145
st	-146
▁P	-147
▁được	-148
▁एक	-149
ại	-150
▁I	-151
ad	-152
िया	-153
ol	-154
ot	-155
ười	-156
▁be	-157
ित	-158
िय	-159
िए	-160
हा	-161
▁trong	-162
iên	-163
ur	-164
ter	-165
▁cho	-166
ày	-167
im	-168
▁य	-169
▁e	-170
▁có	-171
▁स्	-172
▁श	-173
ve	-174
▁च	-175
ất	-176
▁người	-177
uy	-178
▁x	-179
▁The	-180
▁that	-181
ct	-182
ir	-183
ân	-184
th	-185
."	-186
िल	-187
▁लिए	-188
▁भ	-189
▁on	-190
ro	-191
ce	-192
▁for	-193
▁L	-194
▁sa	-195
ững	-196
ation	-197
us	-198
ig	-199
ver	-200
▁G	-201
वा	-202
ằng	-203
▁हो	-204
▁सं	-205
ut	-206
▁हैं	-207
et	-208
▁D	-209
▁wh	-210
▁R	-211
ही	-212
ow	-213
▁với	-214
ang	-215
ly	-216
▁वि	-217
un	-218
▁những	-219
ड़	-220
ति	-221
▁ha	-222
▁st	-223
▁फ	-224
▁is	-225
ình	-226
▁उन	-227
ầu	-228
ill	-229
ले	-230
▁F	-231
्ट	-232
▁सा	-233
▁(	-234
iện	-235
▁was	-236
▁W	-237
and	-238
ia	-239
▁không	-240
िन	-241
▁जा	-242
áo	-243
ra	-244
ướ	-245
ành	-246
ला	-247
▁rằng	-248
्व	-249
▁con	-250
▁độ	-251
▁किया	-252
▁था	-253
ăm	-254
▁सम	-255
▁vào	-256
िस	-257
▁bị	-258
em	-259
▁ở	-260
iề	-261
ith	-262
▁này	-263
▁इस	-264
▁K	-265
रा	-266
ận	-267
ते	-268
os	-269
▁गया	-270
के	-271
ần	-272
ers	-273
▁ra	-274
▁200	-275
▁बा	-276
▁ख	-277
ew	-278
▁ट	-279
▁ड	-280
▁nó	-281
▁at	-282
ere	-283
त्र	-284
▁करने	-285
ết	-286
ộc	-287
▁with	-288
▁cu	-289
ước	-290
ंग	-291
ính	-292
क्ष	-293
oun	-294
▁họ	-295
át	-296
ul	-297
▁khi	-298
▁कहा	-299
ải	-300
▁al	-301
नी	-302
est	-303
op	-304
iể	-305
ेल	-306
▁U	-307
री	-308
▁J	-309
▁as	-310
ोग	-311
▁अप	-312
▁năm	-313
ực	-314
iều	-315
ốc	-316
▁Ch	-317
▁ngh	-318
ức	-319
हीं	-320
▁रा	-321
▁sẽ	-322
ến	-323
ươ	-324
ist	-325
▁हु	-326
▁từ	-327
▁नहीं	-328
▁by	-329
iệc	-330
▁O	-331
▁E	-332
से	-333
ối	-334
ak	-335
ment	-336
res	-337
ck	-338
ंड	-339
▁công	-340
▁Đ	-341
▁V	-342
▁về	-343
▁de	-344
àn	-345
कार	-346
ेश	-347
ôi	-348
▁y	-349
ort	-350
ld	-351
ain	-352
▁việc	-353
ương	-354
▁अन	-355
áng	-356
ाम	-357
rom	-358
ống	-359
ियों	-360
▁như	-361
▁it	-362
ag	-363
▁nói	-364
ear	-365
▁để	-366
▁ông	-367
▁sự	-368
iết	-369
▁đó	-370
iến	-371
▁tại	-372
▁ले	-373
▁यह	-374
्ह	-375
ây	-376
▁पह	-377
ường	-378
▁đến	-379
ri	-380
▁भी	-381
pp	-382
सी	-383
▁अध	-384
्या	-385
▁cả	-386
ुर	-387
स्ट	-388
गा	-389
▁जो	-390
ती	-391
▁has	-392
का	-393
्स	-394
▁have	-395
▁from	-396
▁are	-397
ect	-398
▁thể	-399
▁su	-400
।"	-401
ाइ	-402
if	-403
▁घ	-404
▁said	-405
ate	-406
▁com	-407
ore	-408
ao	-409
ội	-410
ật	-411
igh	-412
▁ho	-413
ản	-414
▁नि	-415
ष्ट	-416
▁कार	-417
ài	-418
▁viên	-419
úng	-420
▁3	-421
ảng	-422
▁cuộc	-423
▁In	-424
▁he	-425
inh	-426
art	-427
▁se	-428
ian	-429
की	-430
▁साथ	-431
▁do	-432
▁दिया	-433
्म	-434
▁đầu	-435
ich	-436
▁उन्ह	-437
ời	-438
um	-439
ारा	-440
▁19	-441
án	-442
▁pro	-443
कि	-444
ai	-445
ां	-446
ity	-447
ारी	-448
▁Tr	-449
▁sh	-450
ấn	-451
▁nhà	-452
▁not	-453
ast	-454
ud	-455
▁chính	-456
ơn	-457
▁ex	-458
▁were	-459
our	-460
ेर	-461
ập	-462
gh	-463
ाय	-464
ung	-465
▁जिस	-466
▁अधिक	-467
ज़	-468
▁đị	-469
▁वाल	-470
ीय	-471
cc	-472
▁sau	-473
▁रू	-474
▁रह	-475
▁báo	-476
▁दे	-477
ăng	-478
▁quan	-479
▁số	-480
ard	-481
▁đang	-482
od	-483
la	-484
्त	-485
▁lo	-486
▁थी	-487
▁द्व	-488
ies	-489
ord	-490
▁बाद	-491
se	-492
▁động	-493
ạn	-494
àng	-495
ial	-496
्ल	-497
ाव	-498
्यू	-499
ास	-500
ền	-501
▁quy	-502
▁ngày	-503
▁thành	-504
▁le	-505
ess	-506
ust	-507
▁thứ	-508
▁St	-509
▁हम	-510
▁5	-511
▁trên	-512
▁थे	-513
ục	-514
▁4	-515
ũng	-516
▁vụ	-517
ab	-518
so	-519
▁nhân	-520
ber	-521
▁tháng	-522
ंट	-523
▁been	-524
ली	-525
▁thu	-526
वार	-527
▁दो	-528
▁we	-529
▁मु	-530
▁tôi	-531
ant	-532
anh	-533
ap	-534
▁un	-535
रो	-536
ổi	-537
▁Q	-538
ंद	-539
ấy	-540
▁cũng	-541
▁hiện	-542
▁his	-543
▁द्वारा	-544
ुल	-545
ice	-546
▁will	-547
ùng	-548
ưa	-549
मा	-550
000	-551
▁gia	-552
iv	-553
▁तक	-554
▁lại	-555
▁biết	-556
▁hai	-557
▁स्थ	-558
िप	-559
▁गई	-560
ould	-561
▁làm	-562
ái	-563
hi	-564
▁ऑ	-565
all	-566
▁लोग	-567
,"	-568
ine	-569
ight	-570
ff	-571
▁sp	-572
end	-573
▁khác	-574
कर	-575
▁go	-576
▁रूप	-577
▁res	-578
ार्	-579
▁hành	-580
ạt	-581
▁rep	-582
▁उस	-583
▁अनु	-584
▁गए	-585
day	-586
▁bố	-587
ोंने	-588
ीन	-589
▁phát	-590
▁Nh	-591
ated	-592
áp	-593
ेट	-594
▁điều	-595
ाप	-596
▁thông	-597
ik	-598
मान	-599
▁di	-600
ell	-601
ắt	-602
ष्ट्र	-603
▁Qu	-604
तर	-605
ack	-606
▁nước	-607
िश	-608
iệu	-609
red	-610
ओं	-611
ेन	-612
ive	-613
up	-614
ep	-615
▁यू	-616
▁phải	-617
में	-618
▁हुए	-619
ident	-620
▁वे	-621
ary	-622
ởi	-623
▁New	-624
ok	-625
ound	-626
▁कम	-627
▁सक	-628
uyên	-629
द्	-630
iểm	-631
ẫn	-632
▁trước	-633
êu	-634
▁अपने	-635
ào	-636
ứng	-637
ोर्	-638
▁had	-639
वि	-640
फ़	-641
▁वर्	-642
ide	-643
▁पू	-644
ưở	-645
ưởng	-646
▁chúng	-647
ish	-648
▁hơn	-649
▁bu	-650
▁lu	-651
▁या	-652
fter	-653
ther	-654
▁tiế	-655
▁chỉ	-656
▁chức	-657
▁रहे	-658
ंत्र	-659
▁which	-660
क्र	-661
सा	-662
ích	-663
ạo	-664
ồng	-665
ượng	-666
▁मै	-667
िट	-668
्ष	-669
▁उन्होंने	-670
out	-671
▁or	-672
भी	-673
▁nhất	-674
ấp	-675
▁कु	-676
ren	-677
ारे	-678
ub	-679
दा	-680
ime	-681
▁ag	-682
▁off	-683
▁bởi	-684
ोट	-685
og	-686
िंग	-687
ork	-688
▁पहले	-689
ảo	-690
▁this	-691
▁định	-692
▁उप	-693
ánh	-694
▁20	-695
गे	-696
ond	-697
ोज	-698
▁ही	-699
▁kho	-700
ल्	-701
▁6	-702
▁Y	-703
▁सी	-704
▁đội	-705
ịch	-706
▁जब	-707
▁mà	-708
▁राज	-709
ặc	-710
òng	-711
िला	-712
▁j	-713
▁cử	-714
ome	-715
▁nhận	-716
▁their	-717
ount	-718
▁सु	-719
▁प्रति	-720
▁pe	-721
▁अम	-722
ấu	-723
▁qua	-724
▁who	-725
▁अं	-726
▁đề	-727
ैंड	-728
▁cáo	-729
óng	-730
र्व	-731
ry	-732
ैन	-733
▁tin	-734
▁छ	-735
▁Al	-736
▁dự	-737
▁ab	-738
▁Mỹ	-739
▁ar	-740
▁स्ट	-741
ाह	-742
ाग	-743
▁7	-744
▁Un	-745
av	-746
ous	-747
ions	-748
स्त	-749
्री	-750
▁đối	-751
िर	-752
▁vì	-753
▁sát	-754
▁inc	-755
्च	-756
क्त	-757
au	-758
ेरिक	-759
âm	-760
▁ओ	-761
▁so	-762
▁quốc	-763
▁after	-764
lo	-765
iệt	-766
▁also	-767
ढ़	-768
▁kết	-769
land	-770
▁nhiều	-771
▁cont	-772
▁they	-773
किन	-774
ंच	-775
▁but	-776
▁राष्ट्र	-777
ôn	-778
▁ta	-779
ople	-780
रे	-781
ियन	-782
▁tu	-783
▁xu	-784
▁nhưng	-785
ec	-786
wo	-787
,000	-788
▁अमेरिक	-789
▁exp	-790
▁year	-791
ue	-792
▁đồng	-793
▁bắt	-794
ge	-795
ắc	-796
▁लग	-797
áy	-798
▁pl	-799
▁theo	-800
▁hàng	-801
mer	-802
▁cứ	-803
▁वाले	-804
ip	-805
ơi	-806
ोल	-807
ॉर्	-808
नों	-809
ạng	-810
ence	-811
he	-812
ie	-813
▁रहा	-814
vern	-815
त्	-816
ough	-817
▁comp	-818
▁đưa	-819
▁होने	-820
▁Ph	-821
▁pol	-822
ost	-823
▁लेकिन	-824
òa	-825
ark	-826
ेड	-827
▁Ng	-828
▁सर	-829
▁dân	-830
âu	-831
man	-832
iểu	-833
ations	-834
ụng	-835
ôm	-836
▁ad	-837
क्षा	-838
ib	-839
▁लोगों	-840
▁people	-841
▁8	-842
ंध	-843
ách	-844
ath	-845
ran	-846
्यों	-847
▁att	-848
ंप	-849
▁đo	-850
aw	-851
▁tổ	-852
कों	-853
ign	-854
▁कुछ	-855
टर	-856
हर	-857
▁मिल	-858
▁trường	-859
▁Is	-860
ăn	-861
▁phủ	-862
ảy	-863
▁विश	-864
iệp	-865
बर	-866
▁giữ	-867
▁ध	-868
▁परि	-869
▁sử	-870
▁वह	-871
ोर	-872
स्थ	-873
ặt	-874
ợp	-875
िम	-876
जी	-877
▁thống	-878
▁क्ष	-879
▁khu	-880
▁report	-881
ile	-882
ational	-883
खा	-884
▁dụng	-885
▁Các	-886
ौर	-887
▁कै	-888
ited	-889
ates	-890
úc	-891
▁học	-892
ame	-893
▁Một	-894
▁thấy	-895
ac	-896
▁hội	-897
êm	-898
शन	-899
▁out	-900
▁tế	-901
▁सरकार	-902
▁-	-903
▁int	-904
सार	-905
ắng	-906
▁ब्र	-907
vernment	-908
▁Z	-909
own	-910
ure	-911
यर	-912
oth	-913
tern	-914
▁nay	-915
वर	-916
द्ध	-917
▁Quốc	-918
ts	-919
▁liên	-920
▁दू	-921
▁chiến	-922
▁चु	-923
▁पा	-924
देश	-925
▁thực	-926
▁us	-927
▁बी	-928
▁साल	-929
र्म	-930
▁cầu	-931
▁pr	-932
▁over	-933
one	-934
der	-935
▁chủ	-936
▁dis	-937
ass	-938
▁lên	-939
▁He	-940
▁tiếp	-941
▁फ़	-942
▁hôm	-943
▁An	-944
▁शुर	-945
ress	-946
▁समय	-947
▁बना	-948
ach	-949
▁दी	-950
▁giải	-951
ens	-952
▁part	-953
▁bay	-954
ne	-955
दी	-956
▁उनके	-957
ced	-958
▁hợp	-959
iz	-960
ical	-961
गी	-962
▁would	-963
▁thủ	-964
▁acc	-965
▁quyền	-966
▁lực	-967
▁say	-968
▁đi	-969
▁all	-970
▁हाल	-971
▁lớ	-972
▁two	-973
▁trình	-974
age	-975
▁chuy	-976
ru	-977
▁toàn	-978
ám	-979
▁ne	-980
rit	-981
▁cách	-982
▁मौ	-983
▁मा	-984
▁cảnh	-985
स्ता	-986
ेस	-987
ाना	-988
वी	-989
ict	-990
ree	-991
▁जी	-992
▁new	-993
▁mình	-994
▁tình	-995
ans	-996
भाव	-997
ọng	-998
▁Anh	-999
▁giới	-1000
जा	-1001
ail	-1002
iệm	-1003
▁बता	-1004
ọi	-1005
ồi	-1006
▁cứu	-1007
क्स	-1008
ानी	-1009
ft	-1010
iếu	-1011
▁điểm	-1012
ake	-1013
ệnh	-1014
▁निर्	-1015
▁máy	-1016
ah	-1017
▁thế	-1018
▁thời	-1019
▁करते	-1020
▁lượng	-1021
ral	-1022
▁quân	-1023
▁व्य	-1024
ition	-1025
र्थ	-1026
irst	-1027
▁tra	-1028
चार	-1029
ạm	-1030
▁its	-1031
ase	-1032
▁10	-1033
▁one	-1034
यु	-1035
▁government	-1036
are	-1037
▁man	-1038
▁rec	-1039
ộng	-1040
▁up	-1041
▁vấn	-1042
▁बह	-1043
▁जाए	-1044
ड़ा	-1045
iển	-1046
▁lớn	-1047
वर्	-1048
▁hình	-1049
▁pháp	-1050
जन	-1051
▁im	-1052
ire	-1053
ảm	-1054
▁रिप	-1055
du	-1056
orm	-1057
योग	-1058
स्ट्र	-1059
ite	-1060
▁cùng	-1061
▁vực	-1062
▁ngo	-1063
ely	-1064
▁सब	-1065
▁mu	-1066
▁मह	-1067
बंध	-1068
▁te	-1069
ảnh	-1070
▁đây	-1071
▁tuyên	-1072
▁app	-1073
▁tới	-1074
ॉल	-1075
▁gần	-1076
▁cấp	-1077
▁न्यू	-1078
▁vi	-1079
▁9	-1080
▁cơ	-1081
▁ban	-1082
▁bằng	-1083
▁उन्हें	-1084
ven	-1085
▁phí	-1086
iss	-1087
▁án	-1088
▁đấu	-1089
▁mới	-1090
▁देश	-1091
▁शाम	-1092
ोर्ट	-1093
òn	-1094
▁दु	-1095
▁trận	-1096
ved	-1097
▁पी	-1098
▁giờ	-1099
▁स्थान	-1100
▁United	-1101
▁bỏ	-1102
▁ba	-1103
▁phần	-1104
▁कह	-1105
▁जाने	-1106
रोप	-1107
▁हुई	-1108
ắn	-1109
▁विक	-1110
ृत	-1111
old	-1112
▁count	-1113
▁first	-1114
टना	-1115
लैंड	-1116
वे	-1117
ुत	-1118
▁bộ	-1119
▁अन्य	-1120
ose	-1121
ters	-1122
▁लगा	-1123
▁lý	-1124
▁बच	-1125
▁sec	-1126
▁किए	-1127
per	-1128
▁tự	-1129
▁वर्ष	-1130
▁xuất	-1131
istan	-1132
aus	-1133
▁अनुसार	-1134
ेत्र	-1135
ton	-1136
▁cao	-1137
▁tấn	-1138
oh	-1139
raq	-1140
▁रो	-1141
▁अपनी	-1142
Ông	-1143
▁पुल	-1144
▁đường	-1145
",	-1146
ंस	-1147
ốn	-1148
ick	-1149
ater	-1150
▁Aust	-1151
oll	-1152
▁xe	-1153
▁पि	-1154
út	-1155
▁हुआ	-1156
▁tiên	-1157
ार्ट	-1158
▁क्र	-1159
▁बढ़	-1160
ording	-1161
rael	-1162
▁क्षेत्र	-1163
ind	-1164
▁about	-1165
▁कार्य	-1166
ons	-1167
▁ग्र	-1168
uyền	-1169
▁Iraq	-1170
ंक	-1171
बी	-1172
ace	-1173
▁vị	-1174
▁trưởng	-1175
षण	-1176
ủng	-1177
ning	-1178
▁टी	-1179
▁कोई	-1180
▁more	-1181
ult	-1182
▁quyết	-1183
▁कारण	-1184
ễn	-1185
▁co	-1186
resident	-1187
ॉन	-1188
▁nữ	-1189
▁तो	-1190
▁199	-1191
▁me	-1192
▁Ông	-1193
▁Israel	-1194
ỏi	-1195
▁चाह	-1196
▁time	-1197
ubl	-1198
▁nào	-1199
amp	-1200
▁luật	-1201
▁शामिल	-1202
ash	-1203
▁cl	-1204
▁पै	-1205
▁Can	-1206
▁inv	-1207
▁Austral	-1208
ड़ी	-1209
▁हि	-1210
ếu	-1211
▁कई	-1212
▁पुलिस	-1213
पू	-1214
enc	-1215
we	-1216
▁el	-1217
▁जिसमें	-1218
मी	-1219
▁Wik	-1220
एस	-1221
ade	-1222
▁còn	-1223
▁lần	-1224
▁lập	-1225
az	-1226
भग	-1227
▁chiế	-1228
▁khoảng	-1229
▁pre	-1230
ci	-1231
arg	-1232
▁जिन	-1233
युक्त	-1234
नि	-1235
▁act	-1236
▁đánh	-1237
pt	-1238
▁bất	-1239
▁अग	-1240
▁thương	-1241
म्म	-1242
ors	-1243
▁biểu	-1244
▁min	-1245
▁लगभग	-1246
▁ऐ	-1247
▁vẫn	-1248
ev	-1249
ển	-1250
लों	-1251
▁rất	-1252
▁201	-1253
eal	-1254
▁करना	-1255
ाई	-1256
▁offic	-1257
▁when	-1258
▁ty	-1259
▁Trong	-1260
▁nhiên	-1261
),	-1262
ob	-1263
wn	-1264
▁gr	-1265
ियो	-1266
ướng	-1267
ek	-1268
▁ई	-1269
▁पास	-1270
▁tăng	-1271
áu	-1272
▁can	-1273
ड़े	-1274
▁bao	-1275
इट	-1276
▁bản	-1277
ìm	-1278
▁lời	-1279
▁15	-1280
▁US	-1281
स्ट्रेल	-1282
▁per	-1283
▁trở	-1284
▁ट्र	-1285
ister	-1286
▁dẫn	-1287
्प	-1288
दान	-1289
ince	-1290
▁bầu	-1291
▁other	-1292
ected	-1293
▁chết	-1294
▁tranh	-1295
act	-1296
धार	-1297
▁Tổ	-1298
▁तर	-1299
▁बारे	-1300
▁बताया	-1301
orld	-1302
्ञ	-1303
ild	-1304
▁रही	-1305
▁into	-1306
▁स्प	-1307
vi	-1308
ally	-1309
▁mặt	-1310
▁ser	-1311
iền	-1312
▁dec	-1313
▁tuy	-1314
▁dịch	-1315
▁tính	-1316
ua	-1317
ased	-1318
▁there	-1319
टी	-1320
▁$	-1321
▁Bộ	-1322
▁Min	-1323
lud	-1324
▁sĩ	-1325
▁बु	-1326
▁quả	-1327
▁again	-1328
▁अधिकार	-1329
▁anh	-1330
▁Ho	-1331
▁viện	-1332
▁क्यों	-1333
▁राज्य	-1334
ीद	-1335
▁đạo	-1336
पति	-1337
▁hộ	-1338
ीड	-1339
▁bec	-1340
▁इन	-1341
ement	-1342
ốt	-1343
▁पु	-1344
▁संयुक्त	-1345
▁đất	-1346
हम	-1347
ूल	-1348
▁Sh	-1349
▁năng	-1350
▁giáo	-1351
▁लिया	-1352
▁बै	-1353
▁being	-1354
▁Le	-1355
▁Ind	-1356
▁सबसे	-1357
eld	-1358
▁जै	-1359
oc	-1360
▁ý	-1361
▁घो	-1362
ồm	-1363
▁अब	-1364
▁trị	-1365
▁दौर	-1366
▁मान	-1367
te	-1368
▁tài	-1369
▁पिछ	-1370
▁सुर	-1371
िव	-1372
▁वा	-1373
▁बार	-1374
▁सकता	-1375
▁tìm	-1376
▁than	-1377
मु	-1378
ंत्री	-1379
जे	-1380
▁Kh	-1381
rent	-1382
▁bang	-1383
▁Canad	-1384
iêu	-1385
▁some	-1386
li	-1387
र्स	-1388
ताओं	-1389
ात	-1390
▁उत	-1391
▁सू	-1392
▁bom	-1393
▁पहु	-1394
▁work	-1395
illion	-1396
▁em	-1397
▁trợ	-1398
▁Gi	-1399
स्ट्रेलिया	-1400
oin	-1401
▁tâm	-1402
▁किसी	-1403
àu	-1404
▁रिपोर्ट	-1405
oup	-1406
ग्र	-1407
▁tuổi	-1408
▁buộc	-1409
▁lead	-1410
पर	-1411
▁địa	-1412
▁phương	-1413
▁अमेरिकी	-1414
▁gồm	-1415
▁शुरू	-1416
▁Trung	-1417
▁no	-1418
ील	-1419
ublic	-1420
▁12	-1421
▁सद	-1422
्न	-1423
▁under	-1424
▁Đảng	-1425
ép	-1426
oss	-1427
धान	-1428
रिक	-1429
▁अल	-1430
▁bảo	-1431
▁सैन	-1432
óm	-1433
को	-1434
ज्ञ	-1435
▁mil	-1436
▁gì	-1437
▁thắng	-1438
▁राष्ट्रपति	-1439
ुआ	-1440
▁मे	-1441
reat	-1442
▁tên	-1443
▁जहा	-1444
▁दूस	-1445
▁thêm	-1446
▁क्योंकि	-1447
ush	-1448
▁comm	-1449
ồn	-1450
ỗi	-1451
vers	-1452
▁mạng	-1453
▁diễn	-1454
▁जारी	-1455
्ड	-1456
ory	-1457
son	-1458
▁डे	-1459
▁bệnh	-1460
▁रख	-1461
▁ind	-1462
▁Theo	-1463
▁sinh	-1464
▁Ar	-1465
edia	-1466
बा	-1467
▁बे	-1468
▁gây	-1469
▁liệu	-1470
▁supp	-1471
▁2006	-1472
▁tham	-1473
▁includ	-1474
ays	-1475
▁स्क	-1476
▁दौरान	-1477
पी	-1478
▁सो	-1479
▁nghị	-1480
▁As	-1481
▁nạn	-1482
▁सभी	-1483
▁phía	-1484
ेष	-1485
▁11	-1486
▁phòng	-1487
▁Sp	-1488
▁आप	-1489
▁xảy	-1490
▁kiện	-1491
▁Mc	-1492
▁her	-1493
▁बात	-1494
uring	-1495
▁ev	-1496
▁them	-1497
▁पूर्व	-1498
▁ऑस्ट्रेलिया	-1499
▁'	-1500
ाने	-1501
ạnh	-1502
▁खिला	-1503
▁स्थित	-1504
ẩn	-1505
▁Ú	-1506
▁तरह	-1507
निया	-1508
▁काम	-1509
▁hoạt	-1510
▁बहुत	-1511
▁attack	-1512
▁la	-1513
▁tội	-1514
क्ति	-1515
▁imp	-1516
▁tục	-1517
दर्	-1518
▁trí	-1519
▁Úc	-1520
▁जन	-1521
▁trọng	-1522
▁18	-1523
▁It	-1524
ेंगे	-1525
▁yêu	-1526
▁đổi	-1527
▁ứng	-1528
▁उनकी	-1529
▁जाता	-1530
ẩm	-1531
म्मीद	-1532
▁cuối	-1533
वं	-1534
ned	-1535
uss	-1536
▁अभ	-1537
▁chiếc	-1538
▁उम्मीद	-1539
ov	-1540
ét	-1541
eral	-1542
▁truyền	-1543
ạc	-1544
ever	-1545
▁बीच	-1546
▁last	-1547
▁पिछले	-1548
ces	-1549
med	-1550
वाई	-1551
ाप्त	-1552
▁chứng	-1553
▁ann	-1554
ाउ	-1555
▁Af	-1556
▁luận	-1557
▁सि	-1558
able	-1559
▁तीन	-1560
▁2007	-1561
▁bình	-1562
ạch	-1563
▁ro	-1564
▁đô	-1565
▁fin	-1566
▁kill	-1567
▁प्रत	-1568
▁अमेरिका	-1569
▁đại	-1570
▁कंप	-1571
▁ảnh	-1572
The	-1573
▁cố	-1574
▁any	-1575
▁दिन	-1576
▁Mar	-1577
▁conf	-1578
gan	-1579
▁only	-1580
▁tiến	-1581
ियम	-1582
▁ता	-1583
▁निक	-1584
▁अंतर	-1585
▁years	-1586
ब्	-1587
ून	-1588
कर्	-1589
outh	-1590
▁giá	-1591
▁nơi	-1592
▁sản	-1593
▁2005	-1594
लो	-1595
▁ear	-1596
▁khí	-1597
▁rem	-1598
▁tòa	-1599
▁tất	-1600
▁टीम	-1601
ating	-1602
▁Những	-1603
▁hay	-1604
▁giảm	-1605
▁against	-1606
ब्ल	-1607
▁phố	-1608
▁reg	-1609
▁पार्ट	-1610
रोध	-1611
▁loc	-1612
▁đoàn	-1613
fore	-1614
▁inf	-1615
▁sách	-1616
▁thay	-1617
▁सदस	-1618
rough	-1619
ाद	-1620
▁car	-1621
▁वाली	-1622
ont	-1623
▁Liên	-1624
▁nghi	-1625
▁official	-1626
ama	-1627
▁बि	-1628
ealand	-1629
ेशन	-1630
▁gọi	-1631
▁साम	-1632
ision	-1633
▁triệu	-1634
ंत	-1635
▁tàu	-1636
▁2008	-1637
▁police	-1638
Ch	-1639
ुद	-1640
lin	-1641
स्प	-1642
▁Go	-1643
▁am	-1644
▁Joh	-1645
▁xác	-1646
▁Zealand	-1647
▁sc	-1648
ause	-1649
ered	-1650
▁trang	-1651
olog	-1652
▁nghĩ	-1653
▁lã	-1654
▁add	-1655
▁बंद	-1656
▁Tổng	-1657
▁three	-1658
30	-1659
ेंट	-1660
ove	-1661
धिक	-1662
▁25	-1663
▁tư	-1664
▁gian	-1665
▁घोषण	-1666
▁trung	-1667
ाइन	-1668
▁Kỳ	-1669
▁en	-1670
▁inter	-1671
▁thường	-1672
र्ट	-1673
▁Com	-1674
▁चुना	-1675
▁phiếu	-1676
र्ण	-1677
▁प्रव	-1678
io	-1679
ửa	-1680
air	-1681
ina	-1682
▁hoặc	-1683
▁करता	-1684
▁देने	-1685
▁घोषणा	-1686
▁could	-1687
▁reported	-1688
▁2004	-1689
▁team	-1690
▁होगा	-1691
वल	-1692
vel	-1693
▁cô	-1694
▁tử	-1695
▁cần	-1696
▁thức	-1697
▁States	-1698
▁air	-1699
▁Iran	-1700
▁उपयोग	-1701
▁ghi	-1702
▁bóng	-1703
▁sáng	-1704
..	-1705
वाद	-1706
▁bet	-1707
▁phạm	-1708
▁thiết	-1709
ied	-1710
ric	-1711
▁bo	-1712
▁chí	-1713
▁giữa	-1714
).	-1715
ोन	-1716
▁cr	-1717
▁जु	-1718
ists	-1719
▁mem	-1720
▁chống	-1721
▁समर्थ	-1722
▁Pr	-1723
▁hệ	-1724
orn	-1725
▁14	-1726
▁resp	-1727
bs	-1728
ेज	-1729
▁Sc	-1730
ầm	-1731
▁điện	-1732
▁आरोप	-1733
▁घटना	-1734
ope	-1735
▁आज	-1736
laim	-1737
ावा	-1738
▁elect	-1739
-1	-1740
ke	-1741
.000	-1742
ện	-1743
ane	-1744
यान	-1745
▁chưa	-1746
▁tuần	-1747
▁chương	-1748
aj	-1749
▁जान	-1750
▁John	-1751
▁दोनों	-1752
▁kế	-1753
▁phản	-1754
▁tiền	-1755
▁पार्टी	-1756
▁अधिकारियों	-1757
ings	-1758
▁Acc	-1759
▁फ्र	-1760
ities	-1761
ternational	-1762
▁tổng	-1763
▁मार्	-1764
ews	-1765
other	-1766
ừng	-1767
▁call	-1768
▁kiến	-1769
".	-1770
ांकि	-1771
▁स्व	-1772
▁nghiệp	-1773
BC	-1774
ít	-1775
ừa	-1776
▁भू	-1777
ital	-1778
▁संघ	-1779
▁माम	-1780
ph	-1781
ậy	-1782
ents	-1783
▁जांच	-1784
▁claim	-1785
ूह	-1786
▁nhóm	-1787
eb	-1788
ằm	-1789
ual	-1790
▁fl	-1791
▁लि	-1792
▁quá	-1793
ution	-1794
▁found	-1795
▁On	-1796
▁अव	-1797
▁thị	-1798
▁trả	-1799
▁मौत	-1800
▁khỏi	-1801
▁ấy	-1802
▁100	-1803
▁cur	-1804
▁des	-1805
▁tạo	-1806
▁made	-1807
▁ngoài	-1808
▁पहुंच	-1809
ध्य	-1810
▁rele	-1811
▁vòng	-1812
▁सुरक्षा	-1813
ale	-1814
्रा	-1815
▁đua	-1816
▁Canada	-1817
▁30	-1818
▁50	-1819
▁nổ	-1820
▁biệt	-1821
▁cons	-1822
▁यु	-1823
▁thì	-1824
▁vài	-1825
▁खेल	-1826
▁phép	-1827
मो	-1828
▁फै	-1829
▁loại	-1830
▁जाएगा	-1831
▁vệ	-1832
▁law	-1833
▁may	-1834
▁thi	-1835
▁kinh	-1836
▁इरा	-1837
▁फिर	-1838
▁nhiệm	-1839
▁before	-1840
▁According	-1841
ोध	-1842
माण	-1843
▁नी	-1844
▁pla	-1845
▁mon	-1846
▁week	-1847
▁इसके	-1848
▁प्रभाव	-1849
▁Hoa	-1850
▁announ	-1851
Th	-1852
णी	-1853
▁chuyển	-1854
▁country	-1855
any	-1856
▁मत	-1857
क्रम	-1858
▁mất	-1859
▁đảng	-1860
▁हालांकि	-1861
जू	-1862
चना	-1863
▁him	-1864
ाली	-1865
▁since	-1866
▁डि	-1867
very	-1868
▁आगे	-1869
▁देख	-1870
▁विश्व	-1871
ुक	-1872
्छ	-1873
▁bên	-1874
▁vận	-1875
▁tiếng	-1876
▁Ro	-1877
▁sở	-1878
ance	-1879
orth	-1880
▁war	-1881
▁sống	-1882
▁khách	-1883
च्छ	-1884
▁इस्	-1885
▁मैं	-1886
ex	-1887
ix	-1888
ty	-1889
▁dù	-1890
ưới	-1891
र्च	-1892
वास	-1893
▁prov	-1894
ug	-1895
ted	-1896
▁इसे	-1897
▁tiêu	-1898
su	-1899
ưu	-1900
्ता	-1901
▁kn	-1902
▁चल	-1903
ween	-1904
कारी	-1905
▁thư	-1906
▁नाम	-1907
▁13	-1908
▁near	-1909
▁stat	-1910
owever	-1911
eg	-1912
लय	-1913
▁muốn	-1914
▁चुनाव	-1915
▁million	-1916
▁अस	-1917
▁दि	-1918
▁kể	-1919
▁स्वा	-1920
डी	-1921
▁सह	-1922
▁कान	-1923
ction	-1924
▁सकते	-1925
ise	-1926
▁def	-1927
▁đình	-1928
▁while	-1929
ợi	-1930
▁ली	-1931
ोजना	-1932
▁nên	-1933
▁शहर	-1934
▁cung	-1935
▁Australia	-1936
ỏa	-1937
eor	-1938
▁ít	-1939
▁tho	-1940
▁हिस्	-1941
ंब	-1942
▁X	-1943
bers	-1944
▁केवल	-1945
लि	-1946
श्य	-1947
▁ये	-1948
aking	-1949
▁York	-1950
▁high	-1951
▁lãnh	-1952
▁invest	-1953
▁व्यक्ति	-1954
▁ủng	-1955
▁Scot	-1956
▁Minister	-1957
rid	-1958
▁आत	-1959
ving	-1960
meric	-1961
▁thiệt	-1962
▁Cal	-1963
▁bel	-1964
▁giao	-1965
▁group	-1966
▁between	-1967
ुरु	-1968
▁आव	-1969
ency	-1970
▁eff	-1971
▁tập	-1972
्ला	-1973
▁वै	-1974
▁phụ	-1975
▁prot	-1976
क्षण	-1977
▁Hai	-1978
क्ट	-1979
▁चला	-1980
▁hiệu	-1981
ward	-1982
▁Fran	-1983
▁समूह	-1984
▁milit	-1985
▁मंत्री	-1986
rib	-1987
▁vot	-1988
▁minh	-1989
▁mười	-1990
▁killed	-1991
▁प्रदर्	-1992
ॉट	-1993
ậu	-1994
▁if	-1995
▁kiểm	-1996
▁during	-1997
झे	-1998
ष्	-1999
क्ता	-2000
úp	-2001
▁गु	-2002
▁दक्ष	-2003
▁चाहिए	-2004
▁second	-2005
ool	-2006
▁De	-2007
▁उसे	-2008
erson	-2009
▁पत्र	-2010
Tôi	-2011
ike	-2012
ouse	-2013
▁phá	-2014
▁गिर	-2015
▁vùng	-2016
ery	-2017
▁ngôn	-2018
▁spok	-2019
काल	-2020
▁Ab	-2021
Chúng	-2022
▁triển	-2023
▁ब्रिट	-2024
ney	-2025
ret	-2026
▁Wh	-2027
ख्या	-2028
▁hòa	-2029
▁जीत	-2030
▁अध्य	-2031
दि	-2032
प्र	-2033
▁17	-2034
▁Lu	-2035
▁उत्त	-2036
▁President	-2037
▁where	-2038
▁दक्षि	-2039
ink	-2040
▁16	-2041
▁just	-2042
▁उसके	-2043
▁today	-2044
दार	-2045
▁mức	-2046
▁tác	-2047
▁xem	-2048
▁This	-2049
▁through	-2050
ọn	-2051
ेंस	-2052
▁At	-2053
▁tỉ	-2054
leg	-2055
▁198	-2056
▁chu	-2057
▁एवं	-2058
पूर्ण	-2059
▁खिलाफ	-2060
▁Americ	-2061
We	-2062
▁ऊ	-2063
▁vũ	-2064
▁बिल	-2065
▁show	-2066
óa	-2067
▁fe	-2068
▁ओर	-2069
▁cap	-2070
▁đốc	-2071
▁अभी	-2072
resent	-2073
▁Chính	-2074
les	-2075
ल्ड	-2076
▁Mr	-2077
atch	-2078
lear	-2079
▁sur	-2080
▁four	-2081
▁nghiên	-2082
इन	-2083
तों	-2084
्ले	-2085
▁गो	-2086
▁Pal	-2087
▁biển	-2088
▁state	-2089
▁tướng	-2090
▁विरोध	-2091
गर	-2092
चे	-2093
urn	-2094
▁rel	-2095
▁करे	-2096
▁what	-2097
▁current	-2098
ern	-2099
▁पता	-2100
▁around	-2101
ặp	-2102
fer	-2103
द्य	-2104
▁lúc	-2105
▁support	-2106
oot	-2107
▁hoàn	-2108
ss	-2109
इस	-2110
ourt	-2111
▁stud	-2112
50	-2113
ोड़	-2114
ific	-2115
▁mạnh	-2116
▁vide	-2117
▁विशेष	-2118
▁शुरुआ	-2119
att	-2120
ood	-2121
▁Ob	-2122
ible	-2123
श्यक	-2124
ollow	-2125
▁most	-2126
way	-2127
यास	-2128
▁24	-2129
▁रॉ	-2130
▁tay	-2131
▁đều	-2132
▁चार	-2133
▁Brit	-2134
▁जिसे	-2135
▁because	-2136
ấm	-2137
▁ठ	-2138
रने	-2139
स्फ	-2140
▁Br	-2141
▁kỳ	-2142
▁घर	-2143
िकों	-2144
▁end	-2145
▁nam	-2146
▁उत्	-2147
▁Comm	-2148
▁đóng	-2149
▁death	-2150
▁समर्थन	-2151
हाय	-2152
ony	-2153
ायर	-2154
osed	-2155
▁now	-2156
▁nếu	-2157
▁ter	-2158
▁xét	-2159
▁down	-2160
ủy	-2161
ank	-2162
amil	-2163
तमान	-2164
▁conc	-2165
▁start	-2166
ower	-2167
▁tương	-2168
▁संभाव	-2169
▁प्रयास	-2170
▁play	-2171
▁प्रश	-2172
▁महिला	-2173
फल	-2174
▁स्थानीय	-2175
ắp	-2176
▁Ba	-2177
oman	-2178
▁dầu	-2179
▁you	-2180
▁phóng	-2181
▁sever	-2182
▁trách	-2183
yst	-2184
▁ला	-2185
ghan	-2186
▁hel	-2187
▁Bush	-2188
▁well	-2189
▁आवश्यक	-2190
co	-2191
ायल	-2192
iê	-2193
ier	-2194
row	-2195
▁did	-2196
तन	-2197
ượt	-2198
▁such	-2199
uth	-2200
ẳng	-2201
▁mọi	-2202
▁पर्	-2203
▁area	-2204
▁सेना	-2205
▁investig	-2206
▁president	-2207
▁Rep	-2208
▁bài	-2209
▁Geor	-2210
▁world	-2211
▁वर्तमान	-2212
...	-2213
मुख	-2214
श्च	-2215
ting	-2216
िक्ष	-2217
▁run	-2218
▁इंट	-2219
▁told	-2220
▁hưởng	-2221
धि	-2222
्यु	-2223
▁Ad	-2224
▁Col	-2225
▁inj	-2226
▁भाग	-2227
▁मही	-2228
earch	-2229
िटी	-2230
▁Be	-2231
ones	-2232
प्ता	-2233
ॉर्ड	-2234
▁bạn	-2235
▁sch	-2236
▁sáu	-2237
▁chất	-2238
▁thúc	-2239
ष्ट्रीय	-2240
▁Afghan	-2241
ble	-2242
con	-2243
▁rõ	-2244
inews	-2245
▁back	-2246
▁month	-2247
ised	-2248
▁Bar	-2249
था	-2250
ताल	-2251
▁तै	-2252
▁नए	-2253
▁पद	-2254
ious	-2255
▁Air	-2256
▁both	-2257
▁दुर्	-2258
▁thuộc	-2259
▁जिन्ह	-2260
▁Wikinews	-2261
und	-2262
्रो	-2263
▁Tuy	-2264
▁bán	-2265
▁phán	-2266
▁दावा	-2267
▁प्रमुख	-2268
uc	-2269
मार	-2270
▁mục	-2271
▁num	-2272
▁दर्	-2273
▁cộng	-2274
▁many	-2275
▁संबंध	-2276
gr	-2277
▁रिक	-2278
ondon	-2279
▁जबकि	-2280
▁place	-2281
डा	-2282
▁[	-2283
वरी	-2284
ices	-2285
ines	-2286
▁Pak	-2287
▁vọng	-2288
▁पहली	-2289
▁बाहर	-2290
▁सहाय	-2291
▁hoạch	-2292
▁कंपनी	-2293
दे	-2294
alk	-2295
▁Gr	-2296
ंद्र	-2297
▁Eur	-2298
स्फोट	-2299
▁मिलियन	-2300
▁statement	-2301
ão	-2302
▁Â	-2303
erv	-2304
▁चे	-2305
▁Par	-2306
▁cửa	-2307
▁đàn	-2308
▁मार	-2309
ments	-2310
ीडिया	-2311
ner	-2312
uồn	-2313
▁sư	-2314
icro	-2315
tain	-2316
▁fire	-2317
▁सेवा	-2318
▁South	-2319
▁xuống	-2320
ेली	-2321
▁Sy	-2322
▁रोक	-2323
▁विभ	-2324
▁2003	-2325
▁giúp	-2326
▁विस्फोट	-2327
▁Pakistan	-2328
णाम	-2329
▁Co	-2330
▁गै	-2331
ured	-2332
▁tốt	-2333
ative	-2334
▁oper	-2335
▁स्थिति	-2336
ics	-2337
▁वाप	-2338
xt	-2339
वन	-2340
वाल	-2341
▁Pe	-2342
line	-2343
ries	-2344
▁chi	-2345
▁London	-2346
▁परिणाम	-2347
.5	-2348
ín	-2349
▁अफ	-2350
▁tích	-2351
eh	-2352
▁Nam	-2353
▁Sau	-2354
▁vật	-2355
▁contin	-2356
▁including	-2357
20	-2358
िज	-2359
▁cảm	-2360
▁nữa	-2361
ester	-2362
▁danh	-2363
▁कर्म	-2364
▁bà	-2365
▁एज	-2366
▁तब	-2367
▁हू	-2368
ures	-2369
▁Pol	-2370
▁बच्च	-2371
▁प्रधान	-2372
रण	-2373
▁(1	-2374
▁40	-2375
▁khả	-2376
▁sân	-2377
▁Russ	-2378
▁local	-2379
▁प्राप्त	-2380
▁Australian	-2381
iếm	-2382
करण	-2383
▁dep	-2384
▁leg	-2385
▁vậy	-2386
▁संप	-2387
▁Obama	-2388
▁यूरोप	-2389
ोस	-2390
▁0	-2391
जूद	-2392
▁Am	-2393
▁नौ	-2394
rest	-2395
▁lửa	-2396
▁occ	-2397
▁Mich	-2398
▁expl	-2399
▁लेकर	-2400
▁thuốc	-2401
▁follow	-2402
बह	-2403
मै	-2404
ेम	-2405
र्क	-2406
▁आई	-2407
ives	-2408
▁Năm	-2409
▁đơn	-2410
▁एयर	-2411
▁mang	-2412
▁take	-2413
▁announced	-2414
ूर	-2415
ãng	-2416
ांस	-2417
alth	-2418
▁hạn	-2419
▁she	-2420
▁nguy	-2421
▁sign	-2422
▁कहना	-2423
▁प्रवक्ता	-2424
rew	-2425
तिक	-2426
ặng	-2427
▁vô	-2428
▁then	-2429
▁हमला	-2430
▁public	-2431
ene	-2432
▁बद	-2433
ajor	-2434
▁Con	-2435
▁tiết	-2436
▁व्या	-2437
▁right	-2438
ms	-2439
▁our	-2440
▁trẻ	-2441
▁घंट	-2442
▁अपना	-2443
▁nguồn	-2444
mp	-2445
als	-2446
िका	-2447
▁dài	-2448
▁दूसरे	-2449
▁योजना	-2450
▁विमान	-2451
ùa	-2452
यह	-2453
माल	-2454
ांच	-2455
▁chế	-2456
▁ent	-2457
▁gặp	-2458
▁win	-2459
ility	-2460
urity	-2461
▁châu	-2462
▁dưới	-2463
▁ngay	-2464
▁rece	-2465
▁says	-2466
ोक	-2467
▁ac	-2468
▁ऑफ	-2469
▁Tây	-2470
▁ass	-2471
ave	-2472
ley	-2473
▁फिल	-2474
▁Công	-2475
▁diện	-2476
▁सकती	-2477
▁belie	-2478
▁khủng	-2479
▁video	-2480
▁प्रदर्शन	-2481
ety	-2482
ful	-2483
▁bl	-2484
▁đặc	-2485
▁समा	-2486
▁उसने	-2487
▁spokes	-2488
ets	-2489
imes	-2490
▁क्ल	-2491
order	-2492
▁phút	-2493
▁World	-2494
▁bốn	-2495
▁due	-2496
▁बर्	-2497
▁trạng	-2498
▁nghiệm	-2499
▁stated	-2500
led	-2501
ख्य	-2502
▁Âu	-2503
▁day	-2504
▁tai	-2505
▁ऐसा	-2506
TC	-2507
ँच	-2508
▁21	-2509
▁आग	-2510
▁खु	-2511
▁Nga	-2512
▁det	-2513
▁own	-2514
▁đặt	-2515
▁कना	-2516
▁phân	-2517
ạy	-2518
ाइट	-2519
▁आय	-2520
▁बन	-2521
▁कोश	-2522
▁समुद	-2523
▁giành	-2524
शनल	-2525
read	-2526
घटना	-2527
▁ins	-2528
▁poin	-2529
▁दिखा	-2530
ãi	-2531
दम	-2532
बे	-2533
ứa	-2534
ंबर	-2535
▁hỗ	-2536
▁sm	-2537
ivers	-2538
▁News	-2539
▁giết	-2540
▁उत्प	-2541
ission	-2542
भव	-2543
▁कल	-2544
ियान	-2545
▁Pháp	-2546
▁requ	-2547
▁đứng	-2548
▁saying	-2549
▁military	-2550
▁officials	-2551
cu	-2552
▁झ	-2553
rat	-2554
ange	-2555
▁Thủ	-2556
▁khai	-2557
osition	-2558
▁tù	-2559
ison	-2560
▁And	-2561
▁news	-2562
▁सदस्य	-2563
▁Palest	-2564
सान	-2565
▁hạt	-2566
्यालय	-2567
▁उनका	-2568
▁Người	-2569
▁appro	-2570
▁least	-2571
▁दक्षिण	-2572
ुट	-2573
ỏng	-2574
▁ký	-2575
▁एड	-2576
रिया	-2577
▁Hội	-2578
▁tối	-2579
▁ड्र	-2580
ather	-2581
▁nhau	-2582
▁phục	-2583
▁thuật	-2584
▁दुर्घटना	-2585
ियर	-2586
▁Sch	-2587
▁मृत	-2588
anc	-2589
ames	-2590
rect	-2591
soft	-2592
▁Chr	-2593
▁Ngh	-2594
▁duy	-2595
▁Đại	-2596
▁incre	-2597
▁यात्र	-2598
▁according	-2599
by	-2600
ism	-2601
ॉलर	-2602
▁Bắc	-2603
esday	-2604
▁died	-2605
▁इराक	-2606
▁Micro	-2607
▁सप्ता	-2608
फ्त	-2609
▁op	-2610
port	-2611
ारों	-2612
▁hiệp	-2613
▁देशों	-2614
▁company	-2615
एन	-2616
हत	-2617
hip	-2618
च्च	-2619
▁रि	-2620
ross	-2621
▁cái	-2622
▁several	-2623
टा	-2624
सन	-2625
unch	-2626
ार्ड	-2627
▁Dav	-2628
▁निय	-2629
▁मिन	-2630
▁need	-2631
▁plan	-2632
▁सर्व	-2633
▁members	-2634
▁National	-2635
af	-2636
elf	-2637
▁196	-2638
▁bắn	-2639
▁mặc	-2640
ystem	-2641
▁head	-2642
▁बयान	-2643
▁those	-2644
फी	-2645
▁कॉ	-2646
▁Sun	-2647
ology	-2648
▁Mười	-2649
▁serv	-2650
▁अधिकारी	-2651
min	-2652
▁đổ	-2653
▁ती	-2654
▁sub	-2655
▁reports	-2656
▁Microsoft	-2657
ey	-2658
जर	-2659
ife	-2660
▁ज़	-2661
stit	-2662
▁McC	-2663
▁five	-2664
▁जैसे	-2665
▁पांच	-2666
▁nguyên	-2667
जब	-2668
▁चि	-2669
ants	-2670
emoc	-2671
ians	-2672
▁chị	-2673
▁get	-2674
▁set	-2675
▁श्र	-2676
्यादा	-2677
▁tịch	-2678
▁used	-2679
▁छोड़	-2680
▁मारे	-2681
▁श्री	-2682
▁Europe	-2683
एं	-2684
स्क	-2685
▁एम	-2686
vent	-2687
शिया	-2688
▁Man	-2689
▁đáng	-2690
▁संख्या	-2691
▁released	-2692
▁xử	-2693
▁शु	-2694
ales	-2695
▁mỗi	-2696
ately	-2697
▁होता	-2698
▁विदेश	-2699
ग्	-2700
ract	-2701
rong	-2702
▁ext	-2703
▁इला	-2704
▁dùng	-2705
▁poss	-2706
▁đoạn	-2707
▁inform	-2708
▁शुरुआत	-2709
▁Afghanistan	-2710
ute	-2711
▁br	-2712
▁mùa	-2713
▁ret	-2714
▁web	-2715
▁next	-2716
▁जाना	-2717
▁न्या	-2718
▁सम्म	-2719
ee	-2720
धा	-2721
alf	-2722
arty	-2723
ject	-2724
ार्क	-2725
▁Chủ	-2726
▁बजे	-2727
▁camp	-2728
▁होगी	-2729
चित	-2730
त्व	-2731
▁BBC	-2732
▁तेल	-2733
▁hour	-2734
▁डॉलर	-2735
▁produ	-2736
▁कोशिश	-2737
▁जिससे	-2738
▁cú	-2739
▁mở	-2740
▁Sec	-2741
▁हमले	-2742
▁child	-2743
▁chung	-2744
▁सहायता	-2745
▁incident	-2746
▁ऑस्ट्रेलियाई	-2747
ूत	-2748
omen	-2749
▁hại	-2750
स्तान	-2751
▁Nhật	-2752
▁long	-2753
▁क्या	-2754
▁chuẩn	-2755
▁trích	-2756
▁Scotland	-2757
मत	-2758
loy	-2759
uel	-2760
ield	-2761
▁Eng	-2762
▁She	-2763
▁दिए	-2764
▁माइ	-2765
▁मुक	-2766
uthor	-2767
तेमाल	-2768
▁nhập	-2769
eneral	-2770
▁nghĩa	-2771
▁इस्तेमाल	-2772
▁राष्ट्रीय	-2773
यन	-2774
usp	-2775
▁27	-2776
▁Car	-2777
▁opp	-2778
▁तौर	-2779
▁trực	-2780
▁these	-2781
ael	-2782
▁kẻ	-2783
▁nỗ	-2784
ason	-2785
▁col	-2786
▁buổi	-2787
▁जहां	-2788
ची	-2789
com	-2790
▁समझ	-2791
स्ताव	-2792
▁thẩm	-2793
▁từng	-2794
▁वाला	-2795
▁allow	-2796
▁number	-2797
▁recent	-2798
▁should	-2799
osp	-2800
▁पो	-2801
▁अंत	-2802
▁मूल	-2803
▁2010	-2804
▁băng	-2805
▁susp	-2806
▁सुबह	-2807
▁Prime	-2808
▁मुख्य	-2809
▁system	-2810
▁countries	-2811
शा	-2812
तिम	-2813
वाह	-2814
▁For	-2815
▁Sen	-2816
▁Vào	-2817
▁độc	-2818
ished	-2819
▁fore	-2820
▁build	-2821
▁युद्ध	-2822
▁प्रस्ताव	-2823
▁कार्यक्रम	-2824
ìn	-2825
यल	-2826
▁ना	-2827
bert	-2828
▁hết	-2829
▁major	-2830
▁called	-2831
▁expected	-2832
ived	-2833
▁bàn	-2834
vious	-2835
▁caus	-2836
▁help	-2837
▁remain	-2838
▁दुनिया	-2839
एम	-2840
▁NA	-2841
▁câu	-2842
▁đạt	-2843
▁एंड	-2844
▁नाग	-2845
▁game	-2846
ij	-2847
ọc	-2848
:00	-2849
ird	-2850
arge	-2851
uman	-2852
मेंट	-2853
▁dif	-2854
▁hỏi	-2855
▁oil	-2856
▁chịu	-2857
▁हवाई	-2858
▁direct	-2859
▁ज्यादा	-2860
▁सप्ताह	-2861
▁lệ	-2862
▁tờ	-2863
istr	-2864
नाइट	-2865
िप्प	-2866
▁थीं	-2867
ament	-2868
क्षित	-2869
▁Cộng	-2870
▁cent	-2871
▁súng	-2872
▁अंतिम	-2873
▁result	-2874
ins	-2875
्टी	-2876
▁mô	-2877
ness	-2878
▁hồi	-2879
▁sit	-2880
स्थ्य	-2881
▁chấp	-2882
▁giám	-2883
▁make	-2884
▁test	-2885
▁every	-2886
▁hướng	-2887
▁another	-2888
kh	-2889
ặn	-2890
▁cá	-2891
mber	-2892
▁bảy	-2893
▁đảo	-2894
▁गति	-2895
▁dựng	-2896
▁mark	-2897
▁ninh	-2898
▁thích	-2899
It	-2900
टन	-2901
▁23	-2902
▁वो	-2903
▁bại	-2904
▁khó	-2905
▁nổi	-2906
▁तैय	-2907
iforn	-2908
धिकार	-2909
▁spec	-2910
▁अस्प	-2911
ternet	-2912
▁still	-2913
ửi	-2914
▁22	-2915
ened	-2916
ogle	-2917
▁Pro	-2918
▁del	-2919
तंत्र	-2920
▁cond	-2921
▁अच्छ	-2922
▁व्यव	-2923
ifornia	-2924
▁chuyến	-2925
▁केंद्र	-2926
oy	-2927
आई	-2928
ựu	-2929
urs	-2930
▁Gu	-2931
▁बम	-2932
▁bus	-2933
▁dri	-2934
▁परी	-2935
▁फैस	-2936
cient	-2937
▁टिप्प	-2938
▁महीने	-2939
▁former	-2940
▁international	-2941
▁Cl	-2942
▁Cu	-2943
ator	-2944
ular	-2945
वादी	-2946
▁Bản	-2947
▁Dân	-2948
त्कार	-2949
▁held	-2950
▁took	-2951
नाइटेड	-2952
ospital	-2953
्ब	-2954
▁tỷ	-2955
ourn	-2956
ष्टि	-2957
▁जिम	-2958
▁संग	-2959
▁city	-2960
▁रहने	-2961
ipedia	-2962
▁alleg	-2963
▁polit	-2964
▁करेंगे	-2965
▁नागरिक	-2966
▁Indones	-2967
▁स्वास्थ्य	-2968
▁California	-2969
SA	-2970
्क	-2971
ock	-2972
ared	-2973
▁ref	-2974
▁văn	-2975
▁phạt	-2976
▁ढ	-2977
▁Re	-2978
▁bão	-2979
▁sức	-2980
▁organ	-2981
▁कानून	-2982
▁रिकॉर्ड	-2983
काश	-2984
▁एन	-2985
▁गं	-2986
▁टे	-2987
view	-2988
▁gửi	-2989
▁very	-2990
▁कहते	-2991
▁करेगा	-2992
▁मामले	-2993
▁यूनाइटेड	-2994
ands	-2995
ling	-2996
▁dục	-2997
▁lợi	-2998
▁six	-2999
धारित	-3000
▁issu	-3001
▁sent	-3002
▁बड़े	-3003
▁British	-3004
yan	-3005
ामा	-3006
▁UN	-3007
▁tố	-3008
▁Lan	-3009
▁tak	-3010
▁रखा	-3011
▁सुन	-3012
ज्ञान	-3013
▁Frid	-3014
▁khoa	-3015
▁vict	-3016
▁पूरी	-3017
▁launch	-3018
▁However	-3019
ody	-3020
मैं	-3021
ages	-3022
▁hóa	-3023
▁họp	-3024
▁use	-3025
▁Đức	-3026
▁वेब	-3027
▁हूं	-3028
▁main	-3029
▁nhằm	-3030
▁đông	-3031
▁स्वी	-3032
▁arrest	-3033
▁person	-3034
▁Wikipedia	-3035
ưng	-3036
▁áp	-3037
▁लड़	-3038
▁days	-3039
▁माना	-3040
▁attem	-3041
▁इंटरने	-3042
▁election	-3043
aly	-3044
▁हर	-3045
ार्व	-3046
▁pri	-3047
▁won	-3048
▁xây	-3049
स्थित	-3050
▁Cent	-3051
▁invol	-3052
▁water	-3053
gg	-3054
na	-3055
pl	-3056
ệt	-3057
bia	-3058
apan	-3059
▁Sáu	-3060
▁dam	-3061
▁hãng	-3062
▁famil	-3063
▁1,	-3064
ized	-3065
▁cơn	-3066
▁fil	-3067
▁जॉन	-3068
▁meet	-3069
▁House	-3070
▁thuận	-3071
▁अभियान	-3072
ीप	-3073
रों	-3074
ाया	-3075
▁my	-3076
▁Hồi	-3077
▁गोल	-3078
▁lịch	-3079
▁tinh	-3080
▁viol	-3081
▁आयोज	-3082
▁इसका	-3083
▁बिना	-3084
▁स्तर	-3085
ournal	-3086
emocrat	-3087
▁Friday	-3088
▁Google	-3089
ror	-3090
uck	-3091
भीर	-3092
▁बो	-3093
▁crit	-3094
▁phim	-3095
▁want	-3096
▁मिनट	-3097
▁व्याप	-3098
▁record	-3099
▁परिवार	-3100
1,	-3101
bo	-3102
रान	-3103
work	-3104
ोर्ड	-3105
▁giả	-3106
▁हास	-3107
▁lệnh	-3108
▁pass	-3109
▁चर्च	-3110
▁press	-3111
▁शुक्र	-3112
▁स्पष्ट	-3113
कल	-3114
the	-3115
वरण	-3116
▁इं	-3117
स्तव	-3118
▁sao	-3119
▁तथा	-3120
▁gắng	-3121
▁सीने	-3122
▁जानकारी	-3123
ंघ	-3124
गत	-3125
ूप	-3126
ữu	-3127
rol	-3128
▁दौ	-3129
ired	-3130
ियां	-3131
्यान	-3132
▁Mon	-3133
▁खोज	-3134
▁जाप	-3135
▁दूर	-3136
▁पेश	-3137
velop	-3138
▁kiếm	-3139
▁thảo	-3140
▁David	-3141
▁Japan	-3142
▁court	-3143
▁बनाने	-3144
▁महत्व	-3145
▁हमारे	-3146
▁develop	-3147
▁American	-3148
ूस	-3149
र्ष	-3150
िस्	-3151
▁Pa	-3152
▁एस	-3153
▁197	-3154
▁hữu	-3155
▁nhỏ	-3156
▁हों	-3157
▁chặn	-3158
▁ngăn	-3159
▁घायल	-3160
▁पाया	-3161
▁party	-3162
▁हासिल	-3163
▁Michael	-3164
sh	-3165
ầy	-3166
हार	-3167
▁Or	-3168
lier	-3169
uyết	-3170
year	-3171
लाइन	-3172
▁nội	-3173
▁2000	-3174
▁like	-3175
▁lính	-3176
▁मांग	-3177
▁संगठ	-3178
▁Party	-3179
▁thanh	-3180
▁पर्या	-3181
▁लगाया	-3182
▁सदस्यों	-3183
धी	-3184
enn	-3185
ull	-3186
▁Se	-3187
▁cư	-3188
▁ची	-3189
▁मद	-3190
atur	-3191
िस्ट	-3192
▁काउ	-3193
▁मील	-3194
क्रेट	-3195
▁soát	-3196
▁sóng	-3197
▁प्रतिनि	-3198
▁आवश्यकता	-3199
कट	-3200
रल	-3201
its	-3202
▁bé	-3203
pped	-3204
▁ऑफ़	-3205
erman	-3206
gency	-3207
▁China	-3208
▁power	-3209
▁प्रत्य	-3210
▁शुक्रवार	-3211
1.	-3212
aign	-3213
स्या	-3214
▁tức	-3215
▁They	-3216
▁half	-3217
▁rest	-3218
▁trăm	-3219
▁सीमा	-3220
urther	-3221
ब्ल्यू	-3222
▁स्टेट	-3223
मन	-3224
जरा	-3225
हां	-3226
▁Sw	-3227
▁Tư	-3228
▁mỏ	-3229
▁सै	-3230
▁bro	-3231
▁hủy	-3232
▁kêu	-3233
▁वापस	-3234
्राष्ट्रीय	-3235
2.	-3236
gy	-3237
ria	-3238
▁ké	-3239
▁हा	-3240
orts	-3241
used	-3242
द्धि	-3243
▁mối	-3244
▁put	-3245
▁मदद	-3246
▁देखा	-3247
▁समाप्त	-3248
▁previous	-3249
ậm	-3250
ắm	-3251
chn	-3252
ese	-3253
ल्प	-3254
ाइम	-3255
▁Tu	-3256
▁lạc	-3257
▁लाग	-3258
▁case	-3259
▁chơi	-3260
▁आतंक	-3261
▁occur	-3262
▁विचार	-3263
▁national	-3264
ạp	-3265
ाइल	-3266
ालय	-3267
▁lộ	-3268
त्या	-3269
▁ask	-3270
▁dem	-3271
ified	-3272
▁chạy	-3273
▁phẩm	-3274
▁rộng	-3275
▁मिला	-3276
▁exper	-3277
▁मीडिया	-3278
▁information	-3279
टल	-3280
ेक	-3281
Ủy	-3282
ief	-3283
िता	-3284
▁60	-3285
▁80	-3286
▁गि	-3287
▁lưu	-3288
▁pop	-3289
▁2009	-3290
▁Cảnh	-3291
▁biên	-3292
▁घंटे	-3293
▁प्रो	-3294
▁रखने	-3295
मंत्री	-3296
▁khiến	-3297
▁thiếu	-3298
▁प्रेस	-3299
▁मंत्र	-3300
▁सैन्य	-3301
▁ब्रिटिश	-3302
▁security	-3303
pe	-3304
र्न	-3305
ाउन	-3306
▁gó	-3307
▁hu	-3308
▁जल	-3309
ided	-3310
▁आने	-3311
▁even	-3312
▁अगले	-3313
▁बड़ी	-3314
▁phỏng	-3315
▁उत्पाद	-3316
▁Democrat	-3317
सद	-3318
ams	-3319
ताव	-3320
थित	-3321
मैन	-3322
ाला	-3323
▁ai	-3324
स्था	-3325
▁विल	-3326
▁dành	-3327
▁लेने	-3328
ington	-3329
▁confir	-3330
▁समस्या	-3331
esterday	-3332
ज़ी	-3333
दों	-3334
र्ड	-3335
ल्ल	-3336
▁वज	-3337
iver	-3338
▁जवा	-3339
▁महा	-3340
▁thần	-3341
▁trái	-3342
▁इससे	-3343
▁डेमो	-3344
▁गंभीर	-3345
▁author	-3346
▁जिन्होंने	-3347
ani	-3348
▁डी	-3349
▁Ủy	-3350
▁cấm	-3351
▁नुक	-3352
▁मैच	-3353
▁रात	-3354
▁same	-3355
retary	-3356
▁ngoại	-3357
▁पुष्टि	-3358
▁International	-3359
▁अंतर्राष्ट्रीय	-3360
▁Do	-3361
▁ed	-3362
urch	-3363
▁Ham	-3364
▁Nhà	-3365
▁saf	-3366
ended	-3367
thern	-3368
श्चिम	-3369
▁नेता	-3370
orning	-3371
▁known	-3372
▁polic	-3373
artment	-3374
▁नुकसान	-3375
iversity	-3376
▁अस्पताल	-3377
धे	-3378
ớm	-3379
ann	-3380
til	-3381
▁El	-3382
ying	-3383
▁All	-3384
▁est	-3385
▁yếu	-3386
▁ước	-3387
▁तुल	-3388
▁पार	-3389
▁सोम	-3390
▁cánh	-3391
▁women	-3392
▁वास्तव	-3393
:30	-3394
arm	-3395
els	-3396
ंता	-3397
▁Fl	-3398
▁sơ	-3399
▁đe	-3400
▁भर	-3401
cess	-3402
ार्थ	-3403
ब्लिक	-3404
▁Hiệp	-3405
▁biến	-3406
▁quay	-3407
▁इजरा	-3408
▁पानी	-3409
▁trans	-3410
▁सार्व	-3411
▁chuyện	-3412
▁प्रतिश	-3413
▁संभावना	-3414
-0	-3415
बल	-3416
ॉक	-3417
ept	-3418
ott	-3419
rem	-3420
▁Họ	-3421
▁hạ	-3422
▁đá	-3423
▁दर	-3424
▁adv	-3425
▁met	-3426
▁vừa	-3427
▁साइ	-3428
▁came	-3429
▁home	-3430
▁kích	-3431
▁जवाब	-3432
▁देते	-3433
▁बनाए	-3434
▁taken	-3435
▁school	-3436
▁प्रदान	-3437
▁without	-3438
gin	-3439
ury	-3440
ense	-3441
raft	-3442
ग्रह	-3443
▁San	-3444
▁aff	-3445
▁वजह	-3446
नीतिक	-3447
▁nhạc	-3448
▁गोली	-3449
ursday	-3450
▁crash	-3451
▁doanh	-3452
▁परीक्षण	-3453
ico	-3454
ंदन	-3455
▁अद	-3456
utes	-3457
ॉर्क	-3458
▁अलग	-3459
▁इंड	-3460
▁चीन	-3461
▁जहाज	-3462
▁निर्ण	-3463
▁nghiêm	-3464
▁टिप्पणी	-3465
▁Thursday	-3466
▁प्रधानमंत्री	-3467
▁đủ	-3468
ases	-3469
soci	-3470
ॉर्ज	-3471
▁You	-3472
▁chú	-3473
▁phi	-3474
▁sớm	-3475
▁trụ	-3476
▁अला	-3477
▁पीछ	-3478
ained	-3479
▁miss	-3480
▁इसकी	-3481
▁लंदन	-3482
▁लगता	-3483
▁मार्च	-3484
▁सूचना	-3485
कर्ताओं	-3486
▁Republic	-3487
pr	-3488
ọa	-3489
हरा	-3490
ांत	-3491
्मे	-3492
▁gu	-3493
▁hy	-3494
▁रे	-3495
iêng	-3496
▁Gre	-3497
▁men	-3498
▁nằm	-3499
conom	-3500
▁cháy	-3501
▁quản	-3502
▁viết	-3503
▁charg	-3504
▁chuyên	-3505
▁पत्रकार	-3506
▁campaign	-3507
▁hospital	-3508
▁डेमोक्रेट	-3509
FA	-3510
for	-3511
▁cổ	-3512
▁ob	-3513
ored	-3514
▁sửa	-3515
▁अति	-3516
▁इंग	-3517
▁ngân	-3518
idence	-3519
▁later	-3520
▁चेताव	-3521
▁Thượng	-3522
▁effect	-3523
Ấn	-3524
ặm	-3525
▁—	-3526
षित	-3527
ासन	-3528
जनिक	-3529
▁lái	-3530
▁chối	-3531
ection	-3532
▁North	-3533
▁media	-3534
▁अनुमान	-3535
▁गिरफ्त	-3536
▁वर्षों	-3537
▁समाचार	-3538
-2	-3539
मि	-3540
aza	-3541
tic	-3542
▁Bl	-3543
▁tả	-3544
▁मो	-3545
▁Ấn	-3546
▁Mus	-3547
▁dặm	-3548
▁बैठ	-3549
्रिया	-3550
▁cand	-3551
▁left	-3552
▁prom	-3553
▁thất	-3554
▁final	-3555
▁going	-3556
▁nhanh	-3557
▁तुलना	-3558
▁Police	-3559
▁though	-3560
ior	-3561
ops	-3562
cept	-3563
ounc	-3564
▁bạo	-3565
▁disc	-3566
▁fail	-3567
▁thân	-3568
▁नीचे	-3569
▁पहला	-3570
▁बचाव	-3571
▁जिसने	-3572
▁commun	-3573
▁अध्यक्ष	-3574
▁सार्वजनिक	-3575
urg	-3576
चाल	-3577
व्य	-3578
ूनी	-3579
ांति	-3580
▁App	-3581
▁पड़	-3582
▁Cuộc	-3583
▁binh	-3584
▁bomb	-3585
▁nghệ	-3586
▁एजें	-3587
▁मुझे	-3588
▁early	-3589
▁riêng	-3590
▁तैयार	-3591
liament	-3592
▁Christ	-3593
▁candid	-3594
▁partic	-3595
▁attempt	-3596
▁महत्वपूर्ण	-3597
ữa	-3598
▁चै	-3599
aged	-3600
▁Bảy	-3601
▁sim	-3602
▁छोट	-3603
▁ब्ल	-3604
▁move	-3605
uclear	-3606
▁event	-3607
▁khoản	-3608
▁ध्यान	-3609
▁विभाग	-3610
▁स्कॉट	-3611
▁further	-3612
▁protest	-3613
▁decision	-3614
▁Indonesia	-3615
ham	-3616
तीय	-3617
मति	-3618
▁हथ	-3619
ivil	-3620
साइट	-3621
ित्व	-3622
▁Ban	-3623
▁Phi	-3624
▁King	-3625
▁कथित	-3626
▁पक्ष	-3627
▁After	-3628
▁tượng	-3629
▁स्कूल	-3630
ves	-3631
िले	-3632
▁Bo	-3633
▁आस	-3634
ffic	-3635
▁UTC	-3636
▁cập	-3637
▁मैक	-3638
ember	-3639
▁dead	-3640
▁land	-3641
▁ràng	-3642
▁गुरु	-3643
▁टेली	-3644
▁Roman	-3645
▁until	-3646
▁कनाडा	-3647
▁proble	-3648
▁अनुमति	-3649
▁नियंत्र	-3650
▁उम्मीदवार	-3651
सम	-3652
igg	-3653
une	-3654
ड़ों	-3655
ध्यम	-3656
▁Jan	-3657
▁cựu	-3658
▁huy	-3659
▁way	-3660
▁Đội	-3661
▁भार	-3662
▁Sant	-3663
▁hear	-3664
▁reach	-3665
▁चेतावनी	-3666
▁प्रतिशत	-3667
▁प्रतिबंध	-3668
ॉप	-3669
ili	-3670
▁kỷ	-3671
▁नई	-3672
▁वृ	-3673
mark	-3674
▁Bra	-3675
▁bày	-3676
▁trò	-3677
▁tốc	-3678
▁whe	-3679
▁आलो	-3680
द्योग	-3681
▁chọn	-3682
▁ngôi	-3683
▁nặng	-3684
▁đoán	-3685
▁यूएस	-3686
▁उत्तर	-3687
▁जॉर्ज	-3688
▁German	-3689
▁econom	-3690
▁leader	-3691
▁निर्णय	-3692
▁Israeli	-3693
my	-3694
ॉम	-3695
mit	-3696
ंगल	-3697
▁Độ	-3698
ड़ित	-3699
▁mua	-3700
▁par	-3701
▁क्व	-3702
▁vượt	-3703
▁अदाल	-3704
▁उच्च	-3705
ending	-3706
▁वर्षीय	-3707
गो	-3708
प्त	-3709
▁Ju	-3710
cent	-3711
ready	-3712
▁Nghị	-3713
▁fact	-3714
▁past	-3715
▁post	-3716
▁जर्म	-3717
▁मृत्यु	-3718
▁यूरोपीय	-3719
▁received	-3720
▁स्वतंत्र	-3721
एल	-3722
ूट	-3723
lim	-3724
्मक	-3725
▁km	-3726
▁Ngo	-3727
▁rul	-3728
▁आया	-3729
▁वोट	-3730
▁हमें	-3731
▁State	-3732
▁phiên	-3733
▁सैनिकों	-3734
▁European	-3735
▁प्रभावित	-3736
lex	-3737
ंटी	-3738
लिए	-3739
ोने	-3740
▁26	-3741
reed	-3742
▁Cor	-3743
▁Dep	-3744
▁One	-3745
▁tel	-3746
▁उद्	-3747
▁वित	-3748
▁bill	-3749
▁webs	-3750
▁पूरा	-3751
▁Georg	-3752
▁नेशनल	-3753
▁मतदान	-3754
▁months	-3755
▁children	-3756
चिव	-3757
▁उठ	-3758
▁शी	-3759
iber	-3760
ploy	-3761
▁rơi	-3762
▁spe	-3763
▁tải	-3764
▁पुन	-3765
▁योग	-3766
ention	-3767
क्रिया	-3768
▁threat	-3769
úi	-3770
aff	-3771
let	-3772
ेरे	-3773
▁तू	-3774
▁भे	-3775
cial	-3776
gram	-3777
illi	-3778
▁dọa	-3779
▁तरी	-3780
▁vong	-3781
▁संसद	-3782
uation	-3783
▁जिसके	-3784
▁forces	-3785
▁yesterday	-3786
Nh	-3787
िली	-3788
▁70	-3789
▁Ed	-3790
▁अर	-3791
ware	-3792
▁बेह	-3793
▁much	-3794
▁लड़ा	-3795
itions	-3796
▁large	-3797
▁Monday	-3798
▁प्रकाश	-3799
▁फ्रांस	-3800
▁continu	-3801
▁journal	-3802
▁morning	-3803
क्षात्कार	-3804
,5	-3805
ẫu	-3806
xim	-3807
राब	-3808
duct	-3809
form	-3810
lock	-3811
▁Cup	-3812
▁vis	-3813
▁नेट	-3814
▁बुश	-3815
ering	-3816
thing	-3817
पूर्व	-3818
▁hiểm	-3819
▁sold	-3820
▁within	-3821
▁माध्यम	-3822
▁already	-3823
▁Internet	-3824
▁साक्षात्कार	-3825
àm	-3826
ाँ	-3827
ॉर	-3828
raw	-3829
केट	-3830
▁Bro	-3831
▁rời	-3832
▁दोष	-3833
▁मजब	-3834
▁Mark	-3835
▁inst	-3836
▁vote	-3837
▁ईरान	-3838
▁करती	-3839
▁संके	-3840
ederal	-3841
etwork	-3842
though	-3843
▁There	-3844
▁region	-3845
▁वृद्धि	-3846
▁सोमवार	-3847
▁गुरुवार	-3848
▁political	-3849
esp	-3850
फ्ट	-3851
साय	-3852
▁ओब	-3853
rain	-3854
माणु	-3855
▁cam	-3856
▁tro	-3857
▁सड़	-3858
▁सर्	-3859
ually	-3860
कर्ता	-3861
▁larg	-3862
▁सुना	-3863
▁chiếm	-3864
▁tưởng	-3865
▁सामने	-3866
▁एजेंसी	-3867
▁पीड़ित	-3868
▁व्यक्त	-3869
▁निर्माण	-3870
▁investigation	-3871
"।	-3872
▁How	-3873
▁bức	-3874
▁how	-3875
▁đảm	-3876
▁बाव	-3877
▁shot	-3878
▁suốt	-3879
▁tỉnh	-3880
ouncil	-3881
▁activ	-3882
▁night	-3883
▁France	-3884
▁caused	-3885
▁present	-3886
ara	-3887
ler	-3888
जार	-3889
लाई	-3890
▁29	-3891
▁35	-3892
▁Bu	-3893
▁bác	-3894
▁cải	-3895
▁सजा	-3896
▁Thái	-3897
▁does	-3898
▁find	-3899
▁prop	-3900
▁मिली	-3901
▁मुद्	-3902
▁इसलिए	-3903
▁कार्र	-3904
▁संगठन	-3905
▁परिवर्	-3906
▁प्रक्रिया	-3907
भा	-3908
रि	-3909
वें	-3910
▁28	-3911
▁We	-3912
▁cụ	-3913
▁एल	-3914
iron	-3915
▁hit	-3916
▁पूछ	-3917
▁giam	-3918
▁उसकी	-3919
▁हथिय	-3920
▁human	-3921
ization	-3922
olution	-3923
▁Sunday	-3924
▁परमाणु	-3925
▁बावजूद	-3926
▁injured	-3927
▁स्वीकार	-3928
▁currently	-3929
.2	-3930
ys	-3931
ीक	-3932
ape	-3933
ats	-3934
ban	-3935
▁xã	-3936
▁आए	-3937
▁जग	-3938
▁दल	-3939
▁बज	-3940
क्टर	-3941
▁May	-3942
▁pay	-3943
▁मिश	-3944
कालीन	-3945
▁Jack	-3946
▁Ryan	-3947
▁niên	-3948
▁talk	-3949
▁अपरा	-3950
▁प्रा	-3951
▁giống	-3952
▁hours	-3953
▁अध्ययन	-3954
▁वेबसाइट	-3955
▁occurred	-3956
तम	-3957
amb	-3958
oon	-3959
ष्य	-3960
▁Pl	-3961
▁Sự	-3962
▁av	-3963
▁lễ	-3964
▁चौ	-3965
oney	-3966
ग्री	-3967
▁beh	-3968
▁trì	-3969
▁तीस	-3970
▁हाउ	-3971
ल्लंघ	-3972
▁know	-3973
▁địch	-3974
▁प्रण	-3975
▁मध्य	-3976
▁होती	-3977
▁ngoái	-3978
▁स्थाप	-3979
▁McCain	-3980
▁consid	-3981
▁health	-3982
▁however	-3983
▁nuclear	-3984
▁रिपब्लिक	-3985
▁University	-3986
40	-3987
ert	-3988
ंगे	-3989
▁डॉ	-3990
lood	-3991
▁Kho	-3992
▁cor	-3993
▁fac	-3994
▁kéo	-3995
▁rút	-3996
▁tám	-3997
▁đời	-3998
रिक्त	-3999
▁goal	-4000
▁race	-4001
▁Đông	-4002
▁अप्र	-4003
▁quanh	-4004
▁इंग्ल	-4005
▁संकेत	-4006
▁प्रतिक	-4007
▁addition	-4008
▁building	-4009
ait	-4010
era	-4011
mar	-4012
गान	-4013
मिक	-4014
र्ग	-4015
ौती	-4016
▁मि	-4017
▁लै	-4018
aper	-4019
crib	-4020
▁few	-4021
▁अगर	-4022
▁विप	-4023
क्ष्य	-4024
▁Việc	-4025
▁West	-4026
▁bảng	-4027
▁dest	-4028
▁nhìn	-4029
▁nhật	-4030
▁पूरे	-4031
▁match	-4032
▁quest	-4033
▁treat	-4034
▁explos	-4035
▁उल्लंघ	-4036
▁पश्चिम	-4037
▁minister	-4038
▁राजनीतिक	-4039
▁following	-4040
ẩy	-4041
चान	-4042
म्र	-4043
▁Vụ	-4044
▁âm	-4045
▁मी	-4046
side	-4047
ुरुष	-4048
▁bre	-4049
▁cắt	-4050
▁cực	-4051
▁jud	-4052
▁ऐसी	-4053
▁जगह	-4054
▁शिक	-4055
iness	-4056
▁đích	-4057
▁पीछे	-4058
▁वार्	-4059
▁हाउस	-4060
ession	-4061
▁Afric	-4062
▁thoại	-4063
▁अदालत	-4064
▁पुरुष	-4065
▁रक्षा	-4066
▁हिस्सा	-4067
▁attacks	-4068
▁अतिरिक्त	-4069
यू	-4070
ụt	-4071
ald	-4072
ask	-4073
▁अट	-4074
▁टै	-4075
ards	-4076
itte	-4077
▁500	-4078
▁Ser	-4079
▁hậu	-4080
▁môn	-4081
▁उड़	-4082
▁रेड	-4083
▁life	-4084
▁भीतर	-4085
▁along	-4086
▁stand	-4087
▁George	-4088
▁terror	-4089
▁न्याया	-4090
▁minutes	-4091
▁respons	-4092
▁मंत्रालय	-4093
rug	-4094
ube	-4095
▁UK	-4096
▁só	-4097
▁xế	-4098
िक्स	-4099
▁che	-4100
▁gái	-4101
▁med	-4102
▁thử	-4103
त्रों	-4104
▁added	-4105
▁विकास	-4106
▁हत्या	-4107
▁points	-4108
▁बच्चों	-4109
▁हिस्से	-4110
▁England	-4111
▁earlier	-4112
aks	-4113
ars	-4114
lob	-4115
▁31	-4116
▁ăn	-4117
▁Har	-4118
▁tín	-4119
▁शनि	-4120
▁chia	-4121
▁open	-4122
▁xung	-4123
▁March	-4124
▁Willi	-4125
▁techn	-4126
▁चाहते	-4127
▁जापान	-4128
▁उत्तरी	-4129
▁foreign	-4130
▁spokesman	-4131
इल	-4132
ari	-4133
ium	-4134
लब्	-4135
लाह	-4136
ेंड	-4137
▁kê	-4138
less	-4139
lymp	-4140
दारी	-4141
▁Bel	-4142
▁cre	-4143
▁खुद	-4144
▁सें	-4145
istry	-4146
▁hạng	-4147
▁loạt	-4148
▁आधार	-4149
▁जीवन	-4150
▁Wales	-4151
▁think	-4152
▁ओबामा	-4153
▁ड्राइ	-4154
▁सामना	-4155
▁having	-4156
▁comment	-4157
▁ब्रिटेन	-4158
▁arrested	-4159
▁कार्रवाई	-4160
2,	-4161
कंप	-4162
्टर	-4163
▁Te	-4164
inal	-4165
ज़रा	-4166
▁Thế	-4167
▁माल	-4168
▁मिस	-4169
▁लेख	-4170
▁सफल	-4171
▁Paul	-4172
▁thật	-4173
▁chiều	-4174
▁given	-4175
▁train	-4176
▁compet	-4177
▁आलोचना	-4178
▁confirmed	-4179
za	-4180
सत	-4181
eph	-4182
tle	-4183
ंसा	-4184
▁Cơ	-4185
▁gh	-4186
▁तट	-4187
▁फी	-4188
िश्च	-4189
▁कमी	-4190
ggest	-4191
ights	-4192
wards	-4193
विष्य	-4194
▁Clin	-4195
▁deal	-4196
▁good	-4197
▁stri	-4198
▁thỏa	-4199
▁Olymp	-4200
▁third	-4201
▁Russian	-4202
▁describ	-4203
▁suggest	-4204
▁Palestine	-4205
▁45	-4206
▁va	-4207
▁đa	-4208
▁सौ	-4209
▁ngờ	-4210
▁वीड	-4211
viron	-4212
▁Gaza	-4213
▁emer	-4214
▁पाकि	-4215
▁small	-4216
▁शांति	-4217
▁member	-4218
▁आयोजित	-4219
▁उद्देश	-4220
▁प्रवेश	-4221
▁involved	-4222
go	-4223
ंज	-4224
नर	-4225
ino	-4226
ươi	-4227
▁So	-4228
▁कप	-4229
▁छह	-4230
ults	-4231
ंग्र	-4232
बर्ट	-4233
ार्म	-4234
▁Ste	-4235
▁hầu	-4236
▁each	-4237
▁thiện	-4238
▁उपलब्	-4239
▁उल्लंघन	-4240
▁गिरफ्तार	-4241
nd	-4242
टे	-4243
por	-4244
फान	-4245
▁शो	-4246
धानी	-4247
▁far	-4248
▁hỏa	-4249
▁môi	-4250
▁लोक	-4251
ittee	-4252
thers	-4253
▁hand	-4254
▁site	-4255
▁truy	-4256
▁आत्म	-4257
▁पड़ा	-4258
▁समझौ	-4259
▁miles	-4260
▁दिनों	-4261
▁सामान	-4262
▁Howard	-4263
▁employ	-4264
▁alleged	-4265
▁control	-4266
▁program	-4267
vironment	-4268
▁possible	-4269
▁:	-4270
ini	-4271
zil	-4272
पास	-4273
वान	-4274
ाइड	-4275
ेयर	-4276
▁sl	-4277
देशक	-4278
▁Ber	-4279
▁Med	-4280
▁deb	-4281
▁yet	-4282
▁तहत	-4283
▁रवि	-4284
▁Wash	-4285
▁lost	-4286
▁करके	-4287
▁नियम	-4288
▁भारी	-4289
▁मिले	-4290
▁सहित	-4291
cement	-4292
▁Union	-4293
▁tuyển	-4294
▁जिसका	-4295
▁change	-4296
▁website	-4297
▁इंग्लैंड	-4298
ॉस	-4299
avy	-4300
par	-4301
tar	-4302
त्य	-4303
▁Ex	-4304
▁bờ	-4305
वाही	-4306
ियोग	-4307
▁Nor	-4308
▁Tex	-4309
▁Tòa	-4310
▁lỗi	-4311
▁tax	-4312
▁top	-4313
▁đầy	-4314
▁đột	-4315
craft	-4316
▁Châu	-4317
▁chắn	-4318
▁cost	-4319
▁look	-4320
▁ngại	-4321
▁अनुर	-4322
द्यालय	-4323
▁Satur	-4324
▁asked	-4325
▁Brazil	-4326
▁भविष्य	-4327
▁capital	-4328
▁started	-4329
▁संभावित	-4330
▁Saturday	-4331
▁accident	-4332
▁research	-4333
▁प्रतिक्रिया	-4334
ैल	-4335
sec	-4336
नीय	-4337
▁ca	-4338
▁खत	-4339
▁जर	-4340
cast	-4341
ford	-4342
तिहा	-4343
वंबर	-4344
▁don	-4345
▁đám	-4346
▁đáp	-4347
▁करी	-4348
▁चाल	-4349
▁जेल	-4350
▁सात	-4351
ially	-4352
▁able	-4353
▁targ	-4354
▁tiểu	-4355
▁अर्थ	-4356
▁आदेश	-4357
▁जाते	-4358
▁मंगल	-4359
▁होना	-4360
▁भूकंप	-4361
▁रोकने	-4362
ulation	-4363
▁prison	-4364
▁सरकारी	-4365
Ph	-4366
ựa	-4367
ron	-4368
ियल	-4369
▁Sm	-4370
▁TV	-4371
▁lá	-4372
▁छा	-4373
▁Bla	-4374
▁Khi	-4375
▁tôn	-4376
▁कदम	-4377
▁कुल	-4378
▁जल्	-4379
▁पाए	-4380
ature	-4381
rench	-4382
▁Giáo	-4383
▁away	-4384
▁biện	-4385
▁thấp	-4386
▁đăng	-4387
▁इज़रा	-4388
▁नवंबर	-4389
▁बनाया	-4390
ovember	-4391
▁action	-4392
▁claims	-4393
▁critic	-4394
▁रविवार	-4395
▁Clinton	-4396
▁interview	-4397
▁Washington	-4398
ुड	-4399
ana	-4400
now	-4401
ष्ठ	-4402
िने	-4403
▁बस	-4404
▁भा	-4405
oint	-4406
▁Ang	-4407
▁căn	-4408
▁cận	-4409
▁lấy	-4410
▁tot	-4411
▁road	-4412
▁went	-4413
▁nhiệt	-4414
▁claimed	-4415
ापन	-4416
ball	-4417
iger	-4418
uary	-4419
▁Mex	-4420
▁luy	-4421
▁old	-4422
▁see	-4423
▁vir	-4424
▁ऐसे	-4425
▁बदल	-4426
epend	-4427
▁come	-4428
▁foot	-4429
▁trấn	-4430
▁बड़ा	-4431
▁संभव	-4432
▁khẳng	-4433
▁level	-4434
▁तूफान	-4435
▁वीडियो	-4436
▁प्रणाली	-4437
▁November	-4438
4.	-4439
म्प	-4440
▁दस	-4441
ront	-4442
▁Per	-4443
▁dấu	-4444
▁गैर	-4445
▁यदि	-4446
▁free	-4447
▁town	-4448
▁Điều	-4449
▁civil	-4450
▁tuyến	-4451
▁होंगे	-4452
▁French	-4453
▁family	-4454
▁others	-4455
▁उपलब्ध	-4456
▁न्यूजी	-4457
▁शनिवार	-4458
मे	-4459
eep	-4460
त्त	-4461
▁EU	-4462
▁II	-4463
▁bổ	-4464
▁कट	-4465
▁पक	-4466
▁मल	-4467
▁लु	-4468
ague	-4469
मुझे	-4470
▁War	-4471
▁cãi	-4472
▁ऑपर	-4473
▁कभी	-4474
▁फ्ल	-4475
attle	-4476
िस्ती	-4477
▁sour	-4478
▁गिरा	-4479
ically	-4480
▁began	-4481
▁lương	-4482
▁अलावा	-4483
▁शिक्ष	-4484
▁जिम्मे	-4485
▁नेटवर्	-4486
▁service	-4487
ya	-4488
सर	-4489
ैक	-4490
ẵn	-4491
edn	-4492
र्फ	-4493
▁1.	-4494
▁En	-4495
▁tỏ	-4496
▁तु	-4497
बीसी	-4498
▁Ben	-4499
▁Sal	-4500
▁nửa	-4501
▁Đài	-4502
vered	-4503
नियों	-4504
▁Rich	-4505
▁bước	-4506
▁rock	-4507
▁समान	-4508
▁areas	-4509
▁जनवरी	-4510
▁victim	-4511
▁Tuesday	-4512
▁business	-4513
▁सुरक्षित	-4514
▁निर्धारित	-4515
एक	-4516
▁i	-4517
lah	-4518
que	-4519
rop	-4520
ग्ध	-4521
मता	-4522
सित	-4523
ोजन	-4524
्ते	-4525
Tube	-4526
anda	-4527
ecut	-4528
lect	-4529
raph	-4530
वरूप	-4531
ाँकि	-4532
▁Mah	-4533
▁Res	-4534
▁Tel	-4535
▁chở	-4536
▁lao	-4537
▁let	-4538
▁कोल	-4539
▁सित	-4540
aster	-4541
तियों	-4542
यॉर्क	-4543
▁City	-4544
▁cạnh	-4545
▁khắp	-4546
▁thuế	-4547
▁thăm	-4548
▁किंग	-4549
▁जाती	-4550
▁Không	-4551
▁clear	-4552
▁पहुँच	-4553
▁मौजूद	-4554
▁appear	-4555
▁January	-4556
▁मंगलवार	-4557
▁हालाँकि	-4558
stitution	-4559
▁उद्देश्य	-4560
▁Secretary	-4561
ten	-4562
कृत	-4563
ताब	-4564
asse	-4565
iers	-4566
onse	-4567
बारी	-4568
▁Cro	-4569
▁Del	-4570
▁Đây	-4571
▁यून	-4572
▁लाइ	-4573
atter	-4574
तिहास	-4575
▁form	-4576
▁less	-4577
▁stop	-4578
▁stre	-4579
धिकारिक	-4580
▁differ	-4581
▁states	-4582
▁जिनमें	-4583
▁Romania	-4584
▁billion	-4585
▁represent	-4586
आर	-4587
ami	-4588
▁आम	-4589
▁पे	-4590
bour	-4591
स्टर	-4592
▁Mặc	-4593
▁tán	-4594
▁ऊपर	-4595
▁डाल	-4596
▁रेस	-4597
▁वाह	-4598
iving	-4599
▁Wedn	-4600
▁ball	-4601
▁chín	-4602
▁crew	-4603
▁docu	-4604
▁mươi	-4605
▁thải	-4606
▁दोषी	-4607
▁Press	-4608
▁Texas	-4609
▁trial	-4610
▁अफ्री	-4611
▁Scient	-4612
▁strong	-4613
▁thuyết	-4614
▁thuyền	-4615
▁सीनेटर	-4616
▁Department	-4617
▁न्यूजीलैंड	-4618
ूक	-4619
▁u	-4620
ago	-4621
ize	-4622
ows	-4623
▁गल	-4624
▁टो	-4625
▁दृ	-4626
augh	-4627
ides	-4628
oved	-4629
धवार	-4630
▁Ara	-4631
▁Bảo	-4632
▁cậu	-4633
▁mại	-4634
▁suy	-4635
▁sẵn	-4636
▁xếp	-4637
▁đài	-4638
▁ठीक	-4639
▁पोल	-4640
दिग्ध	-4641
▁Sing	-4642
▁dung	-4643
▁happ	-4644
▁khăn	-4645
▁khởi	-4646
▁read	-4647
▁weap	-4648
▁आपात	-4649
▁order	-4650
चारियों	-4651
▁rights	-4652
विद्यालय	-4653
▁percent	-4654
▁process	-4655
▁संदिग्ध	-4656
▁Canadian	-4657
▁Wednesday	-4658
▁क्षेत्रों	-4659
▁न्यूयॉर्क	-4660
▁विश्वविद्यालय	-4661
शी	-4662
men	-4663
ेलन	-4664
This	-4665
isco	-4666
बंधन	-4667
स्वी	-4668
ियाई	-4669
▁Que	-4670
▁gen	-4671
▁nhi	-4672
▁बल्	-4673
▁रूस	-4674
▁शोध	-4675
ising	-4676
▁Alex	-4677
▁redu	-4678
▁sang	-4679
▁ताकि	-4680
▁देता	-4681
▁पैदा	-4682
▁Times	-4683
▁phong	-4684
▁अपराध	-4685
▁द्वीप	-4686
▁लगाने	-4687
▁Associ	-4688
▁troops	-4689
▁Georgia	-4690
▁YouTube	-4691
▁concern	-4692
▁release	-4693
▁working	-4694
▁situation	-4695
▁कर्मचारियों	-4696
कु	-4697
जों	-4698
ड्ड	-4699
दमा	-4700
ांश	-4701
िको	-4702
▁(2	-4703
▁भु	-4704
▁Fij	-4705
▁Syd	-4706
▁cut	-4707
▁lâu	-4708
▁mar	-4709
▁खबर	-4710
▁जून	-4711
▁Viện	-4712
orters	-4713
▁fight	-4714
▁plane	-4715
▁जुलाई	-4716
▁संघीय	-4717
evision	-4718
▁बुधवार	-4719
▁इंटरनेट	-4720
▁महिलाओं	-4721
▁continue	-4722
to	-4723
चर	-4724
ềm	-4725
agh	-4726
ean	-4727
lic	-4728
टने	-4729
▁xa	-4730
▁आठ	-4731
enal	-4732
lish	-4733
मारी	-4734
ृत्व	-4735
▁300	-4736
▁Ken	-4737
▁Tal	-4738
▁Tur	-4739
▁đàm	-4740
▁đẩy	-4741
ccess	-4742
▁2012	-4743
▁Thom	-4744
▁hist	-4745
▁suff	-4746
▁रूसी	-4747
▁ngành	-4748
▁peace	-4749
▁short	-4750
▁उड़ान	-4751
▁कोर्ट	-4752
▁पहचान	-4753
▁पोस्ट	-4754
▁संचाल	-4755
▁Palestin	-4756
10	-4757
उट	-4758
डो	-4759
ुप	-4760
lam	-4761
ज़ा	-4762
बॉल	-4763
सों	-4764
िंट	-4765
▁Mo	-4766
▁Sa	-4767
▁po	-4768
▁sw	-4769
▁खा	-4770
ober	-4771
▁eng	-4772
▁tre	-4773
▁đêm	-4774
urned	-4775
तृत्व	-4776
्यूज़	-4777
▁July	-4778
▁dist	-4779
▁सलाह	-4780
▁Court	-4781
▁Syria	-4782
▁eight	-4783
▁quảng	-4784
▁इसमें	-4785
▁दस्ता	-4786
▁फैसला	-4787
▁Russia	-4788
▁taking	-4789
▁प्रसार	-4790
▁यात्रा	-4791
▁whether	-4792
▁आधिकारिक	-4793
▁कार्यालय	-4794
ll	-4795
ti	-4796
एफ	-4797
न्	-4798
लग	-4799
सं	-4800
cer	-4801
तना	-4802
ोलॉ	-4803
▁36	-4804
▁dữ	-4805
▁hồ	-4806
▁kỹ	-4807
▁Mal	-4808
▁Mil	-4809
▁equ	-4810
▁हटा	-4811
▁Sept	-4812
▁chắc	-4813
▁càng	-4814
▁host	-4815
▁meas	-4816
▁tiện	-4817
▁đúng	-4818
▁ngừng	-4819
▁seven	-4820
▁using	-4821
▁market	-4822
▁अधिकांश	-4823
▁believed	-4824
ze	-4825
iếp	-4826
oud	-4827
ंका	-4828
ंतर	-4829
लाव	-4830
ring	-4831
▁Pat	-4832
▁thờ	-4833
▁xin	-4834
▁मेल	-4835
icted	-4836
ikely	-4837
▁lòng	-4838
▁stru	-4839
▁इमार	-4840
ressed	-4841
▁India	-4842
▁Ngoại	-4843
▁Ontar	-4844
▁close	-4845
▁luyện	-4846
▁staff	-4847
▁अफगान	-4848
▁चिंता	-4849
▁जाएगी	-4850
▁सुधार	-4851
▁season	-4852
▁target	-4853
▁evidence	-4854
▁रिपब्लिकन	-4855
▁Government	-4856
हन	-4857
amo	-4858
idd	-4859
▁रन	-4860
▁Mat	-4861
▁den	-4862
▁tái	-4863
▁भेज	-4864
ently	-4865
▁Park	-4866
▁disp	-4867
▁mong	-4868
▁nghe	-4869
▁prof	-4870
▁trao	-4871
▁सचिव	-4872
ग्रस्त	-4873
▁Apple	-4874
▁Peter	-4875
▁तरीके	-4876
▁सिर्फ	-4877
ibility	-4878
▁access	-4879
ximately	-4880
▁Ontario	-4881
▁meeting	-4882
▁परिवर्तन	-4883
▁September	-4884
ST	-4885
ỏe	-4886
iễn	-4887
zer	-4888
▁Lo	-4889
▁खो	-4890
▁गा	-4891
ehic	-4892
uyến	-4893
▁Moh	-4894
▁Oct	-4895
▁Tai	-4896
▁Tor	-4897
▁dev	-4898
▁nền	-4899
▁खतर	-4900
▁खरी	-4901
▁Tony	-4902
▁Vict	-4903
▁care	-4904
▁khỏe	-4905
▁एक्स	-4906
▁नीति	-4907
▁सड़क	-4908
asseng	-4909
▁board	-4910
▁chang	-4911
▁इनकार	-4912
▁दूसरी	-4913
▁Indian	-4914
▁Mexico	-4915
▁become	-4916
▁making	-4917
▁General	-4918
▁सम्मेलन	-4919
▁response	-4920
37	-4921
45	-4922
cl	-4923
cy	-4924
ãn	-4925
डम	-4926
ễm	-4927
bab	-4928
ead	-4929
ĩnh	-4930
ब्र	-4931
हरण	-4932
ूबर	-4933
▁né	-4934
▁pa	-4935
ebru	-4936
erry	-4937
बद्ध	-4938
रवरी	-4939
▁Mel	-4940
▁cầm	-4941
▁बरा	-4942
▁सके	-4943
lobal	-4944
riend	-4945
▁Hill	-4946
▁khẩn	-4947
▁thảm	-4948
▁trai	-4949
▁उत्स	-4950
▁दर्ज	-4951
▁बैंक	-4952
▁साइट	-4953
atives	-4954
estern	-4955
▁Count	-4956
▁ident	-4957
▁indic	-4958
▁thoát	-4959
▁total	-4960
▁लड़ाई	-4961
▁हस्ता	-4962
ebruary	-4963
▁Island	-4964
▁import	-4965
▁search	-4966
▁क्षमता	-4967
▁लक्ष्य	-4968
▁सितंबर	-4969
▁conduct	-4970
▁दस्तावे	-4971
▁नेतृत्व	-4972
▁राजधानी	-4973
ps	-4974
तः	-4975
्ठ	-4976
inc	-4977
ots	-4978
ude	-4979
उंड	-4980
▁du	-4981
▁mẹ	-4982
▁आश	-4983
▁हॉ	-4984
क्षर	-4985
वेयर	-4986
ाइनल	-4987
▁Ear	-4988
▁họa	-4989
▁अरब	-4990
▁हवा	-4991
field	-4992
iting	-4993
▁1990	-4994
▁vehic	-4995
▁सेंटर	-4996
ination	-4997
▁across	-4998
▁संपर्क	-4999
▁स्थापित	-5000
▁aircraft	-5001
▁independ	-5002
▁resident	-5003
ks	-5004
oo	-5005
टो	-5006
यं	-5007
▁.	-5008
बार	-5009
▁दश	-5010
ways	-5011
त्ति	-5012
्वास	-5013
▁Abb	-5014
▁Sup	-5015
▁चोट	-5016
▁fall	-5017
▁wind	-5018
▁Hamas	-5019
▁Scott	-5020
▁estim	-5021
▁nhiễm	-5022
वासियों	-5023
▁policy	-5024
▁safety	-5025
▁आरोपों	-5026
▁October	-5027
▁results	-5028
▁serious	-5029
▁नेटवर्क	-5030
▁नियंत्रण	-5031
▁पर्यावरण	-5032
▁प्रतिनिध	-5033
.9	-5034
gu	-5035
wh	-5036
inn	-5037
▁गठ	-5038
iban	-5039
ivid	-5040
rick	-5041
र्जा	-5042
▁Nha	-5043
▁bào	-5044
▁góp	-5045
▁hot	-5046
▁lai	-5047
▁mật	-5048
▁mềm	-5049
▁neg	-5050
▁sâu	-5051
▁अंक	-5052
▁thao	-5053
▁thập	-5054
िश्चित	-5055
▁among	-5056
▁ग्रीन	-5057
▁विवाद	-5058
ministr	-5059
▁Sydney	-5060
▁indust	-5061
▁passeng	-5062
▁सामान्य	-5063
राष्ट्रीय	-5064
▁director	-5065
8,	-5066
IA	-5067
yn	-5068
ंख	-5069
fic	-5070
ंदर	-5071
ज़न	-5072
▁33	-5073
▁tw	-5074
▁núi	-5075
▁अल्	-5076
ander	-5077
▁Fiji	-5078
▁Kore	-5079
▁chữa	-5080
▁must	-5081
▁thừa	-5082
▁आर्थ	-5083
▁चुके	-5084
▁देना	-5085
▁मानव	-5086
▁मौसम	-5087
▁होते	-5088
िस्तान	-5089
▁storm	-5090
▁विज्ञ	-5091
ोर्निया	-5092
▁निदेशक	-5093
▁मामलों	-5094
▁मुकदमा	-5095
▁request	-5096
▁जिन्हें	-5097
▁February	-5098
uk	-5099
esc	-5100
một	-5101
▁Có	-5102
▁Hy	-5103
▁La	-5104
▁đồ	-5105
▁ते	-5106
▁मन	-5107
▁हे	-5108
stru	-5109
▁Aug	-5110
▁bắc	-5111
▁coi	-5112
▁dựa	-5113
▁hom	-5114
▁kil	-5115
▁tem	-5116
▁पुर	-5117
▁सहम	-5118
ively	-5119
▁chứa	-5120
▁feet	-5121
▁hold	-5122
▁orig	-5123
▁टाइम	-5124
क्टूबर	-5125
▁comes	-5126
▁सहयोग	-5127
▁issued	-5128
▁इंडोने	-5129
▁जर्मनी	-5130
▁बिलियन	-5131
▁charges	-5132
▁workers	-5133
▁interest	-5134
▁Democratic	-5135
▁authorities	-5136
ox	-5137
ंभ	-5138
धन	-5139
▁Á	-5140
▁ô	-5141
▁Dr	-5142
▁ủy	-5143
alle	-5144
ilar	-5145
▁Bay	-5146
▁Mor	-5147
▁Sud	-5148
▁Thổ	-5149
▁cây	-5150
▁ném	-5151
▁sắp	-5152
▁ten	-5153
ences	-5154
iding	-5155
▁chạm	-5156
▁conv	-5157
▁बैठक	-5158
▁coast	-5159
▁flood	-5160
▁legal	-5161
▁study	-5162
▁tuyệt	-5163
▁confer	-5164
▁प्रस्त	-5165
▁leaders	-5166
▁project	-5167
ged	-5168
विड	-5169
िकल	-5170
▁90	-5171
▁Tự	-5172
▁đu	-5173
▁कठ	-5174
rian	-5175
▁Som	-5176
▁rad	-5177
▁thổ	-5178
▁बेल	-5179
▁miền	-5180
▁तकनी	-5181
▁बाढ़	-5182
itness	-5183
reland	-5184
▁money	-5185
▁अगस्त	-5186
▁August	-5187
▁nation	-5188
▁कोरिया	-5189
▁prevent	-5190
▁success	-5191
▁अक्टूबर	-5192
▁डब्ल्यू	-5193
ोव	-5194
ứt	-5195
ali	-5196
ily	-5197
yal	-5198
तान	-5199
▁55	-5200
▁dr	-5201
▁ऑन	-5202
ease	-5203
मीटर	-5204
र्ति	-5205
▁job	-5206
▁lục	-5207
▁phó	-5208
▁saw	-5209
▁drug	-5210
▁गर्म	-5211
▁दौड़	-5212
▁निकल	-5213
▁Smith	-5214
▁आर्थिक	-5215
▁इजरायल	-5216
▁टेलीवि	-5217
▁Ireland	-5218
▁individ	-5219
▁वैज्ञान	-5220
▁emergency	-5221
▁हस्ताक्षर	-5222
▁डेमोक्रेटिक	-5223
80	-5224
▁£	-5225
bor	-5226
ees	-5227
ंतु	-5228
▁Gl	-5229
▁Tw	-5230
▁आर	-5231
▁दब	-5232
त्ता	-5233
िकित	-5234
▁Hôm	-5235
▁वेल	-5236
▁face	-5237
▁अपील	-5238
▁जैसा	-5239
▁निष्	-5240
▁ब्रा	-5241
▁ऊर्जा	-5242
▁निकाल	-5243
▁विस्त	-5244
▁closed	-5245
▁damage	-5246
▁ground	-5247
▁काउंटी	-5248
▁America	-5249
▁Taliban	-5250
▁largest	-5251
▁network	-5252
▁students	-5253
▁इंडोनेशिया	-5254
▁approximately	-5255
CA	-5256
ौन	-5257
ida	-5258
int	-5259
ंदा	-5260
दमी	-5261
▁37	-5262
▁मई	-5263
ित्र	-5264
▁got	-5265
▁iPh	-5266
▁led	-5267
▁low	-5268
▁pat	-5269
▁अर्	-5270
▁तुर	-5271
▁पाल	-5272
▁पैर	-5273
▁वकी	-5274
uture	-5275
ताबिक	-5276
▁Mart	-5277
▁loài	-5278
▁qual	-5279
▁seen	-5280
▁चुका	-5281
▁cases	-5282
▁shoot	-5283
▁virus	-5284
▁शीर्ष	-5285
▁series	-5286
▁विकसित	-5287
▁Council	-5288
▁Nations	-5289
▁weapons	-5290
▁मुताबिक	-5291
▁described	-5292
पे	-5293
ela	-5294
get	-5295
sue	-5296
▁Su	-5297
self	-5298
क्षम	-5299
▁Two	-5300
▁कमा	-5301
ators	-5302
gress	-5303
▁Mass	-5304
▁cust	-5305
▁trav	-5306
▁काफी	-5307
▁भारत	-5308
▁James	-5309
▁based	-5310
▁issue	-5311
▁इलाके	-5312
▁चर्चा	-5313
▁माइकल	-5314
▁स्वयं	-5315
istrict	-5316
▁compan	-5317
▁regard	-5318
▁अनुरोध	-5319
▁कानूनी	-5320
▁Germany	-5321
▁Senator	-5322
▁thought	-5323
ministration	-5324
एच	-5325
ata	-5326
dom	-5327
iềm	-5328
ote	-5329
ris	-5330
ंडा	-5331
हाँ	-5332
▁खे	-5333
▁जे	-5334
amed	-5335
▁Lab	-5336
▁Tom	-5337
▁cer	-5338
▁cha	-5339
▁hải	-5340
▁ris	-5341
▁बिज	-5342
▁Just	-5343
▁NASA	-5344
▁body	-5345
▁fund	-5346
▁grow	-5347
▁keep	-5348
▁niệm	-5349
▁pres	-5350
▁publ	-5351
▁suic	-5352
▁thái	-5353
▁बर्फ	-5354
स्वरूप	-5355
▁weeks	-5356
▁बल्कि	-5357
▁मैंने	-5358
▁हमलों	-5359
eration	-5360
▁Queens	-5361
▁iPhone	-5362
▁व्यापक	-5363
▁स्टेट्स	-5364
▁services	-5365
▁प्रकाशित	-5366
▁previously	-5367
TO	-5368
सि	-5369
ẩu	-5370
▁Ý	-5371
aed	-5372
use	-5373
यों	-5374
सूस	-5375
▁Ag	-5376
▁Ma	-5377
▁ओल	-5378
▁व्	-5379
wood	-5380
▁Gia	-5381
▁ghế	-5382
▁thả	-5383
▁too	-5384
▁लॉन	-5385
▁हरा	-5386
▁Giám	-5387
▁late	-5388
▁sing	-5389
▁trại	-5390
▁मीटर	-5391
▁सेंट	-5392
▁स्टी	-5393
िकित्स	-5394
▁point	-5395
▁thous	-5396
▁तुरंत	-5397
▁दूसरा	-5398
ampions	-5399
▁nearly	-5400
▁thưởng	-5401
▁believe	-5402
▁आतंकवाद	-5403
▁सामग्री	-5404
▁increase	-5405
▁question	-5406
▁companies	-5407
शल	-5408
▁&	-5409
acy	-5410
ica	-5411
हरी	-5412
्टन	-5413
▁tệ	-5414
▁शव	-5415
..."	-5416
चारी	-5417
माने	-5418
िन्न	-5419
▁lim	-5420
không	-5421
odies	-5422
onald	-5423
▁June	-5424
▁hard	-5425
▁nông	-5426
▁quận	-5427
▁side	-5428
▁उम्र	-5429
▁कैलि	-5430
▁चैंप	-5431
▁दूरी	-5432
ensive	-5433
▁chóng	-5434
▁घोषित	-5435
▁फिल्म	-5436
▁बच्चे	-5437
▁मानना	-5438
▁वालों	-5439
▁Barack	-5440
▁execut	-5441
▁experi	-5442
▁outside	-5443
▁provide	-5444
▁similar	-5445
▁प्रत्येक	-5446
.0	-5447
ूद	-5448
van	-5449
करा	-5450
▁75	-5451
▁Os	-5452
▁sk	-5453
mail	-5454
ming	-5455
most	-5456
pril	-5457
किंग	-5458
▁aid	-5459
▁भुग	-5460
▁विष	-5461
arian	-5462
ridge	-5463
▁best	-5464
▁hiểu	-5465
▁mass	-5466
▁खुला	-5467
▁बढ़ा	-5468
▁विफल	-5469
person	-5470
▁manag	-5471
▁sched	-5472
▁times	-5473
▁डेविड	-5474
▁मजबूत	-5475
ificant	-5476
ज़ीलैंड	-5477
▁likely	-5478
▁although	-5479
▁position	-5480
▁प्रस्तुत	-5481
▁conference	-5482
▁environment	-5483
-4	-5484
EC	-5485
ef	-5486
ưỡ	-5487
फा	-5488
्फ	-5489
udd	-5490
त्स	-5491
▁2,	-5492
▁CE	-5493
▁लं	-5494
▁सॉ	-5495
त्रा	-5496
ांसी	-5497
▁Tim	-5498
▁sai	-5499
▁sạn	-5500
▁đạn	-5501
▁ताइ	-5502
▁बोल	-5503
illeg	-5504
▁list	-5505
▁luôn	-5506
▁nghỉ	-5507
▁rate	-5508
▁कीमत	-5509
▁2008,	-5510
▁April	-5511
▁White	-5512
▁cause	-5513
▁earth	-5514
▁tuyết	-5515
ailable	-5516
reement	-5517
▁Health	-5518
▁Muslim	-5519
▁future	-5520
▁accused	-5521
▁include	-5522
▁संबंधित	-5523
▁recently	-5524
▁community	-5525
▁conditions	-5526
▁individual	-5527
▁opposition	-5528
%.	-5529
.6	-5530
ls	-5531
isc	-5532
ंधन	-5533
तार	-5534
निक	-5535
राज	-5536
लेख	-5537
ूरी	-5538
ेंद	-5539
uled	-5540
ड़ने	-5541
वासी	-5542
स्टम	-5543
ोसिए	-5544
▁Mad	-5545
▁hút	-5546
▁quỹ	-5547
▁दिस	-5548
▁बने	-5549
▁सही	-5550
asing	-5551
imate	-5552
▁Cons	-5553
▁Hiện	-5554
▁Hond	-5555
▁line	-5556
▁priv	-5557
▁करीब	-5558
▁क्रू	-5559
ficult	-5560
▁disco	-5561
▁impro	-5562
▁penal	-5563
▁क्षति	-5564
▁friend	-5565
▁संघर्ष	-5566
▁problems	-5567
▁कर्मचारी	-5568
▁candidate	-5569
.7	-5570
ेप	-5571
ụp	-5572
▁ổ	-5573
bon	-5574
ple	-5575
▁vẻ	-5576
medi	-5577
त्मक	-5578
▁...	-5579
▁Lee	-5580
▁Red	-5581
▁lan	-5582
▁mưa	-5583
▁ord	-5584
▁उल्	-5585
▁गेम	-5586
▁दाव	-5587
▁मुश	-5588
▁सीट	-5589
secut	-5590
स्कार	-5591
▁Land	-5592
▁With	-5593
▁chân	-5594
▁full	-5595
▁nhấn	-5596
▁nóng	-5597
▁trời	-5598
▁कनाड	-5599
▁चालक	-5600
▁जहाँ	-5601
▁टकरा	-5602
▁वहां	-5603
elling	-5604
▁Space	-5605
▁block	-5606
▁deter	-5607
▁न्याय	-5608
▁फैसले	-5609
▁border	-5610
▁failed	-5611
▁nguyện	-5612
▁एसोसिए	-5613
▁प्रांत	-5614
▁discuss	-5615
▁चिकित्स	-5616
▁व्यापार	-5617
11	-5618
CE	-5619
DA	-5620
TV	-5621
इड	-5622
ụy	-5623
uty	-5624
स्ल	-5625
▁रु	-5626
aeda	-5627
ault	-5628
quir	-5629
ried	-5630
teen	-5631
रासत	-5632
र्की	-5633
्रिय	-5634
▁Hợp	-5635
▁ago	-5636
▁eur	-5637
▁fif	-5638
▁vai	-5639
▁फुट	-5640
ances	-5641
जारों	-5642
▁cred	-5643
▁fuel	-5644
▁hiến	-5645
▁real	-5646
▁दबाव	-5647
▁पर्य	-5648
▁यूरो	-5649
▁संकट	-5650
alleng	-5651
▁2006.	-5652
▁colla	-5653
▁hoảng	-5654
▁north	-5655
▁इमारत	-5656
▁बिजली	-5657
▁Robert	-5658
▁Victor	-5659
▁agency	-5660
▁भुगतान	-5661
▁विदेशी	-5662
▁सम्मान	-5663
▁contact	-5664
▁federal	-5665
▁उपस्थित	-5666
▁particip	-5667
▁available	-5668
▁difficult	-5669
▁Commission	-5670
▁Parliament	-5671
▁Republican	-5672
▁television	-5673
▁presidential	-5674
15	-5675
of	-5676
ýt	-5677
एँ	-5678
गल	-5679
दन	-5680
ोह	-5681
cue	-5682
igr	-5683
âng	-5684
ंगा	-5685
केन	-5686
्वे	-5687
▁To	-5688
▁vỡ	-5689
▁धन	-5690
aint	-5691
ects	-5692
ille	-5693
▁Hol	-5694
▁Los	-5695
▁Nhĩ	-5696
▁trừ	-5697
▁कैम	-5698
ellig	-5699
ilipp	-5700
▁Giải	-5701
▁Khoa	-5702
▁Ngày	-5703
▁When	-5704
▁give	-5705
▁huấn	-5706
▁loss	-5707
▁अंदर	-5708
▁जनरल	-5709
▁लागू	-5710
▁broad	-5711
▁illeg	-5712
▁space	-5713
▁आसपास	-5714
▁दिखाई	-5715
▁लॉन्च	-5716
▁सैनिक	-5717
▁स्कोर	-5718
▁behind	-5719
▁design	-5720
▁flight	-5721
▁अप्रैल	-5722
▁समुदाय	-5723
▁account	-5724
▁Ministry	-5725
▁परिणामस्वरूप	-5726
▁अंतरराष्ट्रीय	-5727
yl	-5728
गन	-5729
iếc	-5730
ota	-5731
sel	-5732
upt	-5733
▁32	-5734
▁Bà	-5735
airs	-5736
usse	-5737
वर्स	-5738
ुद्ध	-5739
▁ABC	-5740
▁But	-5741
▁Mos	-5742
▁mag	-5743
▁nhu	-5744
▁tây	-5745
▁ích	-5746
▁पढ़	-5747
▁रिस	-5748
anger	-5749
uters	-5750
▁Camp	-5751
▁Dece	-5752
▁cour	-5753
▁desp	-5754
▁ship	-5755
▁writ	-5756
▁खराब	-5757
▁सूची	-5758
▁Green	-5759
▁Group	-5760
▁Iraqi	-5761
▁Islam	-5762
▁kháng	-5763
▁अनुभव	-5764
▁सक्षम	-5765
▁appeal	-5766
▁उद्योग	-5767
▁प्रयोग	-5768
▁समुद्र	-5769
▁located	-5770
▁चैंपियन	-5771
▁December	-5772
▁निवासियों	-5773
▁स्कॉटलैंड	-5774
▁significant	-5775
▁न्यूज़ीलैंड	-5776
7,	-5777
?"	-5778
sw	-5779
iff	-5780
not	-5781
rad	-5782
roy	-5783
urt	-5784
ंदी	-5785
दमे	-5786
्लो	-5787
▁हट	-5788
cing	-5789
evin	-5790
▁400	-5791
▁Act	-5792
▁Vir	-5793
▁gió	-5794
▁khá	-5795
▁mắc	-5796
▁pil	-5797
▁sắc	-5798
▁try	-5799
▁wor	-5800
▁đôi	-5801
▁चुन	-5802
▁दवा	-5803
▁पत्	-5804
▁भूम	-5805
▁मैन	-5806
▁लाभ	-5807
Những	-5808
ither	-5809
orney	-5810
िंगटन	-5811
▁East	-5812
▁Luật	-5813
▁छोटे	-5814
▁समित	-5815
▁2006,	-5816
▁Colum	-5817
▁Leban	-5818
▁Vương	-5819
▁begin	-5820
▁cường	-5821
▁great	-5822
▁ngược	-5823
▁plans	-5824
▁अच्छा	-5825
▁उपकरण	-5826
▁विद्य	-5827
▁हिंसा	-5828
▁County	-5829
▁scored	-5830
▁इतिहास	-5831
▁दिसंबर	-5832
▁actions	-5833
▁himself	-5834
▁history	-5835
▁suicide	-5836
▁उत्पादन	-5837
▁पश्चिमी	-5838
▁launched	-5839
▁soldiers	-5840
▁कंपनियों	-5841
▁पत्रकारों	-5842
▁पाकिस्तान	-5843
HO	-5844
Wh	-5845
ãy	-5846
▁“	-5847
iod	-5848
nes	-5849
कान	-5850
जनक	-5851
ट्र	-5852
विन	-5853
शिप	-5854
ृति	-5855
▁My	-5856
▁Ne	-5857
▁No	-5858
▁Nó	-5859
▁मर	-5860
▁हफ	-5861
akes	-5862
itor	-5863
ायलट	-5864
▁hắn	-5865
▁non	-5866
▁phê	-5867
▁val	-5868
▁आंक	-5869
▁बहु	-5870
▁बेट	-5871
▁मेड	-5872
▁विद	-5873
ffice	-5874
▁1999	-5875
▁Fore	-5876
▁Nhân	-5877
▁reve	-5878
▁अत्य	-5879
▁किमी	-5880
▁लागत	-5881
▁2007.	-5882
▁chief	-5883
▁repla	-5884
▁south	-5885
▁जिसकी	-5886
ongress	-5887
▁Center	-5888
▁became	-5889
▁issues	-5890
▁office	-5891
▁proper	-5892
▁समझौते	-5893
▁Jackson	-5894
▁प्रशासन	-5895
▁विशेषज्ञ	-5896
▁scheduled	-5897
ma	-5898
òi	-5899
õi	-5900
ूम	-5901
▁Ả	-5902
dad	-5903
isl	-5904
द्द	-5905
▁Mu	-5906
▁कृ	-5907
aled	-5908
mond	-5909
ंखला	-5910
फ़्ट	-5911
▁Dar	-5912
▁Haw	-5913
▁gun	-5914
▁hát	-5915
▁rồi	-5916
▁sat	-5917
▁sót	-5918
▁đợi	-5919
▁कब्	-5920
▁2011	-5921
▁Bagh	-5922
▁Flor	-5923
▁Wind	-5924
▁arri	-5925
▁init	-5926
▁phận	-5927
▁soft	-5928
▁tour	-5929
▁अड्ड	-5930
▁ईंधन	-5931
▁उसका	-5932
▁किलो	-5933
▁नष्ट	-5934
▁सिटी	-5935
rovers	-5936
undred	-5937
▁decla	-5938
▁young	-5939
▁बेहतर	-5940
▁मिलने	-5941
▁वेस्ट	-5942
▁हफ्ते	-5943
▁deaths	-5944
▁immedi	-5945
▁Philipp	-5946
▁despite	-5947
▁efforts	-5948
▁victims	-5949
▁नागरिकों	-5950
▁प्रतिनिधि	-5951
▁Queensland	-5952
▁spokesperson	-5953
शि	-5954
200	-5955
cel	-5956
न्स	-5957
▁Sĩ	-5958
▁वी	-5959
itiz	-5960
बर्ग	-5961
वर्ड	-5962
वाले	-5963
▁Cru	-5964
▁Edu	-5965
▁Rob	-5966
▁Saf	-5967
▁Sim	-5968
▁hơi	-5969
▁obs	-5970
▁đau	-5971
▁दशक	-5972
▁लंब	-5973
ृंखला	-5974
ोलॉजी	-5975
▁Phần	-5976
▁ठहरा	-5977
▁स्रो	-5978
▁होटल	-5979
rought	-5980
▁Sudan	-5981
▁गतिवि	-5982
▁देखने	-5983
istance	-5984
▁groups	-5985
▁यूनियन	-5986
▁विपक्ष	-5987
▁Britain	-5988
▁document	-5989
▁economic	-5990
▁violence	-5991
▁पर्याप्त	-5992
▁important	-5993
▁इंटरनेशनल	-5994
▁Scientology	-5995
घा	-5996
चा	-5997
ẹp	-5998
▁€	-5999
val	-6000
ंडर	-6001
धीश	-6002
ायी	-6003
▁Hạ	-6004
▁MP	-6005
▁sứ	-6006
▁tô	-6007
▁शि	-6008
eleb	-6009
head	-6010
डियो	-6011
▁Tra	-6012
▁hop	-6013
▁lit	-6014
▁डेट	-6015
▁बिक	-6016
▁हाथ	-6017
inese	-6018
▁Chín	-6019
▁fell	-6020
▁food	-6021
▁mess	-6022
▁चलते	-6023
▁परिष	-6024
verage	-6025
▁Frank	-6026
▁Inter	-6027
▁carry	-6028
▁might	-6029
▁round	-6030
▁रोमान	-6031
▁समिति	-6032
▁return	-6033
▁ऑपरेशन	-6034
▁Baghdad	-6035
▁Chinese	-6036
▁contract	-6037
▁अंतरिक्ष	-6038
▁प्रतियोग	-6039
▁फिलिस्ती	-6040
▁agreement	-6041
▁आपातकालीन	-6042
.3	-6043
48	-6044
IFA	-6045
elt	-6046
off	-6047
oto	-6048
ugh	-6049
yer	-6050
काब	-6051
साथ	-6052
▁gỡ	-6053
ades	-6054
ceed	-6055
ergy	-6056
ient	-6057
onto	-6058
विधा	-6059
▁age	-6060
▁bar	-6061
▁dâm	-6062
▁phổ	-6063
▁xâm	-6064
▁लाप	-6065
▁2001	-6066
▁Mike	-6067
▁Phát	-6068
▁infl	-6069
▁miễn	-6070
▁name	-6071
▁quán	-6072
▁trục	-6073
▁इसने	-6074
▁परिय	-6075
▁रिहा	-6076
▁हमने	-6077
पूर्ति	-6078
▁2005,	-6079
▁Brown	-6080
▁Hoàng	-6081
▁bring	-6082
▁class	-6083
▁force	-6084
▁speed	-6085
▁ट्रेन	-6086
▁संदेश	-6087
▁संपाद	-6088
डब्ल्यू	-6089
▁Africa	-6090
▁bodies	-6091
▁तुर्की	-6092
▁प्रकार	-6093
▁वार्ता	-6094
▁सक्रिय	-6095
▁स्टेशन	-6096
▁Toronto	-6097
▁perform	-6098
▁respond	-6099
▁विश्वास	-6100
▁समुद्री	-6101
▁Landmark	-6102
▁परियोजना	-6103
▁Committee	-6104
▁elections	-6105
▁increased	-6106
▁residents	-6107
▁जिम्मेदार	-6108
▁controvers	-6109
▁population	-6110
MT	-6111
ez	-6112
ये	-6113
वै	-6114
ॉड	-6115
een	-6116
omm	-6117
पहर	-6118
शोध	-6119
सिन	-6120
▁ap	-6121
▁dễ	-6122
▁kì	-6123
▁एच	-6124
eech	-6125
rodu	-6126
ाउंड	-6127
▁Với	-6128
▁eas	-6129
▁thí	-6130
▁trữ	-6131
▁tồn	-6132
▁आयर	-6133
▁आशा	-6134
▁लीग	-6135
▁संर	-6136
uries	-6137
▁Adam	-6138
▁Some	-6139
▁Thụy	-6140
▁suất	-6141
▁sàng	-6142
▁thậm	-6143
▁सवाल	-6144
ancial	-6145
▁Colom	-6146
▁Kevin	-6147
▁Niger	-6148
▁front	-6149
▁thiên	-6150
▁कोलंब	-6151
▁ग्राह	-6152
▁बोर्ड	-6153
▁accept	-6154
▁commit	-6155
▁khuyến	-6156
▁passed	-6157
▁Johnson	-6158
▁Lebanon	-6159
▁दक्षिणी	-6160
▁शुरुआती	-6161
▁commented	-6162
▁continued	-6163
▁operation	-6164
▁न्यायाधीश	-6165
▁Palestinian	-6166
▁announcement	-6167
▁organization	-6168
िड	-6169
add	-6170
ray	-6171
urd	-6172
ज़र	-6173
शील	-6174
ैनल	-6175
▁Jo	-6176
book	-6177
hire	-6178
ites	-6179
र्ना	-6180
▁Def	-6181
▁chó	-6182
▁mod	-6183
▁tàn	-6184
▁लिख	-6185
ional	-6186
itter	-6187
urric	-6188
▁Stan	-6189
▁char	-6190
▁dừng	-6191
▁loạn	-6192
▁जल्द	-6193
▁टीवी	-6194
▁फ़िल	-6195
▁भेजा	-6196
▁मिशन	-6197
▁2004,	-6198
▁Chúng	-6199
▁artic	-6200
▁refer	-6201
▁thăng	-6202
▁users	-6203
▁woman	-6204
▁wound	-6205
▁इस्ला	-6206
▁फरवरी	-6207
▁स्ट्र	-6208
▁स्पेन	-6209
▁Church	-6210
▁comple	-6211
▁driver	-6212
▁scient	-6213
▁उल्लेख	-6214
▁कनाडाई	-6215
▁महीनों	-6216
▁Kingdom	-6217
▁वास्तविक	-6218
▁technology	-6219
.1	-6220
6,	-6221
uf	-6222
ợt	-6223
bit	-6224
न्न	-6225
वेश	-6226
▁hè	-6227
▁nộ	-6228
▁vu	-6229
▁डो	-6230
▁बॉ	-6231
▁शै	-6232
reen	-6233
ियाँ	-6234
▁600	-6235
▁Inc	-6236
▁dõi	-6237
▁kid	-6238
▁mét	-6239
▁đứa	-6240
▁जीव	-6241
aving	-6242
enced	-6243
osing	-6244
▁2002	-6245
▁Bang	-6246
▁Mont	-6247
▁euro	-6248
▁link	-6249
▁trốn	-6250
▁करें	-6251
▁खतरा	-6252
▁बलों	-6253
▁वायर	-6254
ograph	-6255
▁Chris	-6256
▁blast	-6257
▁pract	-6258
▁watch	-6259
▁किंतु	-6260
▁दोपहर	-6261
▁पार्क	-6262
▁संवाद	-6263
▁Andrew	-6264
▁amount	-6265
▁पूर्वी	-6266
▁Florida	-6267
▁Olympic	-6268
▁constru	-6269
▁general	-6270
▁parties	-6271
▁ड्राइवर	-6272
▁प्रदर्श	-6273
▁व्यवसाय	-6274
▁majority	-6275
▁किलोमीटर	-6276
▁प्रत्यक्ष	-6277
▁journalists	-6278
उन	-6279
कन	-6280
वट	-6281
app	-6282
err	-6283
wan	-6284
सैन	-6285
ोरी	-6286
ỉnh	-6287
▁42	-6288
▁एफ	-6289
▁धम	-6290
▁बर	-6291
▁रै	-6292
orum	-6293
ster	-6294
▁Abd	-6295
▁Cục	-6296
▁Fin	-6297
▁Reg	-6298
▁lot	-6299
▁pur	-6300
▁गाय	-6301
▁नया	-6302
▁पॉल	-6303
Qaeda	-6304
ciety	-6305
▁Arab	-6306
▁Bank	-6307
▁Port	-6308
▁ngọn	-6309
▁surv	-6310
▁thủy	-6311
▁trào	-6312
▁खर्च	-6313
▁बनाई	-6314
▁वक्त	-6315
▁Franc	-6316
▁heavy	-6317
▁prior	-6318
▁separ	-6319
▁tránh	-6320
▁करेगी	-6321
▁ग्रुप	-6322
▁चाहता	-6323
▁बाजार	-6324
▁महसूस	-6325
▁Paraly	-6326
▁Virgin	-6327
▁letter	-6328
▁needed	-6329
▁rescue	-6330
▁hundred	-6331
▁missing	-6332
▁warning	-6333
▁छात्रों	-6334
▁विस्तार	-6335
▁सुनिश्चित	-6336
▁responsible	-6337
ki	-6338
me	-6339
sp	-6340
èo	-6341
यी	-6342
reg	-6343
tra	-6344
Đây	-6345
लेट	-6346
श्व	-6347
्सन	-6348
▁Il	-6349
▁बल	-6350
ires	-6351
▁dro	-6352
▁phù	-6353
▁reb	-6354
▁sum	-6355
▁đươ	-6356
▁डिप	-6357
itive	-6358
वस्था	-6359
▁argu	-6360
▁book	-6361
▁coal	-6362
▁kênh	-6363
▁kịch	-6364
▁ngồi	-6365
▁seek	-6366
▁shut	-6367
▁आदमी	-6368
▁यूके	-6369
▁श्रे	-6370
दाताओं	-6371
▁Angel	-6372
▁house	-6373
▁mater	-6374
▁जीतने	-6375
▁संशोध	-6376
▁demand	-6377
▁energy	-6378
▁period	-6379
▁showed	-6380
▁जाएंगे	-6381
▁बढ़ाने	-6382
▁भूमिका	-6383
▁योगदान	-6384
▁रेडियो	-6385
▁लगातार	-6386
▁earthqu	-6387
▁Columbia	-6388
▁Paralymp	-6389
▁included	-6390
▁published	-6391
▁treatment	-6392
▁parliament	-6393
-3	-6394
.,	-6395
BI	-6396
उथ	-6397
थी	-6398
udi	-6399
ump	-6400
चीत	-6401
मित	-6402
ầng	-6403
▁48	-6404
▁लौ	-6405
atic	-6406
berg	-6407
कर्ष	-6408
लिंग	-6409
्किल	-6410
▁Báo	-6411
▁His	-6412
▁Int	-6413
▁esc	-6414
▁tạp	-6415
▁vol	-6416
▁अवै	-6417
▁उसी	-6418
▁समी	-6419
▁सुझ	-6420
▁हाई	-6421
udget	-6422
त्साह	-6423
स्पर्	-6424
▁Ross	-6425
▁buýt	-6426
▁evac	-6427
▁ever	-6428
▁khẩu	-6429
▁reco	-6430
▁stay	-6431
▁जन्म	-6432
▁पीटर	-6433
▁लाइन	-6434
▁वाहन	-6435
▁2007,	-6436
▁never	-6437
▁scene	-6438
▁teams	-6439
▁मूल्य	-6440
▁Thomas	-6441
▁inside	-6442
▁हजारों	-6443
▁हिरासत	-6444
▁affected	-6445
▁software	-6446
US	-6447
ax	-6448
णा	-6449
ướp	-6450
मीन	-6451
▁(0	-6452
▁AW	-6453
▁Ky	-6454
▁sẻ	-6455
▁पृ	-6456
ahoo	-6457
aily	-6458
ctor	-6459
itch	-6460
onia	-6461
ंपिक	-6462
स्को	-6463
स्टी	-6464
▁Hải	-6465
▁Mer	-6466
▁bây	-6467
▁bồi	-6468
▁enc	-6469
▁mắt	-6470
▁nắm	-6471
▁nối	-6472
▁sen	-6473
▁तरफ	-6474
▁बाल	-6475
▁लाख	-6476
eated	-6477
orter	-6478
quiry	-6479
▁Educ	-6480
▁High	-6481
▁Nhóm	-6482
▁chấn	-6483
▁cris	-6484
▁giấy	-6485
▁kính	-6486
▁tràn	-6487
▁trải	-6488
▁प्ला	-6489
▁मेरे	-6490
▁विजे	-6491
▁Blair	-6492
▁Korea	-6493
▁thẳng	-6494
▁đương	-6495
▁कटौती	-6496
▁चलाने	-6497
▁पायलट	-6498
▁प्रती	-6499
▁प्रार	-6500
▁मानवा	-6501
▁मालिक	-6502
▁विकिन	-6503
▁सीनेट	-6504
chester	-6505
▁custom	-6506
▁legisl	-6507
▁trying	-6508
▁किंगडम	-6509
▁दिखाया	-6510
▁विद्रो	-6511
▁सिस्टम	-6512
▁सीरिया	-6513
▁हथियार	-6514
▁product	-6515
▁victory	-6516
▁पुरुषों	-6517
▁हथियारों	-6518
▁कार्यकारी	-6519
▁व्यक्तिगत	-6520
▁प्रतिस्पर्	-6521
अप	-6522
िद	-6523
oke	-6524
oti	-6525
ंडल	-6526
जिक	-6527
जित	-6528
भाल	-6529
मेल	-6530
्वी	-6531
▁$1	-6532
▁CN	-6533
▁lũ	-6534
▁sợ	-6535
▁vợ	-6536
▁ति	-6537
▁नव	-6538
amin	-6539
eing	-6540
enty	-6541
oted	-6542
reet	-6543
vert	-6544
wide	-6545
▁150	-6546
▁Jos	-6547
▁Pac	-6548
▁aim	-6549
▁gir	-6550
▁mẫu	-6551
▁अपे	-6552
▁कॉल	-6553
▁दिव	-6554
▁मस्	-6555
▁रोग	-6556
▁वाय	-6557
▁हार	-6558
icago	-6559
otent	-6560
urder	-6561
▁1980	-6562
▁NATO	-6563
▁Quân	-6564
▁hope	-6565
▁lưới	-6566
▁nhắc	-6567
▁nâng	-6568
▁step	-6569
▁sung	-6570
▁sông	-6571
▁thua	-6572
▁turn	-6573
▁view	-6574
▁जाँच	-6575
▁देगा	-6576
▁यहां	-6577
lement	-6578
ussein	-6579
vernor	-6580
▁Steph	-6581
▁Yahoo	-6582
▁field	-6583
▁light	-6584
▁share	-6585
▁अच्छी	-6586
▁अड्डे	-6587
▁उनमें	-6588
▁परिषद	-6589
outhern	-6590
द्योगिक	-6591
▁speech	-6592
▁सुविधा	-6593
▁special	-6594
▁मुश्किल	-6595
▁विभिन्न	-6596
▁व्यवहार	-6597
▁Security	-6598
▁Williams	-6599
▁प्रशिक्ष	-6600
▁अफगानिस्तान	-6601
aya	-6602
ify	-6603
▁Cô	-6604
▁ur	-6605
▁दा	-6606
ader	-6607
ival	-6608
omet	-6609
zuel	-6610
▁CEO	-6611
▁Gar	-6612
▁Mac	-6613
▁Nội	-6614
▁Tám	-6615
▁dom	-6616
▁sol	-6617
▁ánh	-6618
▁कॉन	-6619
▁चरण	-6620
▁निप	-6621
▁निश	-6622
elebr	-6623
ड़ताल	-6624
प्रिय	-6625
मार्क	-6626
▁Serv	-6627
▁lượt	-6628
▁tầng	-6629
▁điệp	-6630
▁कैसे	-6631
▁प्ले	-6632
▁वकील	-6633
▁व्हा	-6634
ishing	-6635
ंग्रेस	-6636
▁Offic	-6637
▁chỉnh	-6638
▁filed	-6639
▁khích	-6640
▁stage	-6641
▁मार्क	-6642
stitute	-6643
▁Senate	-6644
▁signed	-6645
▁strike	-6646
▁डॉक्टर	-6647
▁पैमाने	-6648
▁बिक्री	-6649
▁Richard	-6650
▁brought	-6651
▁contrib	-6652
▁decided	-6653
▁mission	-6654
▁penalty	-6655
▁problem	-6656
▁अफ्रीका	-6657
▁आपूर्ति	-6658
▁challeng	-6659
▁declared	-6660
▁families	-6661
▁injuries	-6662
▁additional	-6663
▁reportedly	-6664
25	-6665
kn	-6666
ada	-6667
umb	-6668
▁34	-6669
▁Ah	-6670
▁Va	-6671
▁ma	-6672
▁mẽ	-6673
▁इट	-6674
aker	-6675
lant	-6676
क्शन	-6677
च्छा	-6678
▁Ali	-6679
▁GMT	-6680
▁Her	-6681
▁Lực	-6682
▁cản	-6683
▁imm	-6684
▁lạm	-6685
▁nhớ	-6686
▁sex	-6687
▁thù	-6688
▁xúc	-6689
▁đâm	-6690
▁एडम	-6691
▁किन	-6692
▁बजट	-6693
▁राय	-6694
▁लगे	-6695
atory	-6696
स्त्र	-6697
स्थान	-6698
▁toge	-6699
▁vill	-6700
▁walk	-6701
▁अवैध	-6702
▁खदान	-6703
▁खरीद	-6704
▁गवर्	-6705
▁जीता	-6706
▁बढ़त	-6707
▁मारा	-6708
mitted	-6709
▁Chiếc	-6710
▁Liber	-6711
▁noted	-6712
▁trưng	-6713
▁सुझाव	-6714
िपीडिया	-6715
▁almost	-6716
▁coming	-6717
▁enough	-6718
▁निर्मा	-6719
▁बीमारी	-6720
▁विलियम	-6721
▁विश्ले	-6722
▁समूहों	-6723
▁हमलावर	-6724
व्यवस्था	-6725
▁Hussein	-6726
▁forward	-6727
▁introdu	-6728
▁हिस्सों	-6729
▁material	-6730
▁together	-6731
▁प्रयासों	-6732
▁श्रृंखला	-6733
ampionship	-6734
▁different	-6735
▁विकिन्यूज़	-6736
SI	-6737
ky	-6738
no	-6739
उस	-6740
सल	-6741
ger	-6742
ोरम	-6743
▁"[	-6744
▁क़	-6745
▁शा	-6746
▁ổn	-6747
They	-6748
etro	-6749
oura	-6750
दाता	-6751
▁Hel	-6752
▁Mir	-6753
▁Sol	-6754
▁mov	-6755
▁tạm	-6756
▁tắc	-6757
▁vết	-6758
▁उतर	-6759
▁पेट	-6760
babwe	-6761
based	-6762
▁cướp	-6763
▁liệt	-6764
▁thác	-6765
▁घरों	-6766
▁जाया	-6767
ड़ियों	-6768
▁2005.	-6769
▁Thống	-6770
▁Trans	-6771
▁citiz	-6772
▁compl	-6773
▁lawsu	-6774
▁एशिया	-6775
▁जुड़े	-6776
▁टेक्स	-6777
ighters	-6778
imbabwe	-6779
▁Cruise	-6780
▁carbon	-6781
▁entire	-6782
▁global	-6783
▁online	-6784
▁ऑनलाइन	-6785
▁गठबंधन	-6786
▁बातचीत	-6787
▁बीबीसी	-6788
▁यात्री	-6789
▁विजेता	-6790
▁सुनवाई	-6791
ological	-6792
urricane	-6793
▁Chicago	-6794
▁Reuters	-6795
▁destroy	-6796
▁disease	-6797
▁reached	-6798
▁concerns	-6799
▁finished	-6800
▁industry	-6801
▁आतंकवादी	-6802
▁रिपोर्टों	-6803
तु	-6804
पो	-6805
षा	-6806
alo	-6807
den	-6808
ole	-6809
oub	-6810
बान	-6811
भाग	-6812
ूरत	-6813
ेंज	-6814
ेशा	-6815
▁áo	-6816
▁आख	-6817
inet	-6818
reme	-6819
rupt	-6820
uter	-6821
र्ती	-6822
ारिज	-6823
ेटिव	-6824
्तीय	-6825
▁Cur	-6826
▁chờ	-6827
▁fig	-6828
▁lật	-6829
▁lụt	-6830
▁thợ	-6831
▁tồi	-6832
▁ung	-6833
▁đào	-6834
▁गर्	-6835
aring	-6836
ordon	-6837
quare	-6838
स्लिम	-6839
▁1995	-6840
▁FIFA	-6841
▁Hàng	-6842
▁base	-6843
▁doll	-6844
▁giấu	-6845
▁ngầm	-6846
▁बजाय	-6847
▁लैंड	-6848
▁शासन	-6849
▁शेयर	-6850
▁सांस	-6851
jected	-6852
▁2008.	-6853
▁Organ	-6854
▁named	-6855
▁xuyên	-6856
▁बारिश	-6857
▁सूचित	-6858
▁crisis	-6859
▁travel	-6860
फोर्निया	-6861
▁allowed	-6862
▁illegal	-6863
▁खिलाड़ी	-6864
▁पहुंचने	-6865
▁विज्ञान	-6866
▁समीक्षा	-6867
▁province	-6868
▁विज्ञापन	-6869
▁Education	-6870
▁स्वतंत्रता	-6871
%,	-6872
In	-6873
MS	-6874
SE	-6875
va	-6876
पि	-6877
लट	-6878
ाए	-6879
्ज	-6880
awi	-6881
emi	-6882
mon	-6883
oms	-6884
ula	-6885
डनी	-6886
व्र	-6887
्वा	-6888
▁57	-6889
▁lẽ	-6890
▁वॉ	-6891
ises	-6892
ưỡng	-6893
वाला	-6894
िलंब	-6895
▁cóc	-6896
▁dây	-6897
▁fav	-6898
▁gốc	-6899
▁ide	-6900
▁mid	-6901
▁अफ़	-6902
▁आउट	-6903
▁गलत	-6904
▁दिल	-6905
▁सेक	-6906
eared	-6907
oring	-6908
क्षेप	-6909
पोर्ट	-6910
ात्मक	-6911
▁Down	-6912
▁Face	-6913
▁Shar	-6914
▁Trận	-6915
▁bank	-6916
▁cuốn	-6917
▁done	-6918
▁here	-6919
▁khảo	-6920
▁làng	-6921
▁uống	-6922
▁उपाय	-6923
▁गेंद	-6924
▁लिखा	-6925
atures	-6926
ileaks	-6927
निवर्स	-6928
▁इराकी	-6929
▁बदलाव	-6930
▁वापसी	-6931
▁danger	-6932
▁forced	-6933
▁reason	-6934
▁न्यूज़	-6935
▁contain	-6936
▁leading	-6937
▁Zimbabwe	-6938
▁followed	-6939
▁कांग्रेस	-6940
▁condition	-6941
▁estimated	-6942
▁explosion	-6943
▁विकिपीडिया	-6944
▁development	-6945
.4	-6946
If	-6947
TA	-6948
ba	-6949
oz	-6950
yr	-6951
डर	-6952
दर	-6953
यक	-6954
Nếu	-6955
mad	-6956
अलग	-6957
इंट	-6958
द्व	-6959
लिन	-6960
▁bi	-6961
▁ru	-6962
▁गण	-6963
▁धो	-6964
▁लॉ	-6965
ners	-6966
ंसिल	-6967
बादी	-6968
हमें	-6969
▁Bor	-6970
▁Dan	-6971
▁Rad	-6972
▁Rom	-6973
▁USD	-6974
▁Val	-6975
▁mưu	-6976
▁thú	-6977
▁गईं	-6978
▁ज्ञ	-6979
▁तेज	-6980
▁नाव	-6981
▁पाठ	-6982
▁बुल	-6983
▁मना	-6984
▁शब्	-6985
ening	-6986
ought	-6987
stand	-6988
मात्र	-6989
▁Vene	-6990
▁capt	-6991
▁comb	-6992
▁join	-6993
▁mine	-6994
▁mult	-6995
▁nine	-6996
▁port	-6997
▁pred	-6998
▁seem	-6999
▁vàng	-7000
▁अवसर	-7001
▁क्लब	-7002
▁जमीन	-7003
▁तर्क	-7004
▁दायर	-7005
▁निजी	-7006
▁रखते	-7007
▁लिबर	-7008
▁Carol	-7009
▁Dương	-7010
▁Moham	-7011
▁occup	-7012
▁क्रिस	-7013
▁तीव्र	-7014
▁निलंब	-7015
▁योग्य	-7016
▁शिकाय	-7017
▁हमेशा	-7018
कारियों	-7019
▁During	-7020
▁thượng	-7021
▁क्लिंट	-7022
▁मात्रा	-7023
▁मुकदमे	-7024
▁William	-7025
▁airline	-7026
▁changes	-7027
▁एकमात्र	-7028
▁Facebook	-7029
▁Venezuel	-7030
▁required	-7031
▁shooting	-7032
▁लोकप्रिय	-7033
▁Christian	-7034
▁earthquake	-7035
4,	-7036
PA	-7037
ym	-7038
ễu	-7039
▁–	-7040
asc	-7041
ein	-7042
enk	-7043
sun	-7044
win	-7045
देह	-7046
राम	-7047
ामी	-7048
ोटो	-7049
▁MS	-7050
▁cũ	-7051
▁rỉ	-7052
▁Để	-7053
▁đê	-7054
▁तय	-7055
▁पट	-7056
draw	-7057
iana	-7058
icop	-7059
izon	-7060
ngth	-7061
ural	-7062
▁Tay	-7063
▁lab	-7064
▁tim	-7065
▁đợt	-7066
▁जोर	-7067
▁याद	-7068
itude	-7069
lines	-7070
ortun	-7071
▁Army	-7072
▁Penn	-7073
▁Phil	-7074
▁Post	-7075
▁hoãn	-7076
▁khắc	-7077
▁phái	-7078
▁song	-7079
▁अभिय	-7080
▁बैंड	-7081
▁भाषण	-7082
▁समार	-7083
▁स्थल	-7084
▁cross	-7085
▁judge	-7086
▁newsp	-7087
▁तीसरे	-7088
▁निश्च	-7089
▁पुनर्	-7090
▁मार्ग	-7091
▁detail	-7092
▁potent	-7093
▁prices	-7094
▁review	-7095
▁गिरावट	-7096
▁टाइम्स	-7097
▁popular	-7098
▁vehicle	-7099
▁witness	-7100
▁क्लिंटन	-7101
▁मुस्लिम	-7102
▁Scottish	-7103
▁proposed	-7104
▁टेलीविजन	-7105
▁पीड़ितों	-7106
▁considered	-7107
▁operations	-7108
ta	-7109
खी	-7110
नो	-7111
ọt	-7112
Các	-7113
ilt	-7114
oph	-7115
uch	-7116
vey	-7117
नाव	-7118
ुओं	-7119
▁38	-7120
▁Di	-7121
▁Dự	-7122
▁Em	-7123
▁Li	-7124
▁bí	-7125
▁hổ	-7126
▁बग	-7127
क्कर	-7128
▁Jer	-7129
▁Lao	-7130
▁Tại	-7131
▁Wal	-7132
▁art	-7133
▁bur	-7134
▁ice	-7135
▁lớp	-7136
▁lựa	-7137
▁mot	-7138
▁nor	-7139
▁đền	-7140
▁एले	-7141
▁पेर	-7142
▁फॉर	-7143
▁रोज	-7144
arter	-7145
aught	-7146
pping	-7147
▁Dire	-7148
▁Mill	-7149
▁Star	-7150
▁cell	-7151
▁quần	-7152
▁rain	-7153
▁soon	-7154
▁wife	-7155
▁कॉर्	-7156
▁ग्री	-7157
▁जुर्	-7158
▁तेजी	-7159
▁नॉर्	-7160
▁पाने	-7161
▁फ़्र	-7162
bourne	-7163
शिंगटन	-7164
▁Santa	-7165
▁Thông	-7166
▁While	-7167
▁dường	-7168
▁neigh	-7169
▁thiệu	-7170
▁पत्नी	-7171
▁पूर्ण	-7172
▁स्पेस	-7173
▁origin	-7174
▁शिक्षा	-7175
▁Angeles	-7176
▁English	-7177
▁charged	-7178
▁created	-7179
▁एयरलाइन	-7180
▁वित्तीय	-7181
निवर्सिटी	-7182
▁officers	-7183
▁broadcast	-7184
▁प्रोत्साह	-7185
▁particular	-7186
!"	-7187
Kh	-7188
RC	-7189
óc	-7190
दो	-7191
बन	-7192
cow	-7193
नाक	-7194
वां	-7195
श्र	-7196
ष्प	-7197
ेवर	-7198
▁(6	-7199
▁51	-7200
▁AP	-7201
▁मछ	-7202
aden	-7203
क्सर	-7204
▁Kar	-7205
▁bãi	-7206
▁cân	-7207
▁dậy	-7208
▁fre	-7209
▁gas	-7210
▁hứa	-7211
▁nại	-7212
▁vời	-7213
▁đọc	-7214
▁शुल	-7215
▁सेल	-7216
ecess	-7217
iddle	-7218
▁Bill	-7219
▁Fern	-7220
▁Mary	-7221
▁coll	-7222
▁educ	-7223
▁giai	-7224
▁upon	-7225
▁उनसे	-7226
▁जनता	-7227
▁धमकी	-7228
▁लाने	-7229
▁सबूत	-7230
ांसीसी	-7231
▁Steve	-7232
▁parts	-7233
▁relig	-7234
▁thiểu	-7235
▁अपहरण	-7236
▁आबादी	-7237
▁खारिज	-7238
▁खेलों	-7239
▁गार्ड	-7240
▁बंदूक	-7241
▁सर्वे	-7242
▁सीमित	-7243
▁League	-7244
▁Martin	-7245
▁better	-7246
▁budget	-7247
▁celebr	-7248
▁either	-7249
▁island	-7250
▁murder	-7251
▁nearby	-7252
▁warned	-7253
▁प्रबंध	-7254
▁समारोह	-7255
ications	-7256
▁killing	-7257
▁officer	-7258
▁ज्यादातर	-7259
▁पुरस्कार	-7260
▁Melbourne	-7261
▁thousands	-7262
▁कार्यवाही	-7263
▁यात्रियों	-7264
▁अर्थव्यवस्था	-7265
▁कैलिफोर्निया	-7266
3,	-7267
8.	-7268
RO	-7269
100	-7270
201	-7271
ges	-7272
ois	-7273
onn	-7274
ंसर	-7275
र्त	-7276
▁Me	-7277
▁rò	-7278
▁sỹ	-7279
▁xo	-7280
▁घट	-7281
▁लो	-7282
bass	-7283
hold	-7284
onst	-7285
ुक्त	-7286
ुसार	-7287
ोर्स	-7288
▁Nếu	-7289
▁bas	-7290
▁bla	-7291
▁dứt	-7292
▁foc	-7293
▁màn	-7294
▁rối	-7295
▁कला	-7296
▁खाद	-7297
▁फिन	-7298
▁बेन	-7299
There	-7300
क्रमण	-7301
▁Cass	-7302
▁lĩnh	-7303
▁role	-7304
▁rừng	-7305
▁snow	-7306
▁đuổi	-7307
▁पिता	-7308
▁प्री	-7309
▁सत्र	-7310
▁Chiến	-7311
▁Found	-7312
▁Nhiều	-7313
▁shown	-7314
vention	-7315
▁Boeing	-7316
▁impact	-7317
▁played	-7318
▁ruling	-7319
▁source	-7320
▁खुलासा	-7321
▁रॉबर्ट	-7322
▁संग्रह	-7323
▁address	-7324
▁helicop	-7325
▁planned	-7326
▁respect	-7327
▁sources	-7328
▁चुनावों	-7329
▁निश्चित	-7330
elligence	-7331
▁Congress	-7332
▁Northern	-7333
▁regarding	-7334
▁passengers	-7335
▁throughout	-7336
▁प्रतिनिधित्व	-7337
.8	-7338
कू	-7339
फे	-7340
बू	-7341
लै	-7342
bre	-7343
onz	-7344
rel	-7345
rey	-7346
यली	-7347
विक	-7348
▁Ai	-7349
▁nu	-7350
▁vo	-7351
▁ख़	-7352
aded	-7353
itan	-7354
क्वा	-7355
क्षक	-7356
घाती	-7357
टीसी	-7358
ेष्ठ	-7359
ॉर्म	-7360
्यूट	-7361
▁Ass	-7362
▁Bul	-7363
▁Chỉ	-7364
▁Pre	-7365
▁Ros	-7366
▁Tất	-7367
▁hầm	-7368
▁sút	-7369
▁tầm	-7370
▁गिल	-7371
▁त्र	-7372
▁शरी	-7373
▁संय	-7374
▁हेल	-7375
0,000	-7376
ector	-7377
ersey	-7378
▁More	-7379
▁chậm	-7380
▁dòng	-7381
▁once	-7382
▁runs	-7383
▁trạm	-7384
▁अग्न	-7385
▁डेटा	-7386
▁नामक	-7387
▁मलबे	-7388
▁वर्ण	-7389
▁विधे	-7390
▁Clark	-7391
▁leave	-7392
▁lives	-7393
▁track	-7394
▁union	-7395
▁voted	-7396
▁कोस्ट	-7397
▁मुकाब	-7398
▁सेकंड	-7399
▁Atlant	-7400
▁assist	-7401
▁matter	-7402
▁negoti	-7403
▁गवर्नर	-7404
▁माइक्र	-7405
▁Twitter	-7406
▁Western	-7407
▁nations	-7408
▁station	-7409
▁अत्यधिक	-7410
▁काउंसिल	-7411
▁मुद्दों	-7412
▁Victoria	-7413
▁internet	-7414
▁निष्कर्ष	-7415
▁Wikileaks	-7416
▁financial	-7417
▁Manchester	-7418
▁candidates	-7419
▁journalist	-7420
▁administration	-7421
-5	-7422
9,	-7423
:0	-7424
चु	-7425
लब	-7426
लर	-7427
▁ऋ	-7428
agg	-7429
ius	-7430
key	-7431
nel	-7432
ues	-7433
जें	-7434
िरी	-7435
▁4,	-7436
▁5,	-7437
▁Cr	-7438
▁đỡ	-7439
▁जि	-7440
▁थो	-7441
▁सत	-7442
gent	-7443
miss	-7444
nect	-7445
स्टन	-7446
▁Bob	-7447
▁Jim	-7448
▁Sum	-7449
▁Tôi	-7450
▁WHO	-7451
▁cúm	-7452
▁hoa	-7453
▁màu	-7454
▁nộp	-7455
▁tri	-7456
▁इसी	-7457
▁लगी	-7458
▁विर	-7459
rents	-7460
दियों	-7461
विधान	-7462
▁1997	-7463
▁Luân	-7464
▁Plan	-7465
▁band	-7466
▁coup	-7467
▁data	-7468
▁lack	-7469
▁ngàn	-7470
▁phẫu	-7471
▁phối	-7472
▁thai	-7473
▁आपदा	-7474
▁उससे	-7475
▁खाली	-7476
▁चीनी	-7477
▁पड़े	-7478
▁बाकी	-7479
▁युवा	-7480
airman	-7481
reedom	-7482
▁Coast	-7483
▁Royal	-7484
▁break	-7485
▁games	-7486
▁khiếu	-7487
▁price	-7488
▁quick	-7489
▁spoke	-7490
▁super	-7491
▁trượt	-7492
▁कैंसर	-7493
▁संदेह	-7494
▁Taiwan	-7495
▁effort	-7496
▁longer	-7497
▁really	-7498
▁घटनाओं	-7499
▁नियमों	-7500
▁विधेयक	-7501
▁economy	-7502
▁उत्पन्न	-7503
▁Japanese	-7504
▁disaster	-7505
▁चिकित्सा	-7506
▁जॉर्जिया	-7507
▁परिवारों	-7508
▁रोमानिया	-7509
▁successful	-7510
▁प्रस्तावित	-7511
▁प्रतियोगिता	-7512
FP	-7513
TS	-7514
km	-7515
tt	-7516
lor	-7517
rea	-7518
द्र	-7519
मिथ	-7520
र्श	-7521
सेन	-7522
िड़	-7523
ेसर	-7524
▁(3	-7525
▁(5	-7526
▁Ol	-7527
▁Op	-7528
▁एथ	-7529
▁बत	-7530
ador	-7531
alia	-7532
chie	-7533
uted	-7534
कर्म	-7535
बाजी	-7536
स्थल	-7537
▁boy	-7538
▁cop	-7539
▁fun	-7540
▁tộc	-7541
▁why	-7542
▁आधे	-7543
▁जोख	-7544
▁डाय	-7545
▁डेन	-7546
▁ढंग	-7547
▁तला	-7548
▁भ्र	-7549
ading	-7550
arent	-7551
itzer	-7552
known	-7553
những	-7554
ufact	-7555
▁Gill	-7556
▁Gonz	-7557
▁chăm	-7558
▁dạng	-7559
▁khóa	-7560
▁tsun	-7561
▁tàng	-7562
▁your	-7563
▁अवधि	-7564
▁टोनी	-7565
▁डाउन	-7566
▁पालन	-7567
▁बनने	-7568
▁लंबे	-7569
▁संस्	-7570
▁होकर	-7571
esters	-7572
selves	-7573
▁Grand	-7574
▁Nhưng	-7575
▁Simon	-7576
▁Trước	-7577
▁moved	-7578
▁nghìn	-7579
▁paper	-7580
▁tường	-7581
▁क्रॉस	-7582
▁रॉकेट	-7583
▁वेल्स	-7584
▁Nghiên	-7585
▁always	-7586
▁denied	-7587
▁detain	-7588
▁father	-7589
▁fourth	-7590
▁opened	-7591
▁single	-7592
▁अग्निश	-7593
▁छोड़ने	-7594
▁नेताओं	-7595
▁मुद्दे	-7596
ervative	-7597
▁African	-7598
▁running	-7599
स्ट्रेलियन	-7600
▁employees	-7601
▁Foundation	-7602
▁production	-7603
▁Philippines	-7604
▁independent	-7605
▁यूनिवर्सिटी	-7606
▁construction	-7607
▁प्रदर्शनकारियों	-7608
DP	-7609
पन	-7610
षि	-7611
ẹn	-7612
ato	-7613
aut	-7614
emy	-7615
कीय	-7616
गति	-7617
पाल	-7618
वीं	-7619
▁FA	-7620
▁LH	-7621
▁Ty	-7622
▁da	-7623
▁hư	-7624
▁टू	-7625
angu	-7626
utin	-7627
निर्	-7628
पमान	-7629
माना	-7630
्वान	-7631
▁AWB	-7632
▁Bur	-7633
▁Lou	-7634
▁Phó	-7635
▁Ter	-7636
▁Văn	-7637
▁Win	-7638
▁abs	-7639
▁big	-7640
▁ens	-7641
▁khổ	-7642
▁nêu	-7643
▁red	-7644
▁str	-7645
▁vốn	-7646
▁wid	-7647
▁ऊंच	-7648
▁कंट	-7649
▁नोट	-7650
▁बला	-7651
▁हूँ	-7652
स्थाप	-7653
▁Buff	-7654
▁chấm	-7655
▁film	-7656
▁hiếp	-7657
▁inch	-7658
▁laws	-7659
▁magn	-7660
▁ngắn	-7661
▁rout	-7662
▁असफल	-7663
▁आयोग	-7664
▁इलाज	-7665
▁चुकी	-7666
▁भूमि	-7667
▁रहते	-7668
▁लगाए	-7669
▁लेबर	-7670
▁वहाँ	-7671
ension	-7672
▁1,000	-7673
▁hoàng	-7674
▁restr	-7675
▁खाद्य	-7676
▁दोस्त	-7677
▁भर्ती	-7678
▁लापता	-7679
▁Abbott	-7680
▁Moscow	-7681
▁People	-7682
▁Street	-7683
▁mother	-7684
▁social	-7685
▁struck	-7686
▁विरोधी	-7687
▁सेवाओं	-7688
▁Federal	-7689
▁Windows	-7690
▁crashed	-7691
▁remains	-7692
▁towards	-7693
▁प्रारंभ	-7694
▁progress	-7695
▁prosecut	-7696
▁आत्मघाती	-7697
▁कोलंबिया	-7698
▁परिस्थित	-7699
▁वाशिंगटन	-7700
▁फिलिस्तीनी	-7701
Ng	-7702
ंह	-7703
झा	-7704
मर	-7705
irc	-7706
ura	-7707
जीन	-7708
जोर	-7709
णों	-7710
दाय	-7711
फ़ी	-7712
ाइप	-7713
ासा	-7714
्ति	-7715
▁पस	-7716
▁पॉ	-7717
▁मू	-7718
▁री	-7719
▁वन	-7720
ayed	-7721
mine	-7722
oper	-7723
rial	-7724
नीति	-7725
वेदन	-7726
▁195	-7727
▁Day	-7728
▁Gra	-7729
▁Sir	-7730
▁Ver	-7731
▁chỗ	-7732
▁fir	-7733
▁phe	-7734
▁pos	-7735
▁Đôn	-7736
▁जता	-7737
▁तत्	-7738
▁थाई	-7739
▁थॉम	-7740
▁बेर	-7741
apore	-7742
aters	-7743
धियों	-7744
श्विक	-7745
▁Hiến	-7746
▁Rudd	-7747
▁Tiên	-7748
▁anti	-7749
▁beat	-7750
▁buôn	-7751
▁giây	-7752
▁दर्श	-7753
▁बेहद	-7754
▁माता	-7755
▁लंबी	-7756
▁शरीर	-7757
▁सवार	-7758
▁साउथ	-7759
cience	-7760
encies	-7761
▁Honda	-7762
▁Singh	-7763
▁ahead	-7764
▁chiếu	-7765
▁chủng	-7766
▁evacu	-7767
▁hotel	-7768
▁minor	-7769
▁देंगे	-7770
▁न्यूज	-7771
▁पारित	-7772
▁मार्ट	-7773
▁हटाने	-7774
▁हमारी	-7775
isation	-7776
श्रेष्ठ	-7777
▁Albert	-7778
▁Gordon	-7779
▁agreed	-7780
▁growth	-7781
▁wanted	-7782
▁तापमान	-7783
▁विकल्प	-7784
▁सुनामी	-7785
▁Cassini	-7786
▁Foreign	-7787
▁improve	-7788
▁medical	-7789
▁संविधान	-7790
ification	-7791
▁appeared	-7792
▁समस्याओं	-7793
▁Francisco	-7794
▁सर्वश्रेष्ठ	-7795
DT	-7796
gn	-7797
लन	-7798
ैर	-7799
300	-7800
Một	-7801
ker	-7802
oma	-7803
rog	-7804
ताछ	-7805
बित	-7806
ेंच	-7807
ेलो	-7808
▁43	-7809
▁66	-7810
▁77	-7811
▁AM	-7812
▁dụ	-7813
▁er	-7814
▁ưu	-7815
arks	-7816
cean	-7817
ears	-7818
eneg	-7819
ilty	-7820
थमिक	-7821
ांतर	-7822
▁Pri	-7823
▁Thứ	-7824
▁esp	-7825
▁fem	-7826
▁hon	-7827
▁lừa	-7828
▁tổn	-7829
▁urg	-7830
▁vui	-7831
▁đức	-7832
▁किश	-7833
▁गां	-7834
▁देर	-7835
▁बेच	-7836
annel	-7837
ption	-7838
▁Cont	-7839
▁Fire	-7840
▁coun	-7841
▁didn	-7842
▁gave	-7843
▁lược	-7844
▁nuôi	-7845
▁खड़े	-7846
▁खतरे	-7847
▁निधन	-7848
▁पूछा	-7849
▁बुला	-7850
▁रिली	-7851
▁वायु	-7852
▁साथी	-7853
▁सुपर	-7854
▁Guant	-7855
▁achie	-7856
▁check	-7857
▁estab	-7858
▁homes	-7859
▁talks	-7860
▁votes	-7861
▁whose	-7862
▁अक्सर	-7863
▁इच्छा	-7864
▁उपचार	-7865
▁कार्ड	-7866
▁सत्ता	-7867
▁सफलता	-7868
▁स्टार	-7869
▁Agency	-7870
▁Safety	-7871
▁cannot	-7872
▁necess	-7873
▁things	-7874
▁चुनौती	-7875
▁पहुंचा	-7876
▁व्हाइट	-7877
poration	-7878
▁Buffalo	-7879
▁Justice	-7880
▁article	-7881
▁certain	-7882
▁managed	-7883
▁removed	-7884
▁schools	-7885
▁stating	-7886
▁संचालित	-7887
▁संपत्ति	-7888
▁संस्करण	-7889
▁Virginia	-7890
▁approach	-7891
▁citizens	-7892
▁Singapore	-7893
▁executive	-7894
▁experience	-7895
▁मानवाधिकार	-7896
▁दुर्घटनाग्रस्त	-7897
gi	-7898
कम	-7899
डे	-7900
पा	-7901
ूं	-7902
600	-7903
aro	-7904
bus	-7905
ift	-7906
ila	-7907
ipe	-7908
ode	-7909
ogn	-7910
pts	-7911
ंगी	-7912
ंडो	-7913
राक	-7914
वेन	-7915
षिक	-7916
िना	-7917
▁$2	-7918
▁6,	-7919
▁Hà	-7920
atal	-7921
burg	-7922
down	-7923
ongo	-7924
raud	-7925
राने	-7926
वायु	-7927
हम्म	-7928
▁130	-7929
▁Hòa	-7930
▁Rev	-7931
▁mer	-7932
▁nhẹ	-7933
▁sóc	-7934
▁किस	-7935
▁निर	-7936
anamo	-7937
ज्ञात	-7938
्यूटर	-7939
▁Ball	-7940
▁Char	-7941
▁Ferr	-7942
▁Rice	-7943
▁answ	-7944
▁bene	-7945
▁felt	-7946
▁hous	-7947
▁jury	-7948
▁lear	-7949
▁live	-7950
▁poor	-7951
▁इटली	-7952
▁उड़ा	-7953
▁कठिन	-7954
▁ग्रे	-7955
▁भीड़	-7956
▁मैक्	-7957
▁वादा	-7958
▁हमास	-7959
▁हस्त	-7960
▁हेली	-7961
▁Disco	-7962
▁means	-7963
▁teach	-7964
▁अच्छे	-7965
▁घंटों	-7966
▁जीवित	-7967
▁तस्वी	-7968
▁मुक्त	-7969
▁साइंट	-7970
ability	-7971
▁Office	-7972
▁School	-7973
▁concer	-7974
▁levels	-7975
▁little	-7976
▁obtain	-7977
▁पूछताछ	-7978
▁वर्ल्ड	-7979
▁शिकायत	-7980
▁Fernand	-7981
▁Ferrari	-7982
▁Ryanair	-7983
▁Seattle	-7984
▁calling	-7985
▁entered	-7986
▁message	-7987
▁weather	-7988
▁इज़राइल	-7989
▁टेक्सास	-7990
▁तीव्रता	-7991
▁स्कॉटिश	-7992
▁apparent	-7993
▁maintain	-7994
▁pressure	-7995
▁protests	-7996
▁न्यायालय	-7997
▁प्राथमिक	-7998
▁Institute	-7999
▁conducted	-8000
▁something	-8001
▁suggested	-8002
▁supported	-8003
▁Guantanamo	-8004
▁discovered	-8005
▁immediately	-8006
▁वैज्ञानिकों	-8007
▁constitution	-8008
▁उपयोगकर्ताओं	-8009
जो	-8010
पं	-8011
ाफ	-8012
:45	-8013
bum	-8014
oli	-8015
pro	-8016
एफ़	-8017
गार	-8018
दाद	-8019
हित	-8020
ामक	-8021
▁3,	-8022
▁7,	-8023
▁đệ	-8024
▁डू	-8025
hood	-8026
lict	-8027
oday	-8028
olis	-8029
rier	-8030
rowd	-8031
ties	-8032
पिता	-8033
व्या	-8034
▁Ash	-8035
▁Cam	-8036
▁Cho	-8037
▁Hen	-8038
▁Hàn	-8039
▁Hơn	-8040
▁LHQ	-8041
▁Law	-8042
▁Sri	-8043
▁bin	-8044
▁dog	-8045
▁nom	-8046
▁sụp	-8047
▁आंद	-8048
▁ओवर	-8049
▁गैस	-8050
▁पेन	-8051
▁बहस	-8052
▁बेस	-8053
▁मोट	-8054
▁यौन	-8055
▁होम	-8056
▁ống	-8057
हम्मद	-8058
▁Hait	-8059
▁Loan	-8060
▁clos	-8061
▁norm	-8062
▁risk	-8063
▁tiềm	-8064
▁अधिन	-8065
▁डाला	-8066
▁दावे	-8067
▁फ्ला	-8068
▁विषय	-8069
▁स्वि	-8070
linois	-8071
ritory	-8072
▁2004.	-8073
▁Cross	-8074
▁Radio	-8075
▁coach	-8076
▁duyệt	-8077
▁react	-8078
▁thách	-8079
▁आशंका	-8080
▁जोखिम	-8081
▁देखते	-8082
▁पाउंड	-8083
▁पुस्त	-8084
▁प्रजा	-8085
▁बताते	-8086
▁बहुमत	-8087
▁वायरस	-8088
▁सहमति	-8089
ecially	-8090
▁Argent	-8091
▁Commun	-8092
▁chance	-8093
▁living	-8094
▁reduce	-8095
▁worked	-8096
▁आधारित	-8097
▁इलाकों	-8098
▁ठहराया	-8099
▁निवासी	-8100
▁संभवतः	-8101
▁leaving	-8102
▁tsunami	-8103
▁Official	-8104
▁attacked	-8105
▁allegedly	-8106
▁attention	-8107
▁civilians	-8108
▁operating	-8109
▁नियंत्रित	-8110
▁themselves	-8111
▁allegations	-8112
▁environmental	-8113
Họ	-8114
ẹt	-8115
abe	-8116
kes	-8117
oid	-8118
uda	-8119
war	-8120
ंडी	-8121
िटर	-8122
▁Er	-8123
▁ví	-8124
▁आह	-8125
▁डर	-8126
▁तथ	-8127
▁पं	-8128
eter	-8129
time	-8130
क्सी	-8131
ेक्ट	-8132
्यूज	-8133
▁193	-8134
▁CNN	-8135
▁Jon	-8136
▁Sar	-8137
▁hôn	-8138
▁ong	-8139
▁son	-8140
▁đen	-8141
▁đòi	-8142
▁जेन	-8143
▁डिज	-8144
▁भाव	-8145
▁वरि	-8146
▁सिर	-8147
alian	-8148
ental	-8149
गरानी	-8150
र्स्ट	-8151
▁Gold	-8152
▁Hãng	-8153
▁Oper	-8154
▁Tiến	-8155
▁Wood	-8156
▁mừng	-8157
▁nhắm	-8158
▁term	-8159
▁toán	-8160
▁आंतर	-8161
▁डिज़	-8162
▁फ्रै	-8163
▁संधि	-8164
स्तानी	-8165
▁Triều	-8166
▁extra	-8167
▁obser	-8168
▁purch	-8169
▁visit	-8170
▁अस्वी	-8171
▁जर्मन	-8172
▁जिनकी	-8173
▁मानते	-8174
▁सिडनी	-8175
▁हराया	-8176
▁हवाला	-8177
▁10,000	-8178
▁Flight	-8179
▁associ	-8180
▁events	-8181
▁guilty	-8182
▁minute	-8183
▁अज्ञात	-8184
▁उत्सर्	-8185
▁ओलंपिक	-8186
▁जलवायु	-8187
▁जापानी	-8188
▁प्रगति	-8189
▁प्रचार	-8190
▁Airport	-8191
▁climate	-8192
▁conclud	-8193
▁demonst	-8194
▁lawsuit	-8195
▁अधिनियम	-8196
▁वैश्विक	-8197
▁measures	-8198
▁suffered	-8199
▁withdraw	-8200
▁एसोसिएशन	-8201
▁Discovery	-8202
▁destroyed	-8203
▁expressed	-8204
▁militants	-8205
▁secretary	-8206
▁transport	-8207
▁Associated	-8208
▁Association	-8209
▁आतंकवादियों	-8210
▁responsibility	-8211
47	-8212
MA	-8213
Ít	-8214
भर	-8215
िग	-8216
▁z	-8217
ped	-8218
ãnh	-8219
ंडे	-8220
यात	-8221
र्य	-8222
ेटर	-8223
ेलू	-8224
▁If	-8225
▁NZ	-8226
▁hi	-8227
▁mộ	-8228
▁đỏ	-8229
▁शे	-8230
▁सश	-8231
,500	-8232
come	-8233
gypt	-8234
ugby	-8235
स्ते	-8236
स्पद	-8237
ेम्स	-8238
▁Ann	-8239
▁Cap	-8240
▁Cra	-8241
▁Jac	-8242
▁Nic	-8243
▁dần	-8244
▁mus	-8245
▁ngữ	-8246
▁nỗi	-8247
▁pun	-8248
▁ran	-8249
▁var	-8250
▁xấu	-8251
▁Đạo	-8252
▁कैप	-8253
▁कोच	-8254
▁नजर	-8255
▁नदी	-8256
▁रखे	-8257
▁रोम	-8258
▁शान	-8259
elled	-8260
essor	-8261
ories	-8262
ushed	-8263
▁Ngân	-8264
▁diễu	-8265
▁diệt	-8266
▁giác	-8267
▁kick	-8268
▁lắng	-8269
▁vers	-8270
▁xanh	-8271
▁कृषि	-8272
▁तालि	-8273
espite	-8274
ricult	-8275
क्सिको	-8276
▁Daily	-8277
▁Egypt	-8278
▁Other	-8279
▁Paris	-8280
▁fired	-8281
▁heard	-8282
▁influ	-8283
▁nghèo	-8284
▁score	-8285
▁seats	-8286
▁trade	-8287
▁घरेलू	-8288
▁जरूरत	-8289
▁दृष्ट	-8290
▁निवेश	-8291
▁फाइनल	-8292
▁मजबूर	-8293
▁विवरण	-8294
▁स्मिथ	-8295
▁cancer	-8296
▁engine	-8297
▁expect	-8298
▁raised	-8299
▁spread	-8300
▁आह्वान	-8301
▁वरिष्ठ	-8302
▁श्रेणी	-8303
▁हड़ताल	-8304
▁Network	-8305
▁airport	-8306
▁quarter	-8307
▁निगरानी	-8308
▁राज्यों	-8309
▁वार्षिक	-8310
▁Illinois	-8311
▁Santorum	-8312
▁anything	-8313
▁fighting	-8314
▁football	-8315
▁happened	-8316
▁manufact	-8317
▁policies	-8318
▁उपस्थिति	-8319
▁केंद्रित	-8320
▁जुर्माना	-8321
▁Venezuela	-8322
▁committee	-8323
▁criticism	-8324
▁potential	-8325
▁presented	-8326
▁reporters	-8327
▁प्रतिबद्ध	-8328
▁सर्वेक्षण	-8329
▁especially	-8330
▁protesters	-8331
▁प्रतिस्पर्धा	-8332
Có	-8333
NA	-8334
कश	-8335
थम	-8336
थे	-8337
ộn	-8338
Lay	-8339
ags	-8340
emb	-8341
erb	-8342
uba	-8343
ulf	-8344
ंकी	-8345
नाम	-8346
रीन	-8347
र्द	-8348
र्प	-8349
साइ	-8350
िजी	-8351
▁49	-8352
▁Cả	-8353
▁Vị	-8354
▁cờ	-8355
▁आइ	-8356
▁आन	-8357
/201	-8358
bell	-8359
hing	-8360
ined	-8361
ords	-8362
ston	-8363
well	-8364
क्सन	-8365
टर्स	-8366
िवार	-8367
▁Bol	-8368
▁Kab	-8369
▁Rog	-8370
▁div	-8371
▁dọc	-8372
▁fly	-8373
▁hài	-8374
▁rob	-8375
▁thẻ	-8376
▁vay	-8377
▁चले	-8378
▁दिख	-8379
▁पदक	-8380
▁फीट	-8381
राज्य	-8382
ॉर्नी	-8383
▁Asia	-8384
▁Bull	-8385
▁Mand	-8386
▁Prot	-8387
▁Team	-8388
▁crim	-8389
▁male	-8390
▁mảnh	-8391
▁prim	-8392
▁thận	-8393
▁treo	-8394
▁vess	-8395
▁खत्म	-8396
▁गाजा	-8397
▁चैनल	-8398
▁सहमत	-8399
astern	-8400
change	-8401
▁Abdul	-8402
▁Chief	-8403
▁DeLay	-8404
▁Force	-8405
▁Laden	-8406
▁Putin	-8407
▁broke	-8408
▁colle	-8409
▁exist	-8410
▁आंदोल	-8411
▁तकनीक	-8412
▁मामला	-8413
▁स्रोत	-8414
▁Turkey	-8415
▁female	-8416
▁propos	-8417
▁recogn	-8418
▁satell	-8419
▁senior	-8420
▁आंतरिक	-8421
▁भारतीय	-8422
▁संचालन	-8423
▁causing	-8424
▁inquiry	-8425
▁instead	-8426
▁manager	-8427
▁quickly	-8428
▁आयरलैंड	-8429
▁प्रभावी	-8430
▁carrying	-8431
▁conflict	-8432
▁stations	-8433
▁उत्सर्जन	-8434
▁कंप्यूटर	-8435
▁दृष्टिको	-8436
▁बलात्कार	-8437
▁दस्तावेज़	-8438
▁increasing	-8439
BS	-8440
बै	-8441
सो	-8442
ॉग	-8443
▁Ở	-8444
800	-8445
bul	-8446
che	-8447
omp	-8448
तने	-8449
रेज	-8450
हरे	-8451
्रे	-8452
▁CA	-8453
▁Vi	-8454
▁dư	-8455
▁tá	-8456
▁Ít	-8457
▁अख	-8458
ateg	-8459
fire	-8460
pool	-8461
rich	-8462
rish	-8463
roll	-8464
ruct	-8465
ंगिक	-8466
दर्भ	-8467
दर्श	-8468
विंग	-8469
▁Gen	-8470
▁Jul	-8471
▁McG	-8472
▁Shi	-8473
▁Spe	-8474
▁Sur	-8475
▁toà	-8476
▁टेल	-8477
anish	-8478
iance	-8479
कड़ों	-8480
ारियो	-8481
▁Camb	-8482
▁Carl	-8483
▁Reid	-8484
▁dàng	-8485
▁gain	-8486
▁mean	-8487
▁pack	-8488
▁pháo	-8489
▁tung	-8490
▁अनुस	-8491
▁क्यू	-8492
▁ग्लो	-8493
▁चलता	-8494
▁मेरी	-8495
▁रद्द	-8496
▁वेतन	-8497
forman	-8498
ार्मिक	-8499
▁Phòng	-8500
▁fraud	-8501
▁khiển	-8502
▁offer	-8503
▁shows	-8504
▁spent	-8505
▁किशोर	-8506
▁जल्दी	-8507
▁जेम्स	-8508
▁दर्शा	-8509
▁पिछली	-8510
▁प्रोफ	-8511
▁विशाल	-8512
▁शक्ति	-8513
▁सहायक	-8514
▁स्वाम	-8515
ountain	-8516
यानुसार	-8517
▁advert	-8518
▁caught	-8519
▁posted	-8520
▁ट्रांस	-8521
▁Pacific	-8522
▁Spanish	-8523
▁council	-8524
▁ordered	-8525
▁private	-8526
▁require	-8527
▁traffic	-8528
▁wounded	-8529
▁अपेक्षा	-8530
▁धार्मिक	-8531
▁निर्देश	-8532
▁Although	-8533
▁District	-8534
▁व्यवस्था	-8535
▁Pakistani	-8536
▁relations	-8537
▁department	-8538
▁resolution	-8539
▁legislation	-8540
▁उम्मीदवारों	-8541
MD	-8542
tr	-8543
धु	-8544
enz	-8545
inu	-8546
osn	-8547
oul	-8548
ubb	-8549
इंग	-8550
गीत	-8551
फाई	-8552
ब्स	-8553
सिक	-8554
ायद	-8555
िडा	-8556
ूली	-8557
ेटी	-8558
ोटा	-8559
्बा	-8560
्ली	-8561
▁39	-8562
▁AC	-8563
▁Ge	-8564
▁Uk	-8565
▁hề	-8566
▁खन	-8567
▁गी	-8568
▁मं	-8569
enko	-8570
igan	-8571
usal	-8572
हमने	-8573
ानों	-8574
्यास	-8575
▁Cle	-8576
▁Cập	-8577
▁Gab	-8578
▁Rec	-8579
▁Sam	-8580
▁Web	-8581
▁Wil	-8582
▁cất	-8583
▁key	-8584
▁nhờ	-8585
▁qui	-8586
▁rào	-8587
▁नती	-8588
▁रिच	-8589
▁शॉट	-8590
▁सोच	-8591
astic	-8592
ouble	-8593
water	-8594
ylvan	-8595
ंग्रे	-8596
मैंने	-8597
राधिक	-8598
▁Comp	-8599
▁Hall	-8600
▁Time	-8601
▁girl	-8602
▁giản	-8603
▁hỏng	-8604
▁insp	-8605
▁ngập	-8606
▁sale	-8607
▁tuân	-8608
▁đỉnh	-8609
▁कड़ी	-8610
▁दौरा	-8611
▁पाँच	-8612
▁मतलब	-8613
▁श्रम	-8614
▁समाज	-8615
ampton	-8616
isters	-8617
▁2003,	-8618
▁Delhi	-8619
▁These	-8620
▁crowd	-8621
▁dương	-8622
▁ended	-8623
▁pilot	-8624
▁trúng	-8625
▁trắng	-8626
▁एंड्र	-8627
▁कार्ब	-8628
▁जानते	-8629
▁जिनके	-8630
▁यॉर्क	-8631
▁संगीत	-8632
▁साबित	-8633
▁Jersey	-8634
▁common	-8635
▁consum	-8636
▁course	-8637
▁higher	-8638
▁temper	-8639
▁ताइवान	-8640
▁बढ़ावा	-8641
▁संदर्भ	-8642
▁Iranian	-8643
▁Service	-8644
▁carried	-8645
▁dismiss	-8646
▁encoura	-8647
▁players	-8648
▁निलंबित	-8649
▁विद्रोह	-8650
▁Campbell	-8651
▁provided	-8652
▁recorded	-8653
▁revealed	-8654
▁निर्माता	-8655
▁buildings	-8656
▁coalition	-8657
▁प्रशिक्षण	-8658
▁समयानुसार	-8659
▁identified	-8660
▁चैंपियनशिप	-8661
▁पाकिस्तानी	-8662
DF	-8663
uj	-8664
क़	-8665
ैम	-8666
्द	-8667
ớt	-8668
ano	-8669
eil	-8670
hio	-8671
lad	-8672
org	-8673
rie	-8674
ênh	-8675
गाह	-8676
टेड	-8677
लेन	-8678
िनी	-8679
▁46	-8680
▁AT	-8681
▁Na	-8682
▁Tờ	-8683
▁डा	-8684
▁नै	-8685
arta	-8686
iple	-8687
nedy	-8688
द्रा	-8689
मतों	-8690
शाली	-8691
सेना	-8692
ितीय	-8693
िष्ट	-8694
्रोल	-8695
▁Ath	-8696
▁Hun	-8697
▁Lạp	-8698
▁Meh	-8699
▁Quỹ	-8700
▁bad	-8701
▁dạy	-8702
▁gra	-8703
▁kẹt	-8704
▁lat	-8705
▁lăm	-8706
▁máu	-8707
▁कने	-8708
▁ट्व	-8709
▁दंड	-8710
▁ध्व	-8711
▁माँ	-8712
▁वार	-8713
▁शेष	-8714
▁हिल	-8715
house	-8716
illed	-8717
oming	-8718
फोर्ड	-8719
लिस्ट	-8720
ियाना	-8721
ोरेशन	-8722
▁APEC	-8723
▁Giao	-8724
▁Last	-8725
▁Lord	-8726
▁Ohio	-8727
▁Turk	-8728
▁card	-8729
▁khối	-8730
▁leak	-8731
▁poll	-8732
▁prep	-8733
▁rich	-8734
▁कहता	-8735
▁ग्रह	-8736
▁जिले	-8737
▁धोखा	-8738
▁निकट	-8739
▁नौका	-8740
▁बराक	-8741
▁मुला	-8742
▁लगने	-8743
▁सकें	-8744
▁Louis	-8745
▁Media	-8746
▁joint	-8747
▁ngang	-8748
▁stock	-8749
▁कमजोर	-8750
▁टीमों	-8751
▁पेशकश	-8752
▁प्रोट	-8753
▁मिस्र	-8754
▁रहेगा	-8755
▁लिबरल	-8756
ylvania	-8757
▁Khoảng	-8758
▁Middle	-8759
▁Serbia	-8760
▁credit	-8761
▁defend	-8762
▁itself	-8763
▁lawyer	-8764
▁player	-8765
▁rocket	-8766
▁served	-8767
▁कीमतों	-8768
▁निशाना	-8769
▁रहेंगे	-8770
▁Hillary	-8771
▁Italian	-8772
▁Kennedy	-8773
▁consist	-8774
▁damaged	-8775
▁effects	-8776
▁hearing	-8777
▁parents	-8778
▁protect	-8779
▁related	-8780
▁suspect	-8781
▁various	-8782
▁अटॉर्नी	-8783
▁critical	-8784
▁defeated	-8785
▁flooding	-8786
▁questions	-8787
▁फ्रांसीसी	-8788
▁स्वामित्व	-8789
▁खिलाड़ियों	-8790
',	-8791
HL	-8792
He	-8793
NP	-8794
ha	-8795
ho	-8796
शु	-8797
ूठ	-8798
ोड	-8799
ủi	-8800
ena	-8801
gar	-8802
itz	-8803
lus	-8804
ova	-8805
ums	-8806
अगर	-8807
नात	-8808
नें	-8809
बोध	-8810
स्व	-8811
हाल	-8812
ायन	-8813
ियस	-8814
▁AI	-8815
▁Ni	-8816
▁cy	-8817
▁एप	-8818
▁नो	-8819
aska	-8820
back	-8821
ehan	-8822
iếng	-8823
lied	-8824
noon	-8825
sequ	-8826
लांट	-8827
वहार	-8828
वारी	-8829
ोग्र	-8830
▁Kaz	-8831
▁Van	-8832
▁dải	-8833
▁flu	-8834
▁ple	-8835
▁sil	-8836
▁xóa	-8837
▁đập	-8838
▁घात	-8839
▁सोल	-8840
Không	-8841
arest	-8842
round	-8843
धानिक	-8844
सिद्ध	-8845
▁Brad	-8846
▁Dani	-8847
▁Lãnh	-8848
▁Nick	-8849
▁bigg	-8850
▁boat	-8851
▁bùng	-8852
▁feel	-8853
▁khám	-8854
▁rule	-8855
▁sánh	-8856
▁trần	-8857
▁अस्थ	-8858
▁कैंप	-8859
▁चलने	-8860
▁जैसी	-8861
▁निरा	-8862
▁ब्ले	-8863
▁राशि	-8864
▁Black	-8865
▁First	-8866
▁Haiti	-8867
▁Labor	-8868
▁Trắng	-8869
▁Vaile	-8870
▁lower	-8871
▁owner	-8872
▁thùng	-8873
▁truck	-8874
▁कब्जा	-8875
▁गवाही	-8876
▁नॉर्थ	-8877
▁प्रेर	-8878
▁बचाने	-8879
▁संचार	-8880
ilities	-8881
▁Author	-8882
▁Chương	-8883
▁Peters	-8884
▁annual	-8885
▁anyone	-8886
▁camera	-8887
▁career	-8888
▁latest	-8889
▁object	-8890
▁quoted	-8891
▁resign	-8892
▁turned	-8893
▁unable	-8894
▁तैयारी	-8895
▁निकाला	-8896
▁पदार्थ	-8897
▁स्ट्री	-8898
▁स्वागत	-8899
▁Central	-8900
▁Despite	-8901
▁Islamic	-8902
▁Liberal	-8903
▁assault	-8904
▁central	-8905
▁dropped	-8906
▁getting	-8907
▁massive	-8908
▁offered	-8909
▁refused	-8910
▁species	-8911
▁Colombia	-8912
▁Director	-8913
▁Fernando	-8914
▁attorney	-8915
▁compared	-8916
▁consider	-8917
▁demonstr	-8918
▁district	-8919
▁ministry	-8920
▁opportun	-8921
▁personal	-8922
▁starting	-8923
▁अधिकारों	-8924
▁प्रसारित	-8925
▁afternoon	-8926
▁necessary	-8927
▁वैज्ञानिक	-8928
▁activities	-8929
▁commission	-8930
▁supporters	-8931
▁उपयोगकर्ता	-8932
5%	-8933
6.	-8934
90	-8935
Nó	-8936
OA	-8937
sc	-8938
डु	-8939
भू	-8940
वह	-8941
ेद	-8942
ॉय	-8943
ịp	-8944
:15	-8945
ado	-8946
các	-8947
ett	-8948
han	-8949
ंटो	-8950
ंसे	-8951
कॉप	-8952
ट्स	-8953
नाश	-8954
पोल	-8955
रीत	-8956
ावर	-8957
िटल	-8958
▁47	-8959
▁nợ	-8960
ares	-8961
azon	-8962
etic	-8963
ocal	-8964
कृति	-8965
जूदा	-8966
धड़ी	-8967
मार्	-8968
राइट	-8969
र्नल	-8970
र्सी	-8971
वेंट	-8972
ार्ज	-8973
ेडिट	-8974
ोर्न	-8975
▁250	-8976
▁700	-8977
▁Aff	-8978
▁Att	-8979
▁Dev	-8980
▁Gil	-8981
▁God	-8982
▁Joe	-8983
▁Kết	-8984
▁McD	-8985
▁Mun	-8986
▁Sea	-8987
▁buy	-8988
▁cul	-8989
▁gấu	-8990
▁gắn	-8991
▁kín	-8992
▁lận	-8993
▁ngũ	-8994
▁अवर	-8995
▁असर	-8996
▁आवा	-8997
▁गयी	-8998
▁टूट	-8999
▁पृथ	-9000
▁फैल	-9001
▁भाई	-9002
▁सीई	-9003
achus	-9004
erald	-9005
र्मित	-9006
ोर्टर	-9007
▁Cape	-9008
▁Lank	-9009
▁Sadd	-9010
▁Thai	-9011
▁buồn	-9012
▁chặt	-9013
▁căng	-9014
▁dipl	-9015
▁phot	-9016
▁phys	-9017
▁siêu	-9018
▁इंटर	-9019
▁उचित	-9020
▁कहीं	-9021
▁क्वी	-9022
▁गवाह	-9023
▁ट्रै	-9024
▁तोड़	-9025
▁दिला	-9026
▁धर्म	-9027
▁फ्री	-9028
▁मौका	-9029
▁रॉयल	-9030
▁वर्ग	-9031
▁शायद	-9032
▁साझा	-9033
▁सामा	-9034
▁2000,	-9035
▁Ngoài	-9036
▁Rober	-9037
▁Thành	-9038
▁cover	-9039
▁crime	-9040
▁khung	-9041
▁often	-9042
▁ruled	-9043
▁rules	-9044
▁sites	-9045
▁ट्राम	-9046
▁प्रीम	-9047
▁शुल्क	-9048
▁स्थिर	-9049
ication	-9050
mercial	-9051
ाउंडेशन	-9052
▁attend	-9053
▁khuyên	-9054
▁placed	-9055
▁proced	-9056
▁अनुबंध	-9057
▁आंदोलन	-9058
▁कमांडर	-9059
▁प्रमाण	-9060
▁शानदार	-9061
▁सर्विस	-9062
formance	-9063
▁details	-9064
▁driving	-9065
▁elected	-9066
▁highest	-9067
▁kilomet	-9068
▁नीतियों	-9069
▁हेलीकॉप	-9070
▁Mohammed	-9071
▁घटनास्थल	-9072
▁प्रतिरोध	-9073
▁Argentina	-9074
▁Democrats	-9075
▁Represent	-9076
▁developed	-9077
▁introduced	-9078
▁individuals	-9079
%)	-9080
70	-9081
:5	-9082
As	-9083
RA	-9084
sự	-9085
आप	-9086
िफ	-9087
ुए	-9088
pei	-9089
pse	-9090
ượu	-9091
काय	-9092
ड्र	-9093
णिज	-9094
बेल	-9095
वुड	-9096
▁52	-9097
▁56	-9098
▁HI	-9099
▁अथ	-9100
▁ऋण	-9101
▁जू	-9102
ably	-9103
ancy	-9104
ashv	-9105
aves	-9106
azir	-9107
irth	-9108
keep	-9109
Điều	-9110
म्मत	-9111
ल्टी	-9112
स्का	-9113
ूंगा	-9114
ूनों	-9115
▁192	-9116
▁Abu	-9117
▁Bah	-9118
▁Die	-9119
▁Lau	-9120
▁USA	-9121
▁ill	-9122
▁lap	-9123
▁tận	-9124
▁दिश	-9125
▁नाइ	-9126
▁बनी	-9127
ients	-9128
raine	-9129
णिज्य	-9130
लेक्ट	-9131
ार्टर	-9132
िस्टर	-9133
ेडियम	-9134
्डिंग	-9135
▁Buch	-9136
▁Gree	-9137
▁Many	-9138
▁Marg	-9139
▁Rick	-9140
▁army	-9141
▁conn	-9142
▁cảng	-9143
▁deep	-9144
▁diss	-9145
▁rượu	-9146
▁safe	-9147
▁tank	-9148
▁अल्प	-9149
▁क़ान	-9150
▁देखी	-9151
▁नासा	-9152
▁प्रौ	-9153
▁ब्यू	-9154
▁भाषा	-9155
▁महास	-9156
▁मेयर	-9157
▁लेबन	-9158
▁संसा	-9159
▁सीधे	-9160
utions	-9161
क्ताओं	-9162
क्षकों	-9163
▁Guard	-9164
▁Italy	-9165
▁Major	-9166
▁Penns	-9167
▁Super	-9168
▁armed	-9169
▁award	-9170
▁built	-9171
▁doing	-9172
▁focus	-9173
▁huống	-9174
▁radio	-9175
▁बढ़ने	-9176
▁वित्त	-9177
▁सिद्ध	-9178
▁Daniel	-9179
▁Malays	-9180
▁Prince	-9181
▁Public	-9182
▁giving	-9183
▁kilome	-9184
▁supply	-9185
▁कार्बन	-9186
▁किनारे	-9187
▁क्वींस	-9188
▁जैक्सन	-9189
▁निर्वा	-9190
▁फुटबॉल	-9191
▁फ्लाइट	-9192
▁बमबारी	-9193
▁ब्राउन	-9194
▁मिसाइल	-9195
▁मुद्रा	-9196
▁मौजूदा	-9197
▁विपरीत	-9198
▁हॉवर्ड	-9199
▁Gillard	-9200
▁Roberts	-9201
▁average	-9202
▁looking	-9203
▁shortly	-9204
▁subject	-9205
▁अफ्रीकी	-9206
▁डिज़ाइन	-9207
▁प्रबंधन	-9208
▁वाणिज्य	-9209
▁विपक्षी	-9210
▁सलाहकार	-9211
▁सामाजिक	-9212
▁सैकड़ों	-9213
▁स्थानों	-9214
▁admitted	-9215
▁approved	-9216
▁comments	-9217
▁hundreds	-9218
▁movement	-9219
▁property	-9220
▁training	-9221
▁धोखाधड़ी	-9222
▁Massachus	-9223
▁convicted	-9224
▁customers	-9225
▁indicated	-9226
▁newspaper	-9227
▁passenger	-9228
▁दृष्टिकोण	-9229
▁प्रारंभिक	-9230
▁scientists	-9231
▁governments	-9232
CD	-9233
do	-9234
अल	-9235
रन	-9236
bur	-9237
eff	-9238
टिल	-9239
धित	-9240
नेस	-9241
पान	-9242
ब्ब	-9243
िनो	-9244
िये	-9245
▁Ac	-9246
▁dò	-9247
▁kỉ	-9248
▁मश	-9249
aren	-9250
arra	-9251
atra	-9252
even	-9253
icut	-9254
omar	-9255
oral	-9256
reck	-9257
rief	-9258
▁FDA	-9259
▁Kim	-9260
▁Slo	-9261
▁Tài	-9262
▁kém	-9263
▁lâm	-9264
▁sea	-9265
▁tắt	-9266
▁via	-9267
▁एंज	-9268
▁छाप	-9269
▁धमा	-9270
▁धार	-9271
▁लैप	-9272
▁शरण	-9273
alled	-9274
फील्ड	-9275
▁Arch	-9276
▁Work	-9277
▁blog	-9278
▁decl	-9279
▁khán	-9280
▁ngừa	-9281
▁paid	-9282
▁room	-9283
▁self	-9284
▁star	-9285
▁surf	-9286
▁आर्म	-9287
▁क्रो	-9288
▁चोरी	-9289
▁छोटी	-9290
▁डिवा	-9291
▁नवीन	-9292
▁नाटो	-9293
▁परेश	-9294
▁मछली	-9295
▁मरने	-9296
▁राहत	-9297
isions	-9298
nesota	-9299
▁2,000	-9300
▁2009.	-9301
▁Craig	-9302
▁Games	-9303
▁benef	-9304
▁phiến	-9305
▁phone	-9306
▁thing	-9307
▁tried	-9308
▁trăng	-9309
▁इस्ती	-9310
▁कक्षा	-9311
▁कम्यु	-9312
▁खाड़ी	-9313
▁टक्कर	-9314
▁रिसाव	-9315
▁शहरों	-9316
▁सीज़न	-9317
issions	-9318
▁Saddam	-9319
▁charge	-9320
▁diplom	-9321
▁ensure	-9322
▁provin	-9323
▁severe	-9324
▁winner	-9325
▁अंग्रे	-9326
▁यूटीसी	-9327
necticut	-9328
▁Earlier	-9329
▁Journal	-9330
▁Somalia	-9331
▁collaps	-9332
▁content	-9333
▁deliver	-9334
▁proceed	-9335
▁तालिबान	-9336
▁दर्शकों	-9337
▁मोहम्मद	-9338
▁Research	-9339
▁includes	-9340
▁northern	-9341
▁vehicles	-9342
▁कर्मियों	-9343
▁गोलीबारी	-9344
▁स्टेडियम	-9345
▁Minnesota	-9346
▁magnitude	-9347
▁terrorism	-9348
▁profession	-9349
▁शोधकर्ताओं	-9350
▁Connecticut	-9351
▁प्रोत्साहित	-9352
▁Pennsylvania	-9353
▁intelligence	-9354
26	-9355
OL	-9356
SC	-9357
Sh	-9358
ca	-9359
ka	-9360
yo	-9361
Đó	-9362
चि	-9363
बु	-9364
सु	-9365
ृह	-9366
awa	-9367
aze	-9368
ola	-9369
êng	-9370
वेल	-9371
ानु	-9372
िसी	-9373
ựng	-9374
▁44	-9375
▁61	-9376
▁8,	-9377
▁Dj	-9378
▁PC	-9379
▁tụ	-9380
▁xá	-9381
-200	-9382
anke	-9383
esty	-9384
ibly	-9385
onso	-9386
ores	-9387
racy	-9388
rett	-9389
ully	-9390
वादा	-9391
▁120	-9392
▁Den	-9393
▁Est	-9394
▁Gib	-9395
▁HIV	-9396
▁Job	-9397
▁Lie	-9398
▁Mur	-9399
▁Nat	-9400
▁Ott	-9401
▁Tập	-9402
▁bật	-9403
▁cle	-9404
▁gói	-9405
▁hâm	-9406
▁lic	-9407
▁lân	-9408
▁mis	-9409
▁mái	-9410
▁sal	-9411
▁उदा	-9412
▁बंध	-9413
▁मां	-9414
▁मिड	-9415
▁व्ह	-9416
▁सदन	-9417
▁सभा	-9418
adium	-9419
anted	-9420
estic	-9421
istic	-9422
lands	-9423
ville	-9424
▁Both	-9425
▁Kent	-9426
▁Kurd	-9427
▁Over	-9428
▁Rock	-9429
▁chìm	-9430
▁gián	-9431
▁jail	-9432
▁jobs	-9433
▁kind	-9434
▁opin	-9435
▁phun	-9436
▁prem	-9437
▁wear	-9438
▁आकार	-9439
▁कॉपी	-9440
▁निरी	-9441
▁महान	-9442
▁यूएन	-9443
▁विभा	-9444
▁शब्द	-9445
▁सिंग	-9446
akarta	-9447
apolis	-9448
atural	-9449
ources	-9450
पूर्वक	-9451
▁2010.	-9452
▁Famil	-9453
▁Human	-9454
▁Kyoto	-9455
▁Massa	-9456
▁Schum	-9457
▁Under	-9458
▁chuỗi	-9459
▁costs	-9460
▁gener	-9461
▁makes	-9462
▁minim	-9463
▁prime	-9464
▁कराया	-9465
▁कॉर्प	-9466
▁निंदा	-9467
▁पैराल	-9468
▁प्रथम	-9469
▁प्राय	-9470
▁विक्ट	-9471
ashvili	-9472
ireless	-9473
▁Romney	-9474
▁Square	-9475
▁voting	-9476
▁कारणों	-9477
▁पृथ्वी	-9478
▁फ्रेंच	-9479
▁Affairs	-9480
▁Society	-9481
▁arrived	-9482
▁biggest	-9483
▁bombing	-9484
▁distrib	-9485
▁flights	-9486
▁funding	-9487
▁nothing	-9488
▁student	-9489
▁weekend	-9490
▁इजरायली	-9491
▁क्रिस्ट	-9492
▁क्रेडिट	-9493
▁द्वितीय	-9494
▁वक्तव्य	-9495
▁विशिष्ट	-9496
▁सशस्त्र	-9497
▁activity	-9498
▁presence	-9499
▁products	-9500
▁reporter	-9501
▁surround	-9502
▁अनुमानित	-9503
▁समर्थकों	-9504
▁Transport	-9505
▁beginning	-9506
▁performed	-9507
▁responded	-9508
▁helicopter	-9509
▁जिम्मेदारी	-9510
▁प्रौद्योगिक	-9511
-7	-9512
33	-9513
35	-9514
MI	-9515
Tr	-9516
ih	-9517
ns	-9518
ón	-9519
चन	-9520
फर	-9521
बो	-9522
You	-9523
avi	-9524
car	-9525
kin	-9526
lig	-9527
omb	-9528
thi	-9529
uan	-9530
uay	-9531
करी	-9532
कात	-9533
केल	-9534
पात	-9535
बरा	-9536
बाद	-9537
लाइ	-9538
वहन	-9539
िकट	-9540
िफ़	-9541
ेज़	-9542
▁EC	-9543
▁Kn	-9544
▁ep	-9545
▁ly	-9546
▁tê	-9547
▁tú	-9548
▁धी	-9549
▁मज	-9550
east	-9551
erve	-9552
etts	-9553
ills	-9554
rees	-9555
west	-9556
wick	-9557
कल्प	-9558
ग्बी	-9559
फ़्त	-9560
मर्थ	-9561
रानी	-9562
ोजित	-9563
▁737	-9564
▁FBI	-9565
▁Pap	-9566
▁Sil	-9567
▁bơi	-9568
▁cấu	-9569
▁gấp	-9570
▁túi	-9571
▁असं	-9572
▁आयु	-9573
▁ओंट	-9574
▁औसत	-9575
▁डूब	-9576
▁डैन	-9577
▁फोन	-9578
▁रीड	-9579
▁लॉस	-9580
▁वैध	-9581
▁सतह	-9582
▁सिए	-9583
Trong	-9584
acter	-9585
oking	-9586
woman	-9587
द्यपि	-9588
▁1998	-9589
▁Bath	-9590
▁Cond	-9591
▁Kinh	-9592
▁doub	-9593
▁fair	-9594
▁hoại	-9595
▁miêu	-9596
▁ngươ	-9597
▁pain	-9598
▁pick	-9599
▁purp	-9600
▁spot	-9601
▁tách	-9602
▁vacc	-9603
▁đẳng	-9604
▁đựng	-9605
▁कॉले	-9606
▁क्ला	-9607
▁फायर	-9608
▁बचने	-9609
▁ब्रै	-9610
▁मंजू	-9611
▁मस्ज	-9612
▁रहता	-9613
azeera	-9614
ground	-9615
▁Croat	-9616
▁Kabul	-9617
▁Komar	-9618
▁analy	-9619
▁below	-9620
▁calls	-9621
▁enfor	-9622
▁enter	-9623
▁khoan	-9624
▁needs	-9625
▁nhuận	-9626
▁regul	-9627
▁resol	-9628
▁trừng	-9629
▁winds	-9630
▁आखिरी	-9631
▁आयोजन	-9632
▁इरादा	-9633
▁कमेटी	-9634
▁करोड़	-9635
▁छात्र	-9636
▁जोड़ा	-9637
▁पोर्ट	-9638
▁भागीद	-9639
▁स्टॉक	-9640
▁हुसैन	-9641
itation	-9642
viation	-9643
वैधानिक	-9644
▁Downer	-9645
▁Libert	-9646
▁Rights	-9647
▁Trường	-9648
▁create	-9649
▁extrem	-9650
▁rather	-9651
▁recomm	-9652
▁sexual	-9653
▁असमर्थ	-9654
▁उदाहरण	-9655
▁जहाजों	-9656
▁डिवाइस	-9657
▁तस्वीर	-9658
▁नौसेना	-9659
▁परिवहन	-9660
▁पर्यवे	-9661
▁प्रश्न	-9662
▁मानसिक	-9663
▁संशोधन	-9664
▁स्क्वा	-9665
fighters	-9666
कारात्मक	-9667
फ़्टवेयर	-9668
▁Another	-9669
▁Current	-9670
▁Stephen	-9671
▁Supreme	-9672
▁Turkish	-9673
▁complet	-9674
▁friends	-9675
▁receive	-9676
▁seconds	-9677
▁unknown	-9678
▁village	-9679
▁अवरुद्ध	-9680
▁agencies	-9681
▁allowing	-9682
▁sentence	-9683
▁separate	-9684
▁southern	-9685
▁प्रोफेसर	-9686
▁रिपोर्टर	-9687
▁attempted	-9688
▁emissions	-9689
▁establish	-9690
▁religious	-9691
▁terrorist	-9692
▁विद्यार्थ	-9693
▁Paralympic	-9694
▁commercial	-9695
▁kilometers	-9696
▁originally	-9697
▁competition	-9698
▁Commissioner	-9699
▁controversial	-9700
Sp	-9701
yd	-9702
कै	-9703
खर	-9704
डन	-9705
EFA	-9706
aby	-9707
arr	-9708
esh	-9709
iab	-9710
iri	-9711
xin	-9712
तनी	-9713
पुल	-9714
फिक	-9715
म्ब	-9716
रीय	-9717
शिक	-9718
िंस	-9719
ूदी	-9720
ोसी	-9721
▁58	-9722
▁Số	-9723
▁Từ	-9724
▁Ug	-9725
▁ác	-9726
▁घु	-9727
▁चर	-9728
▁फे	-9729
body	-9730
ends	-9731
ging	-9732
vest	-9733
मतौर	-9734
वाणी	-9735
शाला	-9736
सेंस	-9737
ान्य	-9738
ूम्र	-9739
्यार	-9740
▁Cel	-9741
▁Lew	-9742
▁Mag	-9743
▁Mem	-9744
▁Met	-9745
▁Rel	-9746
▁Ren	-9747
▁Tok	-9748
▁fle	-9749
▁har	-9750
▁khứ	-9751
▁lif	-9752
▁nát	-9753
▁não	-9754
▁rev	-9755
▁sập	-9756
▁wel	-9757
▁अंग	-9758
▁चाइ	-9759
▁जेट	-9760
▁टोर	-9761
▁भरी	-9762
▁भरो	-9763
▁मंच	-9764
▁मेट	-9765
▁रेल	-9766
▁लीड	-9767
▁सिन	-9768
▁हित	-9769
ality	-9770
apers	-9771
ctors	-9772
obile	-9773
while	-9774
कालिक	-9775
कियों	-9776
लेकिन	-9777
स्टीट	-9778
▁1964	-9779
▁Jean	-9780
▁Matt	-9781
▁Mous	-9782
▁Open	-9783
▁aged	-9784
▁chào	-9785
▁ngài	-9786
▁nhắn	-9787
▁rise	-9788
▁suit	-9789
▁sure	-9790
▁trad	-9791
▁आकर्	-9792
▁आपको	-9793
▁करनी	-9794
▁घातक	-9795
▁तलाश	-9796
▁देरी	-9797
▁माइक	-9798
▁लियो	-9799
▁ल्यू	-9800
▁शारी	-9801
▁समलै	-9802
▁सीईओ	-9803
abinet	-9804
ulated	-9805
कानूनी	-9806
ामान्य	-9807
▁Bulls	-9808
▁Diego	-9809
▁Kerry	-9810
▁Osama	-9811
▁River	-9812
▁Thiên	-9813
▁Today	-9814
▁birth	-9815
▁cerem	-9816
▁email	-9817
▁green	-9818
▁kidna	-9819
▁music	-9820
▁plant	-9821
▁rates	-9822
▁tests	-9823
▁thánh	-9824
▁worth	-9825
▁wreck	-9826
▁आग्रह	-9827
▁इनमें	-9828
▁चित्र	-9829
▁ज्ञात	-9830
▁रग्बी	-9831
▁लड़की	-9832
▁स्टीव	-9833
ूम्रपान	-9834
▁Amazon	-9835
▁Taipei	-9836
▁battle	-9837
▁helped	-9838
▁houses	-9839
▁miners	-9840
▁reform	-9841
▁riding	-9842
▁waters	-9843
▁आक्रमण	-9844
▁खतरनाक	-9845
▁डिग्री	-9846
▁पेशेवर	-9847
▁समाधान	-9848
▁Mandela	-9849
▁Verizon	-9850
▁dollars	-9851
▁organiz	-9852
▁scoring	-9853
▁sending	-9854
▁कार्यों	-9855
▁लाइसेंस	-9856
▁संरक्षण	-9857
▁स्पेनिश	-9858
▁Attorney	-9859
▁Hospital	-9860
▁chairman	-9861
▁complete	-9862
▁designed	-9863
▁original	-9864
▁restrict	-9865
▁returned	-9866
▁strength	-9867
▁अस्वीकार	-9868
▁विश्लेषण	-9869
▁contacted	-9870
▁implement	-9871
▁incidents	-9872
▁remaining	-9873
▁suspected	-9874
▁everything	-9875
▁गतिविधियों	-9876
▁प्रतिबंधित	-9877
▁भविष्यवाणी	-9878
▁व्यक्तियों	-9879
▁साइंटोलॉजी	-9880
▁Corporation	-9881
▁Massachusetts	-9882
17	-9883
NZ	-9884
SP	-9885
UP	-9886
có	-9887
úa	-9888
ĩa	-9889
कत	-9890
खे	-9891
गु	-9892
घर	-9893
ộm	-9894
akh	-9895
hav	-9896
itt	-9897
iêm	-9898
kar	-9899
sen	-9900
ंकर	-9901
उंट	-9902
जील	-9903
नेल	-9904
बेन	-9905
मेन	-9906
▁82	-9907
▁NS	-9908
▁wr	-9909
▁ép	-9910
▁कं	-9911
emic	-9912
iles	-9913
oing	-9914
rast	-9915
धारण	-9916
फिया	-9917
ॉक्स	-9918
▁1.5	-9919
▁CIA	-9920
▁Dis	-9921
▁Don	-9922
▁Fox	-9923
▁Jav	-9924
▁Jud	-9925
▁Opp	-9926
▁mom	-9927
▁mời	-9928
▁net	-9929
▁rắc	-9930
▁san	-9931
▁thụ	-9932
▁tit	-9933
▁unc	-9934
▁đón	-9935
▁इंच	-9936
▁एफ़	-9937
▁करा	-9938
▁जाह	-9939
▁टुक	-9940
▁टॉम	-9941
▁निम	-9942
▁प्ल	-9943
▁बजा	-9944
▁रंग	-9945
▁शटल	-9946
▁सूड	-9947
▁हॉल	-9948
board	-9949
inary	-9950
orial	-9951
venue	-9952
तावास	-9953
ोरिडा	-9954
▁Bern	-9955
▁Cuba	-9956
▁Dịch	-9957
▁Gary	-9958
▁Sony	-9959
▁UEFA	-9960
▁Vill	-9961
▁arms	-9962
▁burn	-9963
▁chôn	-9964
▁fast	-9965
▁pers	-9966
▁toll	-9967
▁viễn	-9968
▁vịnh	-9969
▁आसान	-9970
▁इंजन	-9971
▁गहरा	-9972
▁गांव	-9973
▁जोड़	-9974
▁देती	-9975
▁पाइप	-9976
▁फ़ुट	-9977
▁फ्लू	-9978
▁रहना	-9979
▁राजन	-9980
▁Davis	-9981
▁Myers	-9982
▁above	-9983
▁aimed	-9984
▁rescu	-9985
▁sport	-9986
▁terms	-9987
▁whole	-9988
▁worst	-9989
▁अंकों	-9990
▁इंटेल	-9991
▁केविन	-9992
▁कॉलेज	-9993
▁संबोध	-9994
▁सुनाई	-9995
▁Airbus	-9996
▁Labour	-9997
▁disapp	-9998
▁favour	-9999
▁images	-10000
▁अटलांट	-10001
▁ग्लोबल	-10002
▁टिप्पण	-10003
▁टोरंटो	-10004
▁पकड़ने	-10005
▁प्रतीत	-10006
▁प्रशंस	-10007
▁मरम्मत	-10008
▁यद्यपि	-10009
▁विडियो	-10010
▁विवादा	-10011
▁100,000	-10012
▁Atlanta	-10013
▁Croatia	-10014
▁appears	-10015
▁failure	-10016
▁figures	-10017
▁opening	-10018
▁इंस्टीट	-10019
▁इज़रायल	-10020
▁दूतावास	-10021
▁प्रसारण	-10022
▁विरुद्ध	-10023
▁Airlines	-10024
▁Olympics	-10025
▁actually	-10026
▁criminal	-10027
▁proposal	-10028
▁प्रसिद्ध	-10029
▁प्रीमियर	-10030
▁बिल्डिंग	-10031
▁यूरोपियन	-10032
▁Officials	-10033
▁evacuated	-10034
▁satellite	-10035
▁suffering	-10036
▁लैंडमार्क	-10037
▁developing	-10038
▁understand	-10039
▁विवादास्पद	-10040
▁सॉफ़्टवेयर	-10041
▁performance	-10042
▁Championship	-10043
▁प्रौद्योगिकी	-10044
19	-10045
अर	-10046
चल	-10047
दल	-10048
हे	-10049
▁*	-10050
But	-10051
hib	-10052
urb	-10053
आईए	-10054
कोप	-10055
ख्म	-10056
र्ज	-10057
ष्ण	-10058
हान	-10059
ह्न	-10060
▁41	-10061
▁65	-10062
▁99	-10063
▁:"	-10064
▁FC	-10065
▁Ke	-10066
▁RO	-10067
▁kí	-10068
▁tị	-10069
▁झट	-10070
▁रण	-10071
▁हल	-10072
ahar	-10073
ardo	-10074
arus	-10075
avez	-10076
band	-10077
ella	-10078
elly	-10079
feld	-10080
heim	-10081
rack	-10082
पंथी	-10083
सनीय	-10084
्कुल	-10085
▁101	-10086
▁194	-10087
▁Hot	-10088
▁Jay	-10089
▁Kat	-10090
▁Net	-10091
▁Tem	-10092
▁aut	-10093
▁beg	-10094
▁deg	-10095
▁hol	-10096
▁ngủ	-10097
▁quý	-10098
▁ren	-10099
▁ste	-10100
▁vắc	-10101
▁đẹp	-10102
▁đốt	-10103
▁एंट	-10104
▁काट	-10105
▁छिप	-10106
▁डेव	-10107
▁फें	-10108
▁बचा	-10109
▁भड़	-10110
▁रिश	-10111
▁शूट	-10112
▁साफ	-10113
acher	-10114
acity	-10115
aggis	-10116
aging	-10117
andhi	-10118
break	-10119
ennis	-10120
lined	-10121
oston	-10122
हत्या	-10123
ेरियन	-10124
▁1960	-10125
▁Barb	-10126
▁Blue	-10127
▁Club	-10128
▁Free	-10129
▁Lang	-10130
▁Prov	-10131
▁date	-10132
▁giàu	-10133
▁gold	-10134
▁hiếm	-10135
▁idea	-10136
▁khơi	-10137
▁slow	-10138
▁sust	-10139
▁teen	-10140
▁trộm	-10141
▁उद्ध	-10142
▁जख्म	-10143
▁तनाव	-10144
▁भेजे	-10145
▁राजद	-10146
▁लेना	-10147
▁वहीं	-10148
▁सेमी	-10149
▁सैंट	-10150
berman	-10151
enegro	-10152
ifying	-10153
ipment	-10154
irates	-10155
usalem	-10156
व्यापी	-10157
▁Abbas	-10158
▁Bongo	-10159
▁Brian	-10160
▁Earth	-10161
▁Kenya	-10162
▁Since	-10163
▁album	-10164
▁aware	-10165
▁hopes	-10166
▁quake	-10167
▁एकत्र	-10168
▁गिरने	-10169
▁पाठ्य	-10170
▁बराबर	-10171
▁बीमार	-10172
▁यहूदी	-10173
▁विकीन	-10174
▁सालों	-10175
athered	-10176
▁Alaska	-10177
▁Boston	-10178
▁Centre	-10179
▁Chavez	-10180
▁Family	-10181
▁Miller	-10182
▁applic	-10183
▁debate	-10184
▁mostly	-10185
▁prepar	-10186
▁status	-10187
▁तकनीकी	-10188
▁पुराने	-10189
▁मंजूरी	-10190
▁मेडिकल	-10191
▁सड़कों	-10192
▁समझौता	-10193
emocracy	-10194
▁Defence	-10195
▁Nigeria	-10196
▁Patrick	-10197
▁Sheehan	-10198
▁defence	-10199
▁defense	-10200
▁experts	-10201
▁ongoing	-10202
▁seeking	-10203
▁महासचिव	-10204
▁मुकाबला	-10205
▁मुलाकात	-10206
▁विचारों	-10207
riculture	-10208
▁McDonald	-10209
▁claiming	-10210
▁electric	-10211
▁rejected	-10212
▁targeted	-10213
▁ओंटारियो	-10214
▁धूम्रपान	-10215
▁परिणामों	-10216
▁Bucharest	-10217
▁equipment	-10218
▁receiving	-10219
▁फ़िलिस्ती	-10220
▁Indonesian	-10221
▁opportunity	-10222
▁researchers	-10223
▁ऑस्ट्रेलियन	-10224
▁investigating	-10225
9.	-10226
BA	-10227
ye	-10228
zb	-10229
्थ	-10230
400	-10231
ala	-10232
cas	-10233
eng	-10234
ero	-10235
ewh	-10236
ids	-10237
iro	-10238
ona	-10239
opp	-10240
owa	-10241
ंकन	-10242
ंडन	-10243
काई	-10244
जरी	-10245
लेस	-10246
ीयर	-10247
▁AE	-10248
▁IP	-10249
▁Sở	-10250
▁câ	-10251
▁lồ	-10252
▁चा	-10253
▁जॉ	-10254
▁नर	-10255
▁ấn	-10256
inux	-10257
irds	-10258
irit	-10259
ques	-10260
ream	-10261
resp	-10262
ज़ार	-10263
ूलों	-10264
▁190	-10265
▁800	-10266
▁Bal	-10267
▁Bốn	-10268
▁Dou	-10269
▁III	-10270
▁Lib	-10271
▁Mas	-10272
▁Pet	-10273
▁Thị	-10274
▁box	-10275
▁bul	-10276
▁die	-10277
▁eth	-10278
▁lẫn	-10279
▁mos	-10280
▁rác	-10281
▁अके	-10282
▁इकट	-10283
▁उठा	-10284
▁एक्	-10285
▁केन	-10286
▁खोल	-10287
▁पाई	-10288
▁मंद	-10289
▁लीक	-10290
▁विन	-10291
▁सिल	-10292
▁हिट	-10293
Nhưng	-10294
anium	-10295
bably	-10296
eline	-10297
नाल्ड	-10298
स्टिक	-10299
ेटिंग	-10300
▁"...	-10301
▁Cook	-10302
▁Cost	-10303
▁Higg	-10304
▁Jose	-10305
▁Lake	-10306
▁Miss	-10307
▁Myan	-10308
▁Thẩm	-10309
▁Tình	-10310
▁circ	-10311
▁draw	-10312
▁dính	-10313
▁file	-10314
▁phức	-10315
▁text	-10316
▁thir	-10317
▁đống	-10318
▁थॉमस	-10319
▁दिशा	-10320
▁नंबर	-10321
▁पकड़	-10322
▁पारी	-10323
▁फैला	-10324
▁बंदी	-10325
▁बतौर	-10326
▁भोजन	-10327
▁मारी	-10328
▁साझे	-10329
others	-10330
▁Civil	-10331
▁Intel	-10332
▁Lanka	-10333
▁Sever	-10334
▁bombs	-10335
▁chẳng	-10336
▁chặng	-10337
▁displ	-10338
▁fifth	-10339
▁khổng	-10340
▁owned	-10341
▁ready	-10342
▁urged	-10343
▁आमतौर	-10344
▁गुप्त	-10345
▁बढ़ती	-10346
▁भेजने	-10347
▁राजकु	-10348
▁विकेट	-10349
▁संभाल	-10350
▁सर्वो	-10351
unction	-10352
लेक्ट्र	-10353
▁cities	-10354
▁finish	-10355
▁landed	-10356
▁moving	-10357
▁owners	-10358
▁summer	-10359
▁उपग्रह	-10360
▁खरीदने	-10361
▁खुफिया	-10362
▁ग्रामी	-10363
▁नवीनतम	-10364
▁निपटने	-10365
ार्टमेंट	-10366
▁Finland	-10367
▁Myanmar	-10368
▁collect	-10369
▁freedom	-10370
▁uranium	-10371
▁version	-10372
▁गिरफ़्त	-10373
▁स्ट्रीट	-10374
फ़ोर्निया	-10375
▁attempts	-10376
▁location	-10377
▁mountain	-10378
▁suspects	-10379
▁इस्लामिक	-10380
▁कॉपीराइट	-10381
▁प्रतिद्व	-10382
▁विलियम्स	-10383
▁Hurricane	-10384
▁Jerusalem	-10385
▁dangerous	-10386
▁documents	-10387
▁personnel	-10388
▁क्वींसलैंड	-10389
▁हेलीकॉप्टर	-10390
▁Environment	-10391
▁possibility	-10392
▁क्षतिग्रस्त	-10393
▁Administration	-10394
▁representative	-10395
")	-10396
21	-10397
3.	-10398
bu	-10399
di	-10400
sa	-10401
sk	-10402
जै	-10403
थन	-10404
cri	-10405
ext	-10406
ima	-10407
ira	-10408
ook	-10409
pol	-10410
pre	-10411
sea	-10412
ट्ट	-10413
बुल	-10414
यदि	-10415
श्म	-10416
सेस	-10417
ागो	-10418
ुके	-10419
▁(9	-10420
▁4.	-10421
▁59	-10422
▁Av	-10423
▁Ox	-10424
▁Rw	-10425
▁Xã	-10426
▁ga	-10427
▁hô	-10428
▁sổ	-10429
▁नज	-10430
▁ẩn	-10431
alsh	-10432
ezza	-10433
fall	-10434
fort	-10435
ider	-10436
ilst	-10437
lies	-10438
mand	-10439
mert	-10440
onym	-10441
umar	-10442
yond	-10443
बिया	-10444
शियन	-10445
स्ती	-10446
ांकन	-10447
िल्स	-10448
▁Bry	-10449
▁Fel	-10450
▁Hal	-10451
▁Ian	-10452
▁NHL	-10453
▁Rod	-10454
▁Sab	-10455
▁Sev	-10456
▁Tàu	-10457
▁cal	-10458
▁chữ	-10459
▁exc	-10460
▁flo	-10461
▁hụt	-10462
▁ngã	-10463
▁opt	-10464
▁tỏa	-10465
▁अहम	-10466
▁आता	-10467
▁कवर	-10468
▁कैन	-10469
▁कैब	-10470
▁गृह	-10471
▁झूठ	-10472
▁डेल	-10473
▁माप	-10474
▁रॉस	-10475
▁सेट	-10476
▁हाव	-10477
ample	-10478
ancou	-10479
asion	-10480
asons	-10481
athan	-10482
burgh	-10483
ierra	-10484
views	-10485
दारों	-10486
वार्ड	-10487
हमारे	-10488
▁Bosn	-10489
▁Chan	-10490
▁Gray	-10491
▁Marc	-10492
▁Most	-10493
▁Mush	-10494
▁Prof	-10495
▁Saak	-10496
▁Sark	-10497
▁Trin	-10498
▁Vlad	-10499
▁club	-10500
▁drop	-10501
▁farm	-10502
▁hoan	-10503
▁hung	-10504
▁kept	-10505
▁meth	-10506
▁đoan	-10507
▁चिंत	-10508
▁छोटा	-10509
▁जताई	-10510
▁बढ़ो	-10511
▁बिंद	-10512
▁माफी	-10513
▁मुक़	-10514
▁मेजब	-10515
▁मॉर्	-10516
▁वस्त	-10517
ickets	-10518
imedia	-10519
orders	-10520
पश्चिम	-10521
▁5,000	-10522
▁Armen	-10523
▁Chile	-10524
▁Local	-10525
▁Steel	-10526
▁Walsh	-10527
▁Wazir	-10528
▁Yanke	-10529
▁Young	-10530
▁chồng	-10531
▁exact	-10532
▁lines	-10533
▁micro	-10534
▁story	-10535
▁value	-10536
▁volun	-10537
▁अनुमो	-10538
▁इकट्ठ	-10539
▁इवेंट	-10540
▁ईरानी	-10541
▁ताइपे	-10542
▁तीसरा	-10543
▁दावों	-10544
▁निष्प	-10545
▁भावना	-10546
▁मंदिर	-10547
aughter	-10548
ference	-10549
oleezza	-10550
ruption	-10551
▁Alonso	-10552
▁Celtic	-10553
▁Gandhi	-10554
▁Global	-10555
▁Haggis	-10556
▁Invest	-10557
▁Vancou	-10558
▁center	-10559
▁device	-10560
▁normal	-10561
▁relief	-10562
▁twenty	-10563
▁अधिकतम	-10564
▁खिलाफ़	-10565
▁चुनावी	-10566
▁निकलने	-10567
▁नियमित	-10568
▁पुस्तक	-10569
▁ब्लेयर	-10570
▁मस्जिद	-10571
▁रास्ता	-10572
▁रिचर्ड	-10573
▁Belarus	-10574
▁Ukraine	-10575
▁confirm	-10576
▁holding	-10577
▁landing	-10578
▁primary	-10579
▁systems	-10580
▁गतिविधि	-10581
▁परीक्षा	-10582
▁प्रेरित	-10583
▁फिनलैंड	-10584
▁बिल्कुल	-10585
▁विमानों	-10586
▁शारीरिक	-10587
▁संबंधों	-10588
▁स्थापना	-10589
▁Governor	-10590
▁Malaysia	-10591
▁capacity	-10592
▁captured	-10593
▁computer	-10594
▁gathered	-10595
▁promised	-10596
▁warnings	-10597
▁अंग्रेजी	-10598
▁केंद्रों	-10599
▁ग्राहकों	-10600
▁विस्फोटक	-10601
▁Alexander	-10602
▁Vancouver	-10603
▁collapsed	-10604
▁dismissed	-10605
▁standards	-10606
▁क्षेत्रीय	-10607
▁टेलीविज़न	-10608
▁Schumacher	-10609
▁Waziristan	-10610
▁attempting	-10611
▁kilometres	-10612
▁threatened	-10613
▁विशेषज्ञों	-10614
▁Condoleezza	-10615
▁Saakashvili	-10616
▁Conservative	-10617
▁Organization	-10618
60	-10619
DS	-10620
Is	-10621
OM	-10622
yg	-10623
đã	-10624
बस	-10625
म्	-10626
शे	-10627
ीर	-10628
▁/	-10629
erc	-10630
ito	-10631
loc	-10632
rig	-10633
sis	-10634
uff	-10635
vis	-10636
zen	-10637
एचओ	-10638
दिन	-10639
लोग	-10640
सीए	-10641
ॉन्	-10642
ोंग	-10643
▁(4	-10644
▁63	-10645
▁64	-10646
▁85	-10647
▁9,	-10648
▁By	-10649
▁Ha	-10650
▁Lt	-10651
▁Of	-10652
▁vé	-10653
▁vơ	-10654
▁Đị	-10655
▁एब	-10656
▁घा	-10657
▁पन	-10658
▁हद	-10659
elop	-10660
enth	-10661
iled	-10662
indu	-10663
leep	-10664
moud	-10665
stan	-10666
ulin	-10667
ब्वे	-10668
स्की	-10669
ायदा	-10670
्फ्र	-10671
्रीम	-10672
▁11,	-10673
▁Ant	-10674
▁Bas	-10675
▁Big	-10676
▁Cựu	-10677
▁Hor	-10678
▁Khu	-10679
▁MSN	-10680
▁Rub	-10681
▁Sat	-10682
▁Wat	-10683
▁ang	-10684
▁lọc	-10685
▁rủi	-10686
▁tan	-10687
▁ton	-10688
▁Đầu	-10689
▁đồn	-10690
▁आर्	-10691
▁कृत	-10692
▁कैथ	-10693
▁टिम	-10694
▁बॉल	-10695
▁भले	-10696
▁मजद	-10697
▁सुप	-10698
▁सुल	-10699
nings	-10700
ulate	-10701
▁1975	-10702
▁Anna	-10703
▁Azer	-10704
▁Coll	-10705
▁Ever	-10706
▁Fort	-10707
▁Iowa	-10708
▁Prem	-10709
▁Spec	-10710
▁bott	-10711
▁cars	-10712
▁cast	-10713
▁cult	-10714
▁exam	-10715
▁fans	-10716
▁park	-10717
▁stra	-10718
▁sạch	-10719
▁thầu	-10720
▁tước	-10721
▁tặng	-10722
▁खाते	-10723
▁जूरी	-10724
▁तथ्य	-10725
▁मैने	-10726
▁रयान	-10727
▁रैली	-10728
50,000	-10729
arters	-10730
inated	-10731
vement	-10732
जीरिया	-10733
नियादी	-10734
ार्थना	-10735
िस्ट्र	-10736
▁2003.	-10737
▁Matth	-10738
▁Techn	-10739
▁advis	-10740
▁creat	-10741
▁equal	-10742
▁khuôn	-10743
▁quite	-10744
▁shock	-10745
▁spill	-10746
▁wants	-10747
▁अपमान	-10748
▁एजेंस	-10749
▁क्रूज	-10750
▁जॉनसन	-10751
▁प्रकट	-10752
▁प्रां	-10753
▁बदलने	-10754
▁बाहरी	-10755
▁मान्य	-10756
▁मारने	-10757
▁मैदान	-10758
▁लड़के	-10759
General	-10760
र्वेटिव	-10761
▁Sloven	-10762
▁SpaceX	-10763
▁Taylor	-10764
▁Uganda	-10765
▁chuyền	-10766
▁condem	-10767
▁regime	-10768
▁secret	-10769
▁street	-10770
▁देखभाल	-10771
▁निर्भर	-10772
▁पहुंचे	-10773
▁मुख्या	-10774
▁मैककेन	-10775
▁राजदूत	-10776
▁रास्ते	-10777
▁लेबनान	-10778
igration	-10779
▁Defense	-10780
▁counter	-10781
▁measure	-10782
▁missile	-10783
▁numbers	-10784
▁society	-10785
▁trapped	-10786
▁treated	-10787
▁आपराधिक	-10788
▁गणराज्य	-10789
▁परिवर्त	-10790
▁प्रबंधक	-10791
▁महामारी	-10792
▁मार्टिन	-10793
▁विक्टोर	-10794
▁believes	-10795
▁governor	-10796
▁neighbor	-10797
▁planning	-10798
▁practice	-10799
▁standing	-10800
▁भागीदारी	-10801
▁समलैंगिक	-10802
▁concluded	-10803
▁education	-10804
▁prisoners	-10805
▁sentenced	-10806
▁worldwide	-10807
▁गिरफ्तारी	-10808
▁प्रार्थना	-10809
▁Montenegro	-10810
▁completely	-10811
▁प्रतिद्वंद	-10812
▁controversy	-10813
▁इंस्टीट्यूट	-10814
▁particularly	-10815
LP	-10816
PP	-10817
sy	-10818
अम	-10819
चक	-10820
टक	-10821
ैश	-10822
aki	-10823
iao	-10824
ipp	-10825
irk	-10826
isb	-10827
jan	-10828
met	-10829
ozy	-10830
ply	-10831
rah	-10832
weg	-10833
इली	-10834
न्व	-10835
लोड	-10836
विश	-10837
्ना	-10838
▁("	-10839
▁54	-10840
▁72	-10841
▁CD	-10842
▁Im	-10843
▁Ms	-10844
▁Ok	-10845
▁PM	-10846
▁xứ	-10847
▁ám	-10848
aret	-10849
ayer	-10850
iffs	-10851
over	-10852
pson	-10853
uses	-10854
yers	-10855
लाइट	-10856
ेंडर	-10857
ेंशन	-10858
ॉन्ट	-10859
▁1,5	-10860
▁Cop	-10861
▁Des	-10862
▁Dun	-10863
▁Gru	-10864
▁Học	-10865
▁ICE	-10866
▁Sân	-10867
▁Zel	-10868
▁bối	-10869
▁gìn	-10870
▁góc	-10871
▁nar	-10872
▁pet	-10873
▁pul	-10874
▁sym	-10875
▁unf	-10876
▁đói	-10877
▁đới	-10878
▁उपभ	-10879
▁कौन	-10880
▁खुश	-10881
▁गरी	-10882
▁जैक	-10883
▁ज्व	-10884
▁टाइ	-10885
▁टेप	-10886
▁पहा	-10887
▁बिन	-10888
▁मों	-10889
▁रॉक	-10890
▁हाफ	-10891
▁हेर	-10892
erous	-10893
iders	-10894
inger	-10895
nergy	-10896
right	-10897
rison	-10898
shine	-10899
shire	-10900
मानों	-10901
ुलेंस	-10902
ोग्रा	-10903
▁1994	-10904
▁Bark	-10905
▁Bell	-10906
▁Chel	-10907
▁Dann	-10908
▁Dave	-10909
▁Foot	-10910
▁Four	-10911
▁Hong	-10912
▁Hugh	-10913
▁Jeff	-10914
▁Part	-10915
▁Well	-10916
▁Xanh	-10917
▁born	-10918
▁chim	-10919
▁chảy	-10920
▁chụp	-10921
▁fine	-10922
▁gall	-10923
▁hứng	-10924
▁linh	-10925
▁mand	-10926
▁mist	-10927
▁rape	-10928
▁save	-10929
▁thoi	-10930
▁thuê	-10931
▁trib	-10932
▁wall	-10933
▁whom	-10934
▁xoay	-10935
▁एमएस	-10936
▁कैरो	-10937
▁क्रम	-10938
▁ट्यू	-10939
▁ट्रक	-10940
▁दलों	-10941
▁दिवस	-10942
▁पसंद	-10943
▁फिजी	-10944
▁मैरी	-10945
▁लाया	-10946
▁वेने	-10947
▁ह्यू	-10948
ighter	-10949
ointed	-10950
reston	-10951
▁Helen	-10952
▁Judge	-10953
▁Lordi	-10954
▁Saudi	-10955
▁Three	-10956
▁Tokyo	-10957
▁abuse	-10958
▁avoid	-10959
▁black	-10960
▁brief	-10961
▁defin	-10962
▁draft	-10963
▁drink	-10964
▁giảng	-10965
▁march	-10966
▁medal	-10967
▁nhũng	-10968
▁polls	-10969
▁quyển	-10970
▁remov	-10971
▁thiệp	-10972
▁trùng	-10973
▁कब्जे	-10974
▁जख्मी	-10975
▁बताने	-10976
▁भरोसा	-10977
▁राउंड	-10978
agement	-10979
mission	-10980
तिहासिक	-10981
राष्ट्र	-10982
्बाब्वे	-10983
▁Canber	-10984
▁Felipe	-10985
▁Hondur	-10986
▁Sierra	-10987
▁Summer	-10988
▁apolog	-10989
▁bridge	-10990
▁facing	-10991
▁metres	-10992
▁videos	-10993
▁ब्रायन	-10994
▁भ्रष्ट	-10995
▁शिकागो	-10996
iverpool	-10997
ollowing	-10998
▁Charles	-10999
▁Eastern	-11000
▁Edwards	-11001
▁Mahmoud	-11002
▁Muslims	-11003
▁Preston	-11004
▁Sarkozy	-11005
▁blocked	-11006
▁contest	-11007
▁drivers	-11008
▁fishing	-11009
▁mention	-11010
▁opinion	-11011
▁produce	-11012
▁written	-11013
▁आकर्षित	-11014
▁कानूनों	-11015
▁नियुक्त	-11016
▁निर्मित	-11017
▁प्रोग्र	-11018
▁ब्राजील	-11019
▁विद्युत	-11020
▁संगठनों	-11021
▁संस्थान	-11022
▁सरकारों	-11023
▁स्कूलों	-11024
▁स्पोर्ट	-11025
▁collapse	-11026
▁directly	-11027
▁intended	-11028
▁outbreak	-11029
▁probably	-11030
▁speaking	-11031
▁उत्पादों	-11032
▁मुख्यालय	-11033
▁Cambridge	-11034
▁Wikimedia	-11035
▁concerned	-11036
▁continues	-11037
▁resources	-11038
▁seriously	-11039
▁suspended	-11040
▁आत्महत्या	-11041
▁पाठ्यक्रम	-11042
▁संवाददाता	-11043
▁Revolution	-11044
▁leadership	-11045
▁terrorists	-11046
▁Paralympics	-11047
▁investigate	-11048
▁Constitution	-11049
▁परिस्थितियों	-11050
$1	-11051
'.	-11052
7.	-11053
RE	-11054
कई	-11055
दू	-11056
मस	-11057
रु	-11058
सू	-11059
िब	-11060
ोप	-11061
ौल	-11062
.5%	-11063
asg	-11064
bes	-11065
ips	-11066
olf	-11067
rav	-11068
rim	-11069
ume	-11070
ण्ड	-11071
ीदर	-11072
्ज़	-11073
▁BM	-11074
▁IA	-11075
▁aw	-11076
▁bề	-11077
▁lở	-11078
▁ox	-11079
▁đè	-11080
▁एव	-11081
▁चम	-11082
▁जज	-11083
ager	-11084
aval	-11085
chan	-11086
mann	-11087
ंधान	-11088
पत्र	-11089
बारा	-11090
ब्बी	-11091
ब्लू	-11092
रियर	-11093
सागर	-11094
हांत	-11095
हाउस	-11096
ाचार	-11097
िक्र	-11098
िनेट	-11099
ुएला	-11100
ेंसर	-11101
्हें	-11102
▁12,	-11103
▁Hon	-11104
▁Tin	-11105
▁Tre	-11106
▁Vận	-11107
▁bạc	-11108
▁chứ	-11109
▁gợi	-11110
▁hal	-11111
▁pow	-11112
▁trú	-11113
▁túy	-11114
▁đĩa	-11115
▁इंत	-11116
▁चली	-11117
▁जित	-11118
▁भवन	-11119
▁भूत	-11120
▁विध	-11121
▁वें	-11122
aksin	-11123
alyst	-11124
arily	-11125
asgow	-11126
isher	-11127
izing	-11128
light	-11129
कायदा	-11130
धिकरण	-11131
र्व्य	-11132
वर्तन	-11133
िकाओं	-11134
▁Inst	-11135
▁acts	-11136
▁anim	-11137
▁chem	-11138
▁east	-11139
▁tell	-11140
▁tort	-11141
▁weak	-11142
▁Động	-11143
▁अब्द	-11144
▁आक्र	-11145
▁आश्च	-11146
▁खड़ा	-11147
▁चौथे	-11148
▁दर्द	-11149
▁देकर	-11150
▁नीदर	-11151
▁पैके	-11152
▁पैसा	-11153
▁भरने	-11154
▁म्यू	-11155
▁सीजन	-11156
▁सौंप	-11157
▁हिंद	-11158
edonia	-11159
etroit	-11160
icians	-11161
ternal	-11162
yright	-11163
अमेरिक	-11164
चेस्टर	-11165
▁2011,	-11166
▁Ocean	-11167
▁Spain	-11168
▁cells	-11169
▁fatal	-11170
▁grand	-11171
▁princ	-11172
▁rally	-11173
▁tourn	-11174
▁trông	-11175
▁works	-11176
▁अंततः	-11177
▁कराने	-11178
▁जाहिर	-11179
▁जुड़ी	-11180
▁पॉइंट	-11181
▁बगदाद	-11182
▁ब्लैक	-11183
▁लड़ने	-11184
▁शिकार	-11185
▁सांसद	-11186
▁सीटें	-11187
▁सूडान	-11188
itarian	-11189
ression	-11190
्फ्रेंस	-11191
▁Bosnia	-11192
▁Olmert	-11193
▁Thương	-11194
▁Trưởng	-11195
▁centre	-11196
▁depart	-11197
▁deputy	-11198
▁editor	-11199
▁remove	-11200
▁submar	-11201
▁treaty	-11202
▁अभ्यास	-11203
▁चिंतित	-11204
▁तत्काल	-11205
▁पड़ोसी	-11206
▁फ़ाइनल	-11207
ologists	-11208
▁Airways	-11209
▁Detroit	-11210
▁Glasgow	-11211
▁Matthew	-11212
▁ability	-11213
▁command	-11214
▁evening	-11215
▁finding	-11216
▁natural	-11217
▁opposed	-11218
▁putting	-11219
▁records	-11220
▁showing	-11221
▁soldier	-11222
▁stopped	-11223
▁subsequ	-11224
▁wearing	-11225
▁winning	-11226
▁अमेरिकन	-11227
▁आश्चर्य	-11228
▁दुर्व्य	-11229
▁निकालने	-11230
▁स्रोतों	-11231
▁Canberra	-11232
▁ceremony	-11233
▁facility	-11234
▁partners	-11235
▁prepared	-11236
▁produced	-11237
▁spending	-11238
▁thousand	-11239
▁इलेक्ट्र	-11240
▁नीदरलैंड	-11241
▁फाउंडेशन	-11242
▁बुनियादी	-11243
▁collision	-11244
▁committed	-11245
▁completed	-11246
▁confident	-11247
▁contained	-11248
▁programme	-11249
▁reporting	-11250
▁eventually	-11251
▁explosives	-11252
▁कॉन्फ्रेंस	-11253
▁spokeswoman	-11254
▁विद्रोहियों	-11255
▁प्रतिनिधियों	-11256
▁Representatives	-11257
TE	-11258
de	-11259
मू	-11260
षक	-11261
ậc	-11262
ụi	-11263
aii	-11264
aka	-11265
iki	-11266
ils	-11267
iti	-11268
zia	-11269
ườn	-11270
ंगत	-11271
किल	-11272
ग्न	-11273
ढ़ि	-11274
तरी	-11275
बाल	-11276
मंड	-11277
यिक	-11278
र्र	-11279
ल्स	-11280
िसन	-11281
ेंग	-11282
▁2.	-11283
▁Gh	-11284
▁Mi	-11285
▁Ra	-11286
▁bê	-11287
▁lỗ	-11288
▁mã	-11289
▁टन	-11290
aped	-11291
fect	-11292
illy	-11293
ique	-11294
like	-11295
olas	-11296
oned	-11297
oses	-11298
quad	-11299
sawi	-11300
ucky	-11301
urst	-11302
क्का	-11303
त्तर	-11304
त्री	-11305
पनीय	-11306
बहुत	-11307
बाइल	-11308
रीज़	-11309
रेशन	-11310
ेडरल	-11311
▁Ari	-11312
▁Bài	-11313
▁CSI	-11314
▁Ced	-11315
▁Elm	-11316
▁Guy	-11317
▁Gần	-11318
▁Jew	-11319
▁Kah	-11320
▁Khí	-11321
▁Mug	-11322
▁Pop	-11323
▁Raj	-11324
▁Rio	-11325
▁Rập	-11326
▁Sus	-11327
▁cậy	-11328
▁cắp	-11329
▁cục	-11330
▁dội	-11331
▁emb	-11332
▁fam	-11333
▁gay	-11334
▁hum	-11335
▁ign	-11336
▁lây	-11337
▁lãi	-11338
▁lầm	-11339
▁lối	-11340
▁mix	-11341
▁mát	-11342
▁rap	-11343
▁spl	-11344
▁thê	-11345
▁đem	-11346
▁đạp	-11347
▁एकल	-11348
▁खास	-11349
▁चढ़	-11350
▁छुट	-11351
▁ज़र	-11352
▁जीन	-11353
▁पहल	-11354
▁पोप	-11355
▁शेर	-11356
ansas	-11357
arraf	-11358
elson	-11359
inals	-11360
ollah	-11361
ordan	-11362
riage	-11363
thiop	-11364
vedev	-11365
ामर्श	-11366
िम्मे	-11367
ियर्स	-11368
िस्को	-11369
ेनिया	-11370
ॉर्डन	-11371
▁1991	-11372
▁Bali	-11373
▁Bóng	-11374
▁Bệnh	-11375
▁Cùng	-11376
▁Dell	-11377
▁Gulf	-11378
▁Navy	-11379
▁Quan	-11380
▁Quản	-11381
▁Snow	-11382
▁Swed	-11383
▁Vest	-11384
▁Vịnh	-11385
▁Whit	-11386
▁cens	-11387
▁chốt	-11388
▁chục	-11389
▁cuts	-11390
▁fear	-11391
▁kiểu	-11392
▁mill	-11393
▁phúc	-11394
▁pled	-11395
▁size	-11396
▁thâm	-11397
▁tiếc	-11398
▁tĩnh	-11399
▁west	-11400
▁Được	-11401
▁Đồng	-11402
▁आपके	-11403
▁खुले	-11404
▁गलती	-11405
▁जरिए	-11406
▁जाएँ	-11407
▁जिला	-11408
▁दौरे	-11409
▁नौकर	-11410
▁पनडु	-11411
▁प्रे	-11412
▁फ़ोन	-11413
▁मेलब	-11414
▁रखता	-11415
▁लंबा	-11416
▁साइन	-11417
▁सारे	-11418
▁सोचा	-11419
▁सौदे	-11420
ements	-11421
heimer	-11422
olitan	-11423
▁Anton	-11424
▁Costa	-11425
▁Crown	-11426
▁Great	-11427
▁Hindu	-11428
▁Leone	-11429
▁Moore	-11430
▁Swiss	-11431
▁dưỡng	-11432
▁frequ	-11433
▁fully	-11434
▁hands	-11435
▁heart	-11436
▁nhánh	-11437
▁thuẫn	-11438
▁trống	-11439
▁views	-11440
▁उसमें	-11441
▁ऊंचाई	-11442
▁कैमरा	-11443
▁गर्मी	-11444
▁चलाया	-11445
▁जर्सी	-11446
▁ट्रैक	-11447
▁दीवार	-11448
▁नौकरी	-11449
▁प्रथा	-11450
▁वितरण	-11451
▁विनाश	-11452
▁सांता	-11453
▁स्क्र	-11454
▁स्वर्	-11455
aration	-11456
onymous	-11457
▁Athens	-11458
▁Energy	-11459
▁Former	-11460
▁Gruzia	-11461
▁Joseph	-11462
▁Munich	-11463
▁Nether	-11464
▁Oxford	-11465
▁Syrian	-11466
▁Truyền	-11467
▁Zelaya	-11468
▁affect	-11469
▁banned	-11470
▁breach	-11471
▁debris	-11472
▁deploy	-11473
▁insurg	-11474
▁sevent	-11475
▁strugg	-11476
▁survey	-11477
▁suspic	-11478
▁अभियोग	-11479
▁डिजाइन	-11480
▁पड़ेगा	-11481
▁प्रकोप	-11482
▁मृतकों	-11483
▁समर्थक	-11484
र्नामेंट	-11485
▁dispute	-11486
▁reasons	-11487
▁studies	-11488
▁surface	-11489
▁क्लार्क	-11490
▁परामर्श	-11491
▁फ़्रांस	-11492
ederation	-11493
▁Brampton	-11494
▁Medvedev	-11495
▁Michigan	-11496
▁Southern	-11497
▁Sunshine	-11498
▁detained	-11499
▁informed	-11500
▁multiple	-11501
▁patients	-11502
▁अनुसंधान	-11503
▁ऐतिहासिक	-11504
▁कार्यकाल	-11505
▁केंद्रीय	-11506
▁क्वार्टर	-11507
▁प्रक्षेप	-11508
▁श्रमिकों	-11509
▁Liverpool	-11510
▁Musharraf	-11511
▁hurricane	-11512
▁providing	-11513
▁प्रदर्शित	-11514
▁स्थानांतर	-11515
▁apparently	-11516
▁officially	-11517
▁tournament	-11518
▁जिम्बाब्वे	-11519
▁रिकॉर्डिंग	-11520
▁Netherlands	-11521
▁दुर्व्यवहार	-11522
▁Palestinians	-11523
▁independence	-11524
▁प्रत्यक्षदर्श	-11525
)।	-11526
Cu	-11527
FO	-11528
NG	-11529
RI	-11530
èm	-11531
ói	-11532
अब	-11533
गम	-11534
ाब	-11535
ैट	-11536
ोम	-11537
-10	-11538
700	-11539
:50	-11540
And	-11541
Khi	-11542
aur	-11543
dro	-11544
mas	-11545
pir	-11546
run	-11547
rập	-11548
uge	-11549
घात	-11550
जिन	-11551
नेट	-11552
वेज	-11553
साई	-11554
िकन	-11555
ोसॉ	-11556
▁GB	-11557
▁IE	-11558
▁OS	-11559
▁Rh	-11560
▁Vo	-11561
▁Vì	-11562
▁lí	-11563
▁nề	-11564
▁ri	-11565
▁एर	-11566
▁मस	-11567
aine	-11568
bian	-11569
eron	-11570
inct	-11571
olic	-11572
rena	-11573
rown	-11574
Đảng	-11575
ज्ञा	-11576
ब्दी	-11577
यर्स	-11578
रगाह	-11579
वरेज	-11580
वसाय	-11581
ावास	-11582
ोलॉज	-11583
▁AOL	-11584
▁Ast	-11585
▁Cầu	-11586
▁Ful	-11587
▁Gaw	-11588
▁Kal	-11589
▁Pan	-11590
▁Tri	-11591
▁bọn	-11592
▁kia	-11593
▁pan	-11594
▁row	-11595
▁tốn	-11596
▁van	-11597
▁Đối	-11598
▁अका	-11599
▁अना	-11600
▁डिफ	-11601
▁बाई	-11602
▁लाल	-11603
▁सेन	-11604
▁हाद	-11605
,000.	-11606
ademy	-11607
aries	-11608
aware	-11609
eland	-11610
force	-11611
orted	-11612
ranch	-11613
using	-11614
ंद्रह	-11615
कास्ट	-11616
ट्रिक	-11617
तालवी	-11618
ेनियम	-11619
▁1996	-11620
▁Doug	-11621
▁Erit	-11622
▁Kong	-11623
▁Mean	-11624
▁chép	-11625
▁flag	-11626
▁giận	-11627
▁onto	-11628
▁path	-11629
▁thôn	-11630
▁trúc	-11631
▁अथवा	-11632
▁अधिव	-11633
▁उपभो	-11634
▁खेला	-11635
▁जटिल	-11636
▁दुरु	-11637
▁नजदी	-11638
▁पीछा	-11639
▁बांध	-11640
▁बेटे	-11641
▁माइन	-11642
▁यहाँ	-11643
▁रखना	-11644
▁हालत	-11645
iction	-11646
isbane	-11647
verted	-11648
क्रमित	-11649
वसायिक	-11650
▁3,000	-11651
▁Heath	-11652
▁Mayor	-11653
▁Papua	-11654
▁Rugby	-11655
▁amend	-11656
▁cease	-11657
▁goals	-11658
▁langu	-11659
▁pound	-11660
▁pregn	-11661
▁sound	-11662
▁thạch	-11663
▁wheel	-11664
▁wrote	-11665
▁इंजीन	-11666
▁उठाया	-11667
▁एबीसी	-11668
▁खेलने	-11669
▁चारों	-11670
▁टैक्स	-11671
▁ट्रेड	-11672
▁डिस्क	-11673
▁बनाना	-11674
▁बेचने	-11675
▁मौतों	-11676
▁स्विस	-11677
atively	-11678
▁Ashley	-11679
▁Blount	-11680
▁Indust	-11681
▁expand	-11682
▁explod	-11683
▁headqu	-11684
▁moment	-11685
▁इतालवी	-11686
▁क्वाली	-11687
▁ग्राहक	-11688
▁ग्रैंड	-11689
▁ध्वस्त	-11690
▁पंद्रह	-11691
▁परिचाल	-11692
▁वर्णित	-11693
▁वाहनों	-11694
▁सहयोगी	-11695
▁Medical	-11696
▁minimum	-11697
▁playing	-11698
▁session	-11699
▁volunte	-11700
▁western	-11701
▁कंट्रोल	-11702
▁कैदियों	-11703
▁कैबिनेट	-11704
▁ज़िम्मे	-11705
▁महासागर	-11706
▁संबोधित	-11707
▁Brisbane	-11708
▁Carolina	-11709
▁Investig	-11710
▁attended	-11711
▁determin	-11712
▁features	-11713
▁possibly	-11714
▁transfer	-11715
▁असामान्य	-11716
▁निरीक्षण	-11717
▁निष्पक्ष	-11718
▁प्रतिष्ठ	-11719
▁Following	-11720
▁Meanwhile	-11721
▁determine	-11722
▁predicted	-11723
▁technical	-11724
▁एजेंसियों	-11725
▁संवैधानिक	-11726
▁हस्तक्षेप	-11727
▁Wellington	-11728
▁difference	-11729
▁interviews	-11730
▁protection	-11731
▁interviewed	-11732
▁आस्ट्रेलिया	-11733
▁negotiations	-11734
▁कैलिफ़ोर्निया	-11735
28	-11736
LC	-11737
be	-11738
rd	-11739
380	-11740
Our	-11741
coh	-11742
enh	-11743
idi	-11744
ikh	-11745
ses	-11746
vin	-11747
क्ल	-11748
जान	-11749
टीक	-11750
नेक	-11751
पेट	-11752
्मा	-11753
्यो	-11754
▁73	-11755
▁92	-11756
▁BP	-11757
▁HB	-11758
▁Id	-11759
▁Và	-11760
▁li	-11761
▁ră	-11762
▁उज	-11763
▁खी	-11764
▁गे	-11765
Hale	-11766
What	-11767
arch	-11768
ebec	-11769
elve	-11770
iced	-11771
lege	-11772
long	-11773
mont	-11774
osph	-11775
real	-11776
udio	-11777
urer	-11778
ख्ता	-11779
जिंग	-11780
टीना	-11781
त्ते	-11782
नामो	-11783
▁(19	-11784
▁360	-11785
▁Bir	-11786
▁Bog	-11787
▁Bon	-11788
▁Bou	-11789
▁Bru	-11790
▁Hầu	-11791
▁Kos	-11792
▁McK	-11793
▁NAS	-11794
▁Not	-11795
▁Obs	-11796
▁Six	-11797
▁ath	-11798
▁bậc	-11799
▁cas	-11800
▁dày	-11801
▁hẹn	-11802
▁hộp	-11803
▁inn	-11804
▁lắp	-11805
▁mai	-11806
▁mph	-11807
▁yên	-11808
▁Địa	-11809
▁đâu	-11810
▁जला	-11811
▁जोस	-11812
▁दली	-11813
▁फंड	-11814
▁फीस	-11815
▁बाय	-11816
▁बैं	-11817
▁भाल	-11818
▁माय	-11819
▁माह	-11820
▁रोड	-11821
▁लौट	-11822
▁वाइ	-11823
▁शर्	-11824
▁हेन	-11825
aling	-11826
havan	-11827
leman	-11828
onsin	-11829
rence	-11830
stant	-11831
under	-11832
usual	-11833
uties	-11834
verse	-11835
कृतिक	-11836
चारिक	-11837
तायात	-11838
न्द्र	-11839
मार्ग	-11840
स्करी	-11841
ावधान	-11842
▁..."	-11843
▁Bate	-11844
▁Gian	-11845
▁Road	-11846
▁Rums	-11847
▁Shin	-11848
▁Sinn	-11849
▁Stew	-11850
▁Stri	-11851
▁Thay	-11852
▁Thời	-11853
▁Town	-11854
▁acqu	-11855
▁chút	-11856
▁sens	-11857
▁unit	-11858
▁user	-11859
▁vững	-11860
▁wait	-11861
▁wish	-11862
▁अग्र	-11863
▁इतना	-11864
▁उठाए	-11865
▁उतार	-11866
▁गुना	-11867
▁ग्ला	-11868
▁चक्र	-11869
▁जस्ट	-11870
▁जानी	-11871
▁पैसे	-11872
▁मुसल	-11873
▁मेजर	-11874
▁मोटर	-11875
▁लगाई	-11876
▁लेखक	-11877
▁विकी	-11878
▁शिया	-11879
▁सटीक	-11880
Office	-11881
coming	-11882
elaide	-11883
lahoma	-11884
urning	-11885
▁2001,	-11886
▁2010,	-11887
▁Alamo	-11888
▁Cedar	-11889
▁Clara	-11890
▁Elect	-11891
▁Holly	-11892
▁Kelly	-11893
▁Lewis	-11894
▁basis	-11895
▁begun	-11896
▁cloud	-11897
▁doesn	-11898
▁exerc	-11899
▁fires	-11900
▁hương	-11901
▁initi	-11902
▁khiêu	-11903
▁names	-11904
▁shots	-11905
▁smoke	-11906
▁stood	-11907
▁surpr	-11908
▁thoái	-11909
▁wrong	-11910
▁अखबार	-11911
▁कप्ता	-11912
▁करियर	-11913
▁कार्ल	-11914
▁खबरों	-11915
▁तंत्र	-11916
▁तरीका	-11917
▁पट्टी	-11918
▁बाधित	-11919
▁बिंदु	-11920
▁मिलकर	-11921
▁मैचों	-11922
▁वर्णन	-11923
▁स्टेन	-11924
▁स्प्र	-11925
▁हवाओं	-11926
▁हालात	-11927
amilton	-11928
espread	-11929
itional	-11930
जेंटीना	-11931
वादियों	-11932
▁Deputy	-11933
▁Ethiop	-11934
▁Forbes	-11935
▁Greens	-11936
▁McHale	-11937
▁Michel	-11938
▁Quebec	-11939
▁allows	-11940
▁belong	-11941
▁beyond	-11942
▁counts	-11943
▁fallen	-11944
▁injury	-11945
▁mental	-11946
▁planet	-11947
▁promot	-11948
▁prosec	-11949
▁punish	-11950
▁surviv	-11951
▁whilst	-11952
▁अवार्ड	-11953
▁आंकड़े	-11954
▁एयरलाइ	-11955
▁कनेक्ट	-11956
▁क़ानून	-11957
▁गोपनीय	-11958
▁पोलैंड	-11959
▁बुलाया	-11960
▁मिलाकर	-11961
▁रिलीज़	-11962
▁संपादन	-11963
▁संसदीय	-11964
bassador	-11965
▁Channel	-11966
▁Several	-11967
▁Thaksin	-11968
▁Yankees	-11969
▁brother	-11970
▁example	-11971
▁experim	-11972
▁fifteen	-11973
▁initial	-11974
▁limited	-11975
▁उपकरणों	-11976
▁एंड्रयू	-11977
▁ग्रामीण	-11978
▁नामांकन	-11979
▁फ़ुटबॉल	-11980
▁बंदरगाह	-11981
▁सैंटोरम	-11982
▁Adelaide	-11983
▁Interior	-11984
▁Kentucky	-11985
▁Madhavan	-11986
▁Oklahoma	-11987
▁Rumsfeld	-11988
▁accepted	-11989
▁complain	-11990
▁register	-11991
▁resulted	-11992
▁specific	-11993
▁फ्लोरिडा	-11994
▁भूतपूर्व	-11995
▁Brazilian	-11996
▁detention	-11997
▁immediate	-11998
▁recovered	-11999
▁territory	-12000
▁गिरफ़्तार	-12001
▁पुनर्निर्	-12002
▁विश्वसनीय	-12003
▁OpenOffice	-12004
▁management	-12005
▁questioned	-12006
▁resistance	-12007
▁अर्जेंटीना	-12008
▁टूर्नामेंट	-12009
▁व्यावसायिक	-12010
▁championship	-12011
23	-12012
39	-12013
65	-12014
AC	-12015
GS	-12016
On	-12017
bn	-12018
oC	-12019
én	-12020
ंठ	-12021
अन	-12022
तो	-12023
दह	-12024
बम	-12025
For	-12026
cco	-12027
ras	-12028
ंजन	-12029
कॉम	-12030
ख्त	-12031
गाव	-12032
ग्ग	-12033
जाम	-12034
प्ल	-12035
फ़ा	-12036
बेर	-12037
मिल	-12038
शेष	-12039
ुता	-12040
▁--	-12041
▁67	-12042
▁68	-12043
▁Du	-12044
▁Vũ	-12045
▁bù	-12046
▁fr	-12047
▁ir	-12048
▁ơn	-12049
▁ढह	-12050
▁सच	-12051
Việc	-12052
emen	-12053
endo	-12054
enst	-12055
esse	-12056
icit	-12057
outi	-12058
rant	-12059
term	-12060
झाने	-12061
पींस	-12062
मंडल	-12063
रोधी	-12064
वाना	-12065
सिनी	-12066
▁(20	-12067
▁10,	-12068
▁135	-12069
▁18-	-12070
▁189	-12071
▁3-1	-12072
▁Art	-12073
▁Cao	-12074
▁Chi	-12075
▁Cla	-12076
▁Cơn	-12077
▁Lit	-12078
▁Sem	-12079
▁Thể	-12080
▁bow	-12081
▁chợ	-12082
▁cru	-12083
▁hào	-12084
▁hấp	-12085
▁kim	-12086
▁mây	-12087
▁tấm	-12088
▁tật	-12089
▁ult	-12090
▁Đào	-12091
▁कंज	-12092
▁चिल	-12093
▁दान	-12094
▁पलट	-12095
▁पिक	-12096
▁बहा	-12097
▁भरा	-12098
▁भरे	-12099
▁लहर	-12100
▁लाद	-12101
▁स्म	-12102
▁हल्	-12103
amber	-12104
asket	-12105
người	-12106
orrow	-12107
worth	-12108
िनेंट	-12109
ुकेशन	-12110
▁1970	-12111
▁1988	-12112
▁Cath	-12113
▁Emer	-12114
▁Hass	-12115
▁Hung	-12116
▁Hành	-12117
▁Jobs	-12118
▁Live	-12119
▁Rand	-12120
▁Tour	-12121
▁Trên	-12122
▁Tuần	-12123
▁Xtra	-12124
▁adop	-12125
▁audi	-12126
▁bags	-12127
▁chúa	-12128
▁dược	-12129
▁firm	-12130
▁gone	-12131
▁harm	-12132
▁hoạn	-12133
▁khói	-12134
▁khúc	-12135
▁mệnh	-12136
▁ngạc	-12137
▁semi	-12138
▁send	-12139
▁surg	-12140
▁tang	-12141
▁trươ	-12142
▁एंटी	-12143
▁कम्प	-12144
▁करार	-12145
▁खींच	-12146
▁गुजर	-12147
▁जनसं	-12148
▁डेली	-12149
▁ड्रग	-12150
▁दिये	-12151
▁धारा	-12152
▁पुनः	-12153
▁पेपर	-12154
▁बदले	-12155
▁बेटी	-12156
▁माँग	-12157
▁लुइस	-12158
▁लेते	-12159
▁शिवि	-12160
▁सारा	-12161
▁हार्	-12162
ampion	-12163
▁2009,	-12164
▁Ahmed	-12165
▁Asian	-12166
▁Irish	-12167
▁Julia	-12168
▁Serge	-12169
▁Telec	-12170
▁Thiết	-12171
▁Water	-12172
▁ambul	-12173
▁brain	-12174
▁faced	-12175
▁hoped	-12176
▁khoán	-12177
▁limit	-12178
▁seems	-12179
▁serve	-12180
▁sleep	-12181
▁speak	-12182
▁takes	-12183
▁thước	-12184
▁करीबी	-12185
▁कहानी	-12186
▁कारों	-12187
▁खोजने	-12188
▁गोल्ड	-12189
▁जिनका	-12190
▁डालने	-12191
▁निकोल	-12192
▁पृष्ठ	-12193
▁मुफ्त	-12194
▁राजने	-12195
▁रिहाई	-12196
▁रूढ़ि	-12197
▁लेफ्ट	-12198
▁समर्प	-12199
▁साइमन	-12200
▁स्टाफ	-12201
▁स्टील	-12202
ography	-12203
▁Dennis	-12204
▁Jewish	-12205
▁Korean	-12206
▁Nature	-12207
▁Poland	-12208
▁active	-12209
▁advice	-12210
▁argued	-12211
▁church	-12212
▁devast	-12213
▁dollar	-12214
▁escape	-12215
▁figure	-12216
▁nhượng	-12217
▁secure	-12218
▁आयुक्त	-12219
▁इंतजार	-12220
▁एडवर्ड	-12221
▁कलाकार	-12222
▁ड्राइव	-12223
▁तस्करी	-12224
▁फ़रवरी	-12225
▁फ्रैंक	-12226
▁मानवीय	-12227
▁मिस्टर	-12228
▁संबंधी	-12229
▁संस्था	-12230
▁सर्जरी	-12231
▁हालिया	-12232
▁Alberta	-12233
▁Salmond	-12234
▁changed	-12235
▁follows	-12236
▁license	-12237
▁science	-12238
▁आपातकाल	-12239
▁एजुकेशन	-12240
▁निर्वास	-12241
▁पहुँचने	-12242
▁यातायात	-12243
▁योग्यता	-12244
▁संयंत्र	-12245
itzerland	-12246
▁Honduras	-12247
▁Slovenia	-12248
▁becoming	-12249
▁daughter	-12250
▁remained	-12251
▁replaced	-12252
▁standard	-12253
▁औद्योगिक	-12254
▁दस्तावेज	-12255
▁मेक्सिको	-12256
▁राजकुमार	-12257
▁संक्रमित	-12258
▁साझेदारी	-12259
▁स्क्वायर	-12260
▁Americans	-12261
▁Robertson	-12262
▁challenge	-12263
▁character	-12264
▁copyright	-12265
▁explained	-12266
▁requested	-12267
▁violation	-12268
▁एसोसिएटेड	-12269
▁प्राधिकरण	-12270
▁माइक्रोसॉ	-12271
▁वाणिज्यिक	-12272
▁संदिग्धों	-12273
▁Opposition	-12274
▁university	-12275
▁भ्रष्टाचार	-12276
▁Libertarian	-12277
▁डिपार्टमेंट	-12278
▁headquarters	-12279
16	-12280
99	-12281
An	-12282
lu	-12283
ni	-12284
zi	-12285
आत	-12286
गण	-12287
मद	-12288
हस	-12289
ूँ	-12290
adi	-12291
cca	-12292
lav	-12293
lie	-12294
mun	-12295
ogy	-12296
आउट	-12297
क्ज	-12298
चरण	-12299
जाल	-12300
टों	-12301
डेन	-12302
तीत	-12303
फोन	-12304
बिन	-12305
बिल	-12306
वेद	-12307
ष्क	-12308
सीय	-12309
हेल	-12310
िज़	-12311
ोला	-12312
्रल	-12313
▁$3	-12314
▁$5	-12315
▁(8	-12316
▁Bỉ	-12317
▁Ow	-12318
▁Sg	-12319
▁Wi	-12320
▁bơ	-12321
▁Đo	-12322
▁Đó	-12323
▁छठ	-12324
▁भौ	-12325
alez	-12326
bone	-12327
cked	-12328
furt	-12329
inej	-12330
ipal	-12331
lace	-12332
pper	-12333
rina	-12334
room	-12335
इयों	-12336
ग्रा	-12337
ज़ील	-12338
धनों	-12339
माही	-12340
विजन	-12341
ाराज	-12342
िएशन	-12343
िविल	-12344
▁160	-12345
▁170	-12346
▁2-1	-12347
▁450	-12348
▁900	-12349
▁AFP	-12350
▁Alz	-12351
▁GDP	-12352
▁Gal	-12353
▁HTC	-12354
▁Kil	-12355
▁Lam	-12356
▁Lat	-12357
▁Lyn	-12358
▁Lời	-12359
▁Now	-12360
▁hij	-12361
▁kèm	-12362
▁lay	-12363
▁lãm	-12364
▁lọt	-12365
▁rãi	-12366
▁toa	-12367
▁tun	-12368
▁एल्	-12369
▁कुर	-12370
▁खनन	-12371
▁गठन	-12372
▁गीत	-12373
▁गुण	-12374
▁गों	-12375
▁चिं	-12376
▁जमा	-12377
▁डाइ	-12378
▁दाय	-12379
▁दुख	-12380
▁बचे	-12381
▁साव	-12382
▁सिक	-12383
▁हाइ	-12384
Người	-12385
adesh	-12386
bassy	-12387
embly	-12388
ender	-12389
enson	-12390
icket	-12391
itors	-12392
कर्मी	-12393
पुल्स	-12394
ल्पना	-12395
िलेरी	-12396
ुल्ला	-12397
▁(200	-12398
▁1984	-12399
▁1993	-12400
▁2013	-12401
▁Alan	-12402
▁Cách	-12403
▁Djib	-12404
▁Eric	-12405
▁Ford	-12406
▁Giul	-12407
▁Glen	-12408
▁Gore	-12409
▁Holl	-12410
▁Java	-12411
▁Leon	-12412
▁Mann	-12413
▁Nine	-12414
▁Show	-12415
▁Sáng	-12416
▁Trib	-12417
▁Wall	-12418
▁Year	-12419
▁củng	-12420
▁feat	-12421
▁giục	-12422
▁hang	-12423
▁moon	-12424
▁seat	-12425
▁swim	-12426
▁taxi	-12427
▁trip	-12428
▁true	-12429
▁vinh	-12430
▁आर्ट	-12431
▁केबल	-12432
▁कैने	-12433
▁दरवा	-12434
▁नाइट	-12435
▁परिस	-12436
▁पेंट	-12437
▁फंसे	-12438
▁बिता	-12439
▁भालू	-12440
▁मनोर	-12441
▁राइट	-12442
▁शराब	-12443
▁सीएन	-12444
▁स्टे	-12445
▁हुईं	-12446
ildren	-12447
racted	-12448
ration	-12449
reater	-12450
rowing	-12451
ंत्रिक	-12452
ध्यक्ष	-12453
स्थापक	-12454
▁Batey	-12455
▁Color	-12456
▁Gabon	-12457
▁Gmail	-12458
▁Harry	-12459
▁Maria	-12460
▁Milan	-12461
▁Phóng	-12462
▁Schul	-12463
▁alone	-12464
▁flash	-12465
▁labor	-12466
▁oppon	-12467
▁radar	-12468
▁raise	-12469
▁route	-12470
▁scale	-12471
▁ships	-12472
▁words	-12473
▁xương	-12474
▁अंतर्	-12475
▁कामया	-12476
▁कितना	-12477
▁ग्रेट	-12478
▁चाहती	-12479
▁जुड़ा	-12480
▁निम्न	-12481
▁पेरिस	-12482
▁बॉर्ड	-12483
▁लौटने	-12484
▁सीटों	-12485
▁स्टोर	-12486
▁हमारा	-12487
oration	-12488
▁Barker	-12489
▁Donald	-12490
▁Garuda	-12491
▁Hawaii	-12492
▁Mugabe	-12493
▁Rwanda	-12494
▁Vestas	-12495
▁adding	-12496
▁bomber	-12497
▁casual	-12498
▁fellow	-12499
▁marked	-12500
▁nghênh	-12501
▁pulled	-12502
▁simply	-12503
▁tempor	-12504
▁vessel	-12505
▁अभियोज	-12506
▁उद्धृत	-12507
▁ट्विटर	-12508
▁दूसरों	-12509
▁निराशा	-12510
▁पब्लिक	-12511
▁ब्यूरो	-12512
▁मुद्दा	-12513
▁वकीलों	-12514
▁संरचना	-12515
▁स्थायी	-12516
elopment	-12517
iversary	-12518
▁Armenia	-12519
▁Chelsea	-12520
▁Indiana	-12521
▁Premier	-12522
▁Schaper	-12523
▁Special	-12524
▁Stewart	-12525
▁Trident	-12526
▁conclus	-12527
▁granted	-12528
▁partner	-12529
▁reduced	-12530
▁richter	-12531
▁streets	-12532
▁visited	-12533
▁अभियोजन	-12534
▁आंकड़ों	-12535
▁इंटेलिज	-12536
▁क्रिश्च	-12537
▁चिंताओं	-12538
▁बढ़ोतरी	-12539
▁माइक्रो	-12540
▁मैक्केन	-12541
▁साक्ष्य	-12542
▁सुप्रीम	-12543
formation	-12544
▁Abdullah	-12545
▁Gonzales	-12546
▁Gonzalez	-12547
▁Maryland	-12548
▁Montreal	-12549
▁Regional	-12550
▁Thompson	-12551
▁bringing	-12552
▁civilian	-12553
▁division	-12554
▁domestic	-12555
▁everyone	-12556
▁exchange	-12557
▁numerous	-12558
▁अग्निशमन	-12559
▁जनसंख्या	-12560
▁प्रावधान	-12561
▁ब्राज़ील	-12562
▁शिक्षकों	-12563
▁सर्वोच्च	-12564
राष्ट्रपति	-12565
▁Alzheimer	-12566
▁Professor	-12567
▁Yesterday	-12568
▁ministers	-12569
▁मैनचेस्टर	-12570
▁सप्ताहांत	-12571
▁assistance	-12572
▁businesses	-12573
▁connection	-12574
▁continuing	-12575
▁widespread	-12576
▁कार्यकर्ता	-12577
▁declaration	-12578
▁distribution	-12579
▁firefighters	-12580
▁professional	-12581
AI	-12582
CS	-12583
SS	-12584
St	-12585
sẽ	-12586
िच	-12587
्श	-12588
▁#	-12589
▁,	-12590
ady	-12591
aps	-12592
ati	-12593
box	-12594
cho	-12595
cle	-12596
eed	-12597
eme	-12598
her	-12599
icy	-12600
ken	-12601
las	-12602
law	-12603
ori	-12604
yle	-12605
ंटर	-12606
ंसक	-12607
टॉप	-12608
डेट	-12609
पलट	-12610
फार	-12611
मेट	-12612
म्स	-12613
ल्फ	-12614
ायक	-12615
ुरा	-12616
्जर	-12617
▁Ca	-12618
▁Da	-12619
▁Hu	-12620
▁NY	-12621
▁bè	-12622
▁bò	-12623
▁hã	-12624
▁lẻ	-12625
▁mê	-12626
▁pm	-12627
▁ut	-12628
▁đế	-12629
▁एट	-12630
▁नॉ	-12631
▁लू	-12632
▁सन	-12633
Thật	-12634
ardi	-12635
ayne	-12636
ican	-12637
inst	-12638
kins	-12639
ovic	-12640
rend	-12641
sset	-12642
पयोग	-12643
वाहक	-12644
श्री	-12645
ापुर	-12646
िकेट	-12647
ेल्स	-12648
्योर	-12649
▁18,	-12650
▁70%	-12651
▁BST	-12652
▁Blo	-12653
▁Bow	-12654
▁CBS	-12655
▁Dom	-12656
▁Dut	-12657
▁Exp	-12658
▁Fil	-12659
▁IDF	-12660
▁McL	-12661
▁NSW	-12662
▁Thu	-12663
▁Tib	-12664
▁Tob	-12665
▁UNI	-12666
▁bốc	-12667
▁hưu	-12668
▁quê	-12669
▁sắt	-12670
▁thô	-12671
▁uns	-12672
▁ver	-12673
▁vua	-12674
▁điê	-12675
▁कों	-12676
▁कोय	-12677
▁कोर	-12678
▁गुर	-12679
▁घाव	-12680
▁दें	-12681
▁निच	-12682
▁पहन	-12683
▁फ़ी	-12684
▁फाइ	-12685
▁बिग	-12686
▁बैग	-12687
▁मले	-12688
▁मास	-12689
▁लिन	-12690
▁लेन	-12691
▁विय	-12692
▁हेड	-12693
fully	-12694
inghi	-12695
mouth	-12696
ously	-12697
where	-12698
बोर्ड	-12699
मुदाय	-12700
िंग्स	-12701
्यवाद	-12702
▁6:00	-12703
▁Bình	-12704
▁Care	-12705
▁Chen	-12706
▁FARC	-12707
▁Fein	-12708
▁Hồng	-12709
▁Jane	-12710
▁Lind	-12711
▁McCl	-12712
▁Pope	-12713
▁Prix	-12714
▁Quận	-12715
▁Shal	-12716
▁Winn	-12717
▁Wisc	-12718
▁baby	-12719
▁batt	-12720
▁corn	-12721
▁cycl	-12722
▁cứng	-12723
▁grad	-12724
▁niềm	-12725
▁note	-12726
▁page	-12727
▁prec	-12728
▁tháo	-12729
▁tool	-12730
▁trầm	-12731
▁type	-12732
▁tảng	-12733
▁vice	-12734
▁zone	-12735
▁एथली	-12736
▁कमरे	-12737
▁गर्भ	-12738
▁गोला	-12739
▁टेक्	-12740
▁नज़र	-12741
▁पड़ी	-12742
▁फीफा	-12743
▁बजाए	-12744
▁बहाल	-12745
▁बाधा	-12746
▁बुरी	-12747
▁मानक	-12748
▁मोर्	-12749
▁शवों	-12750
▁स्की	-12751
ailand	-12752
inejad	-12753
onnell	-12754
oughly	-12755
िवार्य	-12756
्होंने	-12757
▁2012.	-12758
▁Brook	-12759
▁Eurov	-12760
▁Jason	-12761
▁Osset	-12762
▁Phong	-12763
▁Sport	-12764
▁Tướng	-12765
▁alcoh	-12766
▁clean	-12767
▁doubt	-12768
▁drugs	-12769
▁floor	-12770
▁khuẩn	-12771
▁mayor	-12772
▁orbit	-12773
▁overt	-12774
▁sales	-12775
▁sides	-12776
▁sixth	-12777
▁split	-12778
▁thang	-12779
▁tough	-12780
▁अकेले	-12781
▁एजेंट	-12782
▁चीजों	-12783
▁तीसरी	-12784
▁नौसैन	-12785
▁न्यून	-12786
▁फ़ाइल	-12787
▁फ़्री	-12788
▁बोलने	-12789
▁मित्र	-12790
▁मिश्र	-12791
▁लियोन	-12792
▁लेंगे	-12793
▁सेंसर	-12794
▁सॉफ्ट	-12795
▁स्विट	-12796
ructure	-12797
▁20,000	-12798
▁40,000	-12799
▁Clarke	-12800
▁Fulham	-12801
▁Graham	-12802
▁Leader	-12803
▁Nguyên	-12804
▁blamed	-12805
▁citing	-12806
▁corpor	-12807
▁couldn	-12808
▁double	-12809
▁except	-12810
▁formed	-12811
▁histor	-12812
▁meters	-12813
▁mining	-12814
▁runway	-12815
▁sector	-12816
▁unless	-12817
▁अनुरूप	-12818
▁इकट्ठा	-12819
▁कप्तान	-12820
▁निरंतर	-12821
▁प्राइम	-12822
▁ब्रांड	-12823
▁लिबर्ट	-12824
▁शर्तों	-12825
gressive	-12826
▁Academy	-12827
▁Alinghi	-12828
▁Bahrain	-12829
▁Brother	-12830
▁Cameron	-12831
▁Eritrea	-12832
▁achieve	-12833
▁advised	-12834
▁affairs	-12835
▁captain	-12836
▁consult	-12837
▁convers	-12838
▁covered	-12839
▁decades	-12840
▁doctors	-12841
▁explain	-12842
▁factors	-12843
▁founded	-12844
▁greater	-12845
▁insulin	-12846
▁justice	-12847
▁monitor	-12848
▁offices	-12849
▁organis	-12850
▁overall	-12851
▁setting	-12852
▁shuttle	-12853
▁talking	-12854
▁unusual	-12855
▁wickets	-12856
▁अल्बर्ट	-12857
▁आक्रामक	-12858
▁कारावास	-12859
▁परिचालन	-12860
▁पीपुल्स	-12861
▁प्रशंसा	-12862
▁महिलाएं	-12863
▁राजनीति	-12864
▁स्ट्राइ	-12865
▁Djibouti	-12866
▁Ethiopia	-12867
▁Georgian	-12868
▁bombings	-12869
▁chemical	-12870
▁coverage	-12871
▁employee	-12872
▁exploded	-12873
▁imprison	-12874
▁indicate	-12875
▁purchase	-12876
▁teachers	-12877
▁अनिवार्य	-12878
▁इंजीनियर	-12879
▁डिस्कवरी	-12880
▁लोकतंत्र	-12881
▁Wisconsin	-12882
▁peacekeep	-12883
▁positions	-12884
▁practices	-12885
▁recording	-12886
▁survivors	-12887
▁therefore	-12888
▁witnesses	-12889
▁नाइजीरिया	-12890
▁विस्फोटों	-12891
▁शक्तिशाली	-12892
▁Conference	-12893
▁Eurovision	-12894
▁corruption	-12895
▁criticized	-12896
▁क्रिश्चियन	-12897
▁पर्यावरणीय	-12898
▁Switzerland	-12899
▁advertising	-12900
▁इंडोनेशियाई	-12901
▁प्रतिबद्धता	-12902
▁Organisation	-12903
▁temperatures	-12904
▁organizations	-12905
▁प्रतिद्वंद्वी	-12906
▁communications	-12907
▁representatives	-12908
7%	-12909
:3	-12910
ED	-12911
ER	-12912
Le	-12913
ja	-12914
आज	-12915
जु	-12916
।”	-12917
-16	-12918
Ass	-12919
FTA	-12920
WHO	-12921
auc	-12922
chi	-12923
dam	-12924
eus	-12925
hai	-12926
kel	-12927
kok	-12928
ods	-12929
oni	-12930
rag	-12931
reh	-12932
ski	-12933
vez	-12934
ưỡi	-12935
एसए	-12936
गाल	-12937
गोल	-12938
ढ़ी	-12939
तिन	-12940
नाइ	-12941
पूल	-12942
बंद	-12943
भार	-12944
वात	-12945
ष्म	-12946
हाई	-12947
ियत	-12948
िरा	-12949
िशन	-12950
ीयू	-12951
्टा	-12952
।"।	-12953
▁78	-12954
▁AU	-12955
▁DC	-12956
▁GN	-12957
▁Ja	-12958
▁Ku	-12959
▁Kể	-12960
▁Ts	-12961
▁Ut	-12962
▁Uy	-12963
▁dỡ	-12964
▁mơ	-12965
▁rổ	-12966
▁vê	-12967
▁xỉ	-12968
▁ऑल	-12969
▁दम	-12970
adus	-12971
aked	-12972
aver	-12973
awah	-12974
ello	-12975
held	-12976
idad	-12977
illa	-12978
iter	-12979
khaz	-12980
lose	-12981
oked	-12982
ouri	-12983
rary	-12984
rete	-12985
stra	-12986
ydon	-12987
ंदगी	-12988
किसी	-12989
क्रा	-12990
धारी	-12991
राकी	-12992
स्कर	-12993
ाल्ड	-12994
िबंध	-12995
ेल्ड	-12996
्टिक	-12997
्यून	-12998
▁1-0	-12999
▁350	-13000
▁Ark	-13001
▁Arm	-13002
▁Che	-13003
▁Cậu	-13004
▁Ele	-13005
▁Fal	-13006
▁Fre	-13007
▁HBO	-13008
▁Hạt	-13009
▁Ing	-13010
▁Lar	-13011
▁Lav	-13012
▁Mot	-13013
▁Mục	-13014
▁Qar	-13015
▁STS	-13016
▁arr	-13017
▁bớt	-13018
▁cạn	-13019
▁cẩn	-13020
▁cặp	-13021
▁giế	-13022
▁hãm	-13023
▁hãy	-13024
▁hỗn	-13025
▁kịp	-13026
▁leo	-13027
▁làn	-13028
▁mâu	-13029
▁sàn	-13030
▁súc	-13031
▁sốc	-13032
▁tóc	-13033
▁und	-13034
▁upd	-13035
▁viê	-13036
▁đèn	-13037
▁đồi	-13038
▁अली	-13039
▁उपन	-13040
▁उपा	-13041
▁ऑर्	-13042
▁काह	-13043
▁किल	-13044
▁चरम	-13045
▁पाप	-13046
▁बीस	-13047
▁बुख	-13048
▁रखी	-13049
▁वही	-13050
▁वीं	-13051
▁वुड	-13052
▁वैल	-13053
▁शाव	-13054
▁सका	-13055
agers	-13056
anced	-13057
arity	-13058
eless	-13059
ellan	-13060
idane	-13061
iring	-13062
olved	-13063
owell	-13064
state	-13065
tered	-13066
ड़िया	-13067
तालों	-13068
रक्षा	-13069
संख्य	-13070
ाप्ति	-13071
ियमित	-13072
्यारह	-13073
▁1000	-13074
▁5000	-13075
▁Auck	-13076
▁Edin	-13077
▁Fall	-13078
▁Hezb	-13079
▁Khan	-13080
▁Luận	-13081
▁Oreg	-13082
▁Prin	-13083
▁Rico	-13084
▁Rome	-13085
▁That	-13086
▁bánh	-13087
▁diox	-13088
▁heat	-13089
▁kiệm	-13090
▁liền	-13091
▁pict	-13092
▁wide	-13093
▁điển	-13094
▁आखिर	-13095
▁ईमेल	-13096
▁एम्ब	-13097
▁खंडन	-13098
▁खिड़	-13099
▁ग्ले	-13100
▁घंटा	-13101
▁पहने	-13102
▁पावर	-13103
▁पैनल	-13104
▁फिली	-13105
▁बताई	-13106
▁बारह	-13107
▁मेरा	-13108
▁रनवे	-13109
▁राइस	-13110
▁लाइव	-13111
▁वाटर	-13112
▁शर्म	-13113
▁सफाई	-13114
▁सागर	-13115
▁सिंह	-13116
ewhere	-13117
illing	-13118
पचारिक	-13119
ानुमान	-13120
िबंधीय	-13121
▁Ahmad	-13122
▁Allen	-13123
▁Bethe	-13124
▁Bryan	-13125
▁CSIRO	-13126
▁Front	-13127
▁Henry	-13128
▁Jacob	-13129
▁Jones	-13130
▁Point	-13131
▁Roger	-13132
▁Susan	-13133
▁Terry	-13134
▁Voice	-13135
▁airpl	-13136
▁alert	-13137
▁deleg	-13138
▁deton	-13139
▁legit	-13140
▁pursu	-13141
▁robot	-13142
▁somet	-13143
▁spons	-13144
▁surge	-13145
▁vương	-13146
▁अलगाव	-13147
▁आयरिश	-13148
▁एक्सच	-13149
▁कर्नल	-13150
▁कवरेज	-13151
▁गाड़ी	-13152
▁डायरे	-13153
▁तैनात	-13154
▁दृश्य	-13155
▁दोहरा	-13156
▁धारणा	-13157
▁पुतिन	-13158
▁प्रदू	-13159
▁फिलिप	-13160
▁बेरोज	-13161
▁बोइंग	-13162
▁माउंट	-13163
▁यूक्र	-13164
▁लादेन	-13165
▁सिविल	-13166
▁सोमाल	-13167
▁हवाले	-13168
▁हाथों	-13169
awahiri	-13170
celadus	-13171
ruction	-13172
ंतानामो	-13173
स्थापित	-13174
▁50,000	-13175
▁Abkhaz	-13176
▁Chuyến	-13177
▁Herald	-13178
▁Hughes	-13179
▁Jordan	-13180
▁Kazemi	-13181
▁Netany	-13182
▁Somali	-13183
▁Vladim	-13184
▁Warren	-13185
▁acting	-13186
▁assess	-13187
▁bottom	-13188
▁forest	-13189
▁gained	-13190
▁highly	-13191
▁larger	-13192
▁mosque	-13193
▁nature	-13194
▁paying	-13195
▁places	-13196
▁कीमतें	-13197
▁गोंजाल	-13198
▁तोड़ने	-13199
▁दोबारा	-13200
▁बढ़ाया	-13201
▁मामूली	-13202
▁रिश्ते	-13203
▁शूटिंग	-13204
▁साइन्ट	-13205
▁स्थलों	-13206
▁स्वरूप	-13207
▁हिलेरी	-13208
ervation	-13209
ifically	-13210
tainment	-13211
कर्मियों	-13212
▁500,000	-13213
▁Alexand	-13214
▁Bangkok	-13215
▁Croydon	-13216
▁Elmwood	-13217
▁Everton	-13218
▁Jazeera	-13219
▁Langham	-13220
▁Renault	-13221
▁Station	-13222
▁analyst	-13223
▁benefit	-13224
▁delayed	-13225
▁devices	-13226
▁falling	-13227
▁feature	-13228
▁growing	-13229
▁largely	-13230
▁privacy	-13231
▁purpose	-13232
▁reflect	-13233
▁regular	-13234
▁replace	-13235
▁surgery	-13236
▁torture	-13237
▁unclear	-13238
▁usually	-13239
▁vaccine	-13240
▁writing	-13241
▁संस्कार	-13242
▁सूत्रों	-13243
lications	-13244
▁Auckland	-13245
▁Colorado	-13246
▁Hamilton	-13247
▁Jonathan	-13248
▁Province	-13249
▁Thailand	-13250
▁Trinidad	-13251
▁firework	-13252
▁physical	-13253
▁politics	-13254
▁reaching	-13255
▁regional	-13256
▁supposed	-13257
▁websites	-13258
▁अधिवक्ता	-13259
▁पहुंचाने	-13260
▁विद्रोही	-13261
▁Caledonia	-13262
▁Edinburgh	-13263
▁Emergency	-13264
▁Hezbollah	-13265
▁Hollywood	-13266
▁authority	-13267
▁commander	-13268
▁decisions	-13269
▁influence	-13270
▁initially	-13271
▁locations	-13272
▁neighbour	-13273
▁resulting	-13274
▁प्रक्षेपण	-13275
▁प्रशंसकों	-13276
▁प्लास्टिक	-13277
▁सहयोगियों	-13278
rastructure	-13279
▁Television	-13280
▁commitment	-13281
▁criticised	-13282
▁explosions	-13283
▁photograph	-13284
▁supporting	-13285
▁अपेक्षाकृत	-13286
▁टिप्पणियों	-13287
▁दस्तावेजों	-13288
▁विक्टोरिया	-13289
▁anniversary	-13290
▁involvement	-13291
▁surrounding	-13292
▁कार्यक्रमों	-13293
▁जांचकर्ताओं	-13294
▁ट्रांसपोर्ट	-13295
▁संवाददाताओं	-13296
▁humanitarian	-13297
.”	-13298
/0	-13299
6)	-13300
:"	-13301
:1	-13302
BM	-13303
UN	-13304
và	-13305
ùi	-13306
ùm	-13307
ũi	-13308
ईस	-13309
टू	-13310
दय	-13311
ुन	-13312
ेत	-13313
can	-13314
ibb	-13315
ros	-13316
ऊदी	-13317
एयर	-13318
कित	-13319
खों	-13320
डोर	-13321
बुक	-13322
र्घ	-13323
सेट	-13324
ागर	-13325
ेगा	-13326
्से	-13327
▁5.	-13328
▁74	-13329
▁76	-13330
▁Gb	-13331
▁Hệ	-13332
▁Ki	-13333
▁Ri	-13334
▁bá	-13335
▁rẻ	-13336
▁अश	-13337
.500	-13338
Cuộc	-13339
cher	-13340
cker	-13341
conn	-13342
eman	-13343
ests	-13344
iệng	-13345
mate	-13346
prof	-13347
ंडार	-13348
कर्स	-13349
गरेट	-13350
जैसे	-13351
डीपी	-13352
ध्या	-13353
बीआई	-13354
मेरा	-13355
वर्ष	-13356
शायर	-13357
साइड	-13358
ीकरण	-13359
ेस्ट	-13360
ोरेट	-13361
▁14,	-13362
▁3-0	-13363
▁50%	-13364
▁Der	-13365
▁Emp	-13366
▁Leh	-13367
▁Lin	-13368
▁MPs	-13369
▁Moz	-13370
▁Reb	-13371
▁Tên	-13372
▁Vin	-13373
▁biê	-13374
▁dập	-13375
▁hor	-13376
▁hoá	-13377
▁jet	-13378
▁lặp	-13379
▁org	-13380
▁pip	-13381
▁psy	-13382
▁sel	-13383
▁sụt	-13384
▁sữa	-13385
▁tom	-13386
▁túc	-13387
▁tặc	-13388
▁अले	-13389
▁इंस	-13390
▁केप	-13391
▁कॉक	-13392
▁गार	-13393
▁घाय	-13394
▁चूक	-13395
▁तभी	-13396
▁पशु	-13397
▁बफ़	-13398
▁बोर	-13399
▁मैट	-13400
▁मॉड	-13401
▁यही	-13402
▁रॉय	-13403
▁सां	-13404
grade	-13405
mosph	-13406
nesty	-13407
orage	-13408
riate	-13409
ureau	-13410
ंपरिक	-13411
द्धां	-13412
धुनिक	-13413
निस्ट	-13414
फ्तों	-13415
भाग्य	-13416
वत्ता	-13417
स्केट	-13418
ृत्ति	-13419
्यूशन	-13420
▁Bash	-13421
▁Belg	-13422
▁Coal	-13423
▁Crit	-13424
▁Cũng	-13425
▁Ngay	-13426
▁Stat	-13427
▁Stra	-13428
▁Xbox	-13429
▁bail	-13430
▁boys	-13431
▁easy	-13432
▁fled	-13433
▁lose	-13434
▁muse	-13435
▁ngựa	-13436
▁porn	-13437
▁rail	-13438
▁rank	-13439
▁subs	-13440
▁thôi	-13441
▁trưa	-13442
▁uses	-13443
▁Điển	-13444
▁अनेक	-13445
▁ईस्ट	-13446
▁उग्र	-13447
▁ऑक्स	-13448
▁कहती	-13449
▁कारो	-13450
▁केंट	-13451
▁गायब	-13452
▁ग्वा	-13453
▁जनमत	-13454
▁जब्त	-13455
▁जाकर	-13456
▁ट्रे	-13457
▁तारी	-13458
▁देखे	-13459
▁देगी	-13460
▁निपट	-13461
▁पार्	-13462
▁फ़्ल	-13463
▁बैरल	-13464
▁ब्या	-13465
▁ब्लू	-13466
▁मंदी	-13467
▁राजा	-13468
▁लीडर	-13469
▁व्ही	-13470
▁सऊदी	-13471
▁समेत	-13472
▁हैती	-13473
encing	-13474
idents	-13475
usband	-13476
ंत्रित	-13477
स्ट्रा	-13478
ोजेक्ट	-13479
▁2.000	-13480
▁Alban	-13481
▁Greek	-13482
▁Guine	-13483
▁Linux	-13484
▁Quyết	-13485
▁Quảng	-13486
▁Shank	-13487
▁Trang	-13488
▁aband	-13489
▁absol	-13490
▁blaze	-13491
▁blood	-13492
▁camer	-13493
▁chuột	-13494
▁cloth	-13495
▁crack	-13496
▁decre	-13497
▁drive	-13498
▁fears	-13499
▁girls	-13500
▁giếng	-13501
▁happy	-13502
▁maxim	-13503
▁metal	-13504
▁miệng	-13505
▁solar	-13506
▁squad	-13507
▁अभिने	-13508
▁आतंकी	-13509
▁आरोपी	-13510
▁उजागर	-13511
▁एल्बम	-13512
▁गहराई	-13513
▁चिह्न	-13514
▁टेस्ट	-13515
▁थोड़ा	-13516
▁दिग्ग	-13517
▁दुकान	-13518
▁देखना	-13519
▁नॉर्व	-13520
▁पड़ता	-13521
▁पुर्त	-13522
▁फर्ना	-13523
▁फांसी	-13524
▁फ्रंट	-13525
▁बढ़ते	-13526
▁बरामद	-13527
ategory	-13528
respond	-13529
ख्तापलट	-13530
धारियों	-13531
वेदनशील	-13532
▁Border	-13533
▁Bureau	-13534
▁Forest	-13535
▁Gawker	-13536
▁Hunter	-13537
▁Oregon	-13538
▁Schwar	-13539
▁Sports	-13540
▁Zidane	-13541
▁asking	-13542
▁couple	-13543
▁earned	-13544
▁eleven	-13545
▁examin	-13546
▁inches	-13547
▁looked	-13548
▁losing	-13549
▁pilots	-13550
▁plaint	-13551
▁rebels	-13552
▁repair	-13553
▁twelve	-13554
▁अनुचित	-13555
▁इजराइल	-13556
▁उपायों	-13557
▁एलेक्स	-13558
▁कुत्ते	-13559
▁कैसिनी	-13560
▁ग्यारह	-13561
▁घायलों	-13562
▁डिप्टी	-13563
▁दिखाने	-13564
▁दिल्ली	-13565
▁निष्का	-13566
▁परेशान	-13567
▁पुरानी	-13568
▁फ़िल्म	-13569
▁बफ़ेलो	-13570
▁मिलेगी	-13571
▁राजस्व	-13572
▁शब्दों	-13573
▁शीर्षक	-13574
▁संकल्प	-13575
▁संपादक	-13576
▁हफ्तों	-13577
itnesses	-13578
▁College	-13579
▁Islands	-13580
▁Mohamed	-13581
▁awarded	-13582
▁carrier	-13583
▁charity	-13584
▁correct	-13585
▁custody	-13586
▁express	-13587
▁illness	-13588
▁operate	-13589
▁pirates	-13590
▁sitting	-13591
▁threats	-13592
▁willing	-13593
▁अस्थायी	-13594
▁ग्रीन्स	-13595
▁ग्रीष्म	-13596
▁न्यूनतम	-13597
▁प्रत्या	-13598
▁बास्केट	-13599
▁मार्केट	-13600
▁राजनयिक	-13601
▁समर्थित	-13602
▁सांसदों	-13603
▁Abkhazia	-13604
▁analysis	-13605
▁combined	-13606
▁controll	-13607
▁fighters	-13608
▁forecast	-13609
▁invasion	-13610
▁militant	-13611
▁obtained	-13612
▁referred	-13613
▁suggests	-13614
▁इंडियाना	-13615
▁गुणवत्ता	-13616
▁संसाधनों	-13617
▁सम्मानित	-13618
▁सूचीबद्ध	-13619
▁Frankfurt	-13620
▁Louisiana	-13621
▁McClellan	-13622
▁Shankbone	-13623
▁Territory	-13624
▁addressed	-13625
▁detainees	-13626
▁effective	-13627
▁estimates	-13628
▁hospitals	-13629
▁procedure	-13630
▁professor	-13631
▁returning	-13632
▁जॉर्जियाई	-13633
▁ड्राइविंग	-13634
▁प्रोजेक्ट	-13635
▁विरोधियों	-13636
▁सॉफ्टवेयर	-13637
▁appearance	-13638
▁discussion	-13639
▁industrial	-13640
▁investment	-13641
▁statements	-13642
▁suspension	-13643
▁withdrawal	-13644
▁डब्ल्यूएचओ	-13645
▁हिस्सेदारी	-13646
▁Australians	-13647
▁Development	-13648
▁Republicans	-13649
▁electricity	-13650
▁participate	-13651
▁पूर्वानुमान	-13652
▁फ्रांसिस्को	-13653
▁स्थानांतरित	-13654
▁Presidential	-13655
$5	-13656
Al	-13657
DC	-13658
EA	-13659
GA	-13660
Và	-13661
Vì	-13662
dy	-13663
pm	-13664
uz	-13665
फन	-13666
ोफ	-13667
UTC	-13668
aco	-13669
ahu	-13670
cos	-13671
cot	-13672
giờ	-13673
ika	-13674
imb	-13675
isf	-13676
lan	-13677
oca	-13678
odd	-13679
olk	-13680
pat	-13681
sex	-13682
unk	-13683
कुछ	-13684
कोई	-13685
जिश	-13686
जिस	-13687
दरी	-13688
दाई	-13689
प्स	-13690
ोगु	-13691
ोवा	-13692
्नी	-13693
▁(£	-13694
▁2:	-13695
▁BA	-13696
▁Bồ	-13697
▁ED	-13698
▁IC	-13699
▁Vô	-13700
▁गू	-13701
▁घृ	-13702
▁छत	-13703
▁झु	-13704
▁पौ	-13705
▁लव	-13706
▁शौ	-13707
adel	-13708
agen	-13709
aith	-13710
amat	-13711
anth	-13712
argo	-13713
awar	-13714
ched	-13715
empt	-13716
enny	-13717
frey	-13718
gary	-13719
hips	-13720
iden	-13721
indy	-13722
iner	-13723
marn	-13724
ocol	-13725
outs	-13726
rash	-13727
ugal	-13728
week	-13729
एचएल	-13730
गांठ	-13731
प्ति	-13732
मानत	-13733
र्या	-13734
लांग	-13735
सम्म	-13736
सामा	-13737
ांचे	-13738
ृत्त	-13739
ेन्ट	-13740
ैनिक	-13741
▁21,	-13742
▁Abe	-13743
▁Ars	-13744
▁EST	-13745
▁Fab	-13746
▁Faw	-13747
▁Hud	-13748
▁Jun	-13749
▁Mig	-13750
▁Môi	-13751
▁NBA	-13752
▁Rah	-13753
▁Ron	-13754
▁Rất	-13755
▁Spr	-13756
▁Sub	-13757
▁Toy	-13758
▁cột	-13759
▁lei	-13760
▁tóm	-13761
▁đai	-13762
▁आनु	-13763
▁इन्	-13764
▁एलन	-13765
▁खान	-13766
▁चीज	-13767
▁जेस	-13768
▁तुम	-13769
▁नही	-13770
▁बॉब	-13771
▁भेद	-13772
▁रिज	-13773
▁वैन	-13774
▁सरा	-13775
▁सीख	-13776
▁हता	-13777
Space	-13778
aguay	-13779
agues	-13780
arant	-13781
atoil	-13782
azley	-13783
garia	-13784
going	-13785
iacom	-13786
ierre	-13787
inate	-13788
itage	-13789
ledge	-13790
oslav	-13791
ronic	-13792
ग्रेड	-13793
प्रेस	-13794
फाइनल	-13795
राबरी	-13796
वर्ती	-13797
वाधिक	-13798
ुक्ति	-13799
▁"200	-13800
▁Also	-13801
▁Biên	-13802
▁Corp	-13803
▁Dall	-13804
▁Expl	-13805
▁Farm	-13806
▁Fitz	-13807
▁Fred	-13808
▁From	-13809
▁Greg	-13810
▁Juan	-13811
▁Mail	-13812
▁Omar	-13813
▁Only	-13814
▁Pesh	-13815
▁TVNZ	-13816
▁Yogy	-13817
▁cháu	-13818
▁defe	-13819
▁fees	-13820
▁fish	-13821
▁judg	-13822
▁khỏa	-13823
▁lang	-13824
▁lạnh	-13825
▁mach	-13826
▁marg	-13827
▁mạch	-13828
▁nghề	-13829
▁push	-13830
▁roll	-13831
▁tiêm	-13832
▁trôi	-13833
▁vườn	-13834
▁Điện	-13835
▁ương	-13836
▁अतीत	-13837
▁आवंट	-13838
▁एक्ट	-13839
▁करवा	-13840
▁कारक	-13841
▁कॉमन	-13842
▁क्ले	-13843
▁खेले	-13844
▁चौदह	-13845
▁ड्यू	-13846
▁तूफ़	-13847
▁दलील	-13848
▁दृढ़	-13849
▁दोगु	-13850
▁निया	-13851
▁पैदल	-13852
▁रोका	-13853
▁शिखर	-13854
▁सोलह	-13855
atform	-13856
employ	-13857
estone	-13858
istant	-13859
istics	-13860
जीनिया	-13861
फ़ील्ड	-13862
▁1991.	-13863
▁Alger	-13864
▁Bruce	-13865
▁Hotel	-13866
▁Mount	-13867
▁Palin	-13868
▁Sarah	-13869
▁Straw	-13870
▁antic	-13871
▁effic	-13872
▁holds	-13873
▁meant	-13874
▁range	-13875
▁roads	-13876
▁rural	-13877
▁touch	-13878
▁trigg	-13879
▁कट्टर	-13880
▁क्रमश	-13881
▁ग्रीस	-13882
▁चाइना	-13883
▁चेहरे	-13884
▁जरूरी	-13885
▁टैंकर	-13886
▁दशकों	-13887
▁नैतिक	-13888
▁फायदा	-13889
▁बेल्ज	-13890
▁बॉक्स	-13891
▁ब्याज	-13892
▁ब्लॉग	-13893
▁मिलता	-13894
▁मौतें	-13895
▁वापिस	-13896
▁विवाह	-13897
▁शिविर	-13898
▁सिएटल	-13899
▁हादसे	-13900
marnock	-13901
स्तित्व	-13902
▁Before	-13903
▁Common	-13904
▁Falcon	-13905
▁Guinea	-13906
▁Morgan	-13907
▁Online	-13908
▁Qarase	-13909
▁Rooney	-13910
▁Twenty	-13911
▁actual	-13912
▁combat	-13913
▁expert	-13914
▁gather	-13915
▁gunmen	-13916
▁headed	-13917
▁joined	-13918
▁leaves	-13919
▁listed	-13920
▁overse	-13921
▁powers	-13922
▁safely	-13923
▁settle	-13924
▁sought	-13925
▁sports	-13926
▁struct	-13927
▁teleph	-13928
▁temple	-13929
▁अत्यंत	-13930
▁अधिकृत	-13931
▁कैरियर	-13932
▁तिमाही	-13933
▁पेटेंट	-13934
▁बराबरी	-13935
▁मोबाइल	-13936
▁रखेंगे	-13937
▁रणनीति	-13938
▁रिसर्च	-13939
▁व्यस्त	-13940
▁सेवाएं	-13941
तांत्रिक	-13942
▁Beazley	-13943
▁Berwick	-13944
▁Calgary	-13945
▁Higgins	-13946
▁alcohol	-13947
▁clearly	-13948
▁fighter	-13949
▁finally	-13950
▁heading	-13951
▁interim	-13952
▁plastic	-13953
▁polling	-13954
▁promote	-13955
▁quality	-13956
▁recover	-13957
▁selling	-13958
▁vessels	-13959
▁violent	-13960
▁इमारतों	-13961
▁गंभीरता	-13962
▁गिलार्ड	-13963
▁मनोरंजन	-13964
▁मलेशिया	-13965
▁मान्यता	-13966
▁मेजबानी	-13967
▁विस्तृत	-13968
▁संपूर्ण	-13969
asketball	-13970
ropolitan	-13971
▁Assembly	-13972
▁Aviation	-13973
▁Bulgaria	-13974
▁Football	-13975
▁Margaret	-13976
▁Peshawar	-13977
▁Services	-13978
▁Vladimir	-13979
▁entering	-13980
▁missiles	-13981
▁positive	-13982
▁reaction	-13983
▁requests	-13984
▁एयरलाइंस	-13985
▁डॉक्टरों	-13986
▁तख्तापलट	-13987
▁दुरुपयोग	-13988
▁पारंपरिक	-13989
▁फिलीपींस	-13990
▁संस्थापक	-13991
▁सिद्धांत	-13992
▁हमलावरों	-13993
▁Canadians	-13994
▁Christmas	-13995
▁Currently	-13996
▁anonymous	-13997
▁attending	-13998
▁discovery	-13999
▁mentioned	-14000
▁provinces	-14001
▁पार्टियों	-14002
▁प्राकृतिक	-14003
▁मुसलमानों	-14004
▁राष्ट्रों	-14005
▁रूढ़िवादी	-14006
▁वर्जीनिया	-14007
▁Kilmarnock	-14008
▁Yogyakarta	-14009
▁associated	-14010
▁casualties	-14011
▁relatively	-14012
▁scientific	-14013
▁इलेक्ट्रॉन	-14014
▁प्रदर्शनों	-14015
▁विकीन्यूज़	-14016
▁Ahmadinejad	-14017
▁Authorities	-14018
▁considering	-14019
▁destruction	-14020
▁enforcement	-14021
▁politicians	-14022
▁prosecution	-14023
▁पर्यवेक्षकों	-14024
▁विद्यार्थियों	-14025
63	-14026
EU	-14027
FC	-14028
Go	-14029
SK	-14030
So	-14031
ga	-14032
pa	-14033
ía	-14034
ईट	-14035
दु	-14036
रद	-14037
शय	-14038
ESA	-14039
bai	-14040
equ	-14041
etn	-14042
ien	-14043
ogs	-14044
ora	-14045
एगा	-14046
किट	-14047
जेल	-14048
दित	-14049
फिल	-14050
बेक	-14051
बोट	-14052
रात	-14053
वीय	-14054
श्न	-14055
साम	-14056
हुड	-14057
ामु	-14058
िसल	-14059
ुआन	-14060
ोइस	-14061
्रु	-14062
ỡng	-14063
▁."	-14064
▁0,	-14065
▁Ev	-14066
▁Up	-14067
▁dị	-14068
▁ey	-14069
▁kg	-14070
▁sy	-14071
▁uy	-14072
▁vâ	-14073
▁xả	-14074
▁đâ	-14075
▁इश	-14076
▁ओह	-14077
▁धु	-14078
▁रज	-14079
▁शू	-14080
bank	-14081
eces	-14082
ipeg	-14083
ircu	-14084
lets	-14085
oles	-14086
oren	-14087
owed	-14088
road	-14089
thor	-14090
wich	-14091
चानक	-14092
जनों	-14093
निंग	-14094
बूती	-14095
मेरे	-14096
र्जी	-14097
ॉन्ग	-14098
्याग	-14099
▁110	-14100
▁163	-14101
▁172	-14102
▁240	-14103
▁Bão	-14104
▁EDT	-14105
▁FIA	-14106
▁Far	-14107
▁Fis	-14108
▁GNU	-14109
▁Giá	-14110
▁Giờ	-14111
▁Hom	-14112
▁Lev	-14113
▁Out	-14114
▁Ped	-14115
▁ROV	-14116
▁Sky	-14117
▁Thư	-14118
▁Tối	-14119
▁Ven	-14120
▁bơm	-14121
▁cán	-14122
▁cúp	-14123
▁dig	-14124
▁gãy	-14125
▁hòn	-14126
▁hẹp	-14127
▁hối	-14128
▁lậu	-14129
▁pha	-14130
▁săn	-14131
▁tam	-14132
▁tia	-14133
▁आधा	-14134
▁आधी	-14135
▁एना	-14136
▁कंस	-14137
▁काल	-14138
▁कोड	-14139
▁घुस	-14140
▁घूम	-14141
▁जूझ	-14142
▁ठिक	-14143
▁द्र	-14144
▁पति	-14145
▁फुल	-14146
▁मधु	-14147
▁मरी	-14148
▁मोर	-14149
▁यूर	-14150
▁वान	-14151
▁शेल	-14152
▁संभ	-14153
Chính	-14154
These	-14155
ables	-14156
akers	-14157
chúng	-14158
cknow	-14159
erves	-14160
inhua	-14161
istol	-14162
ocial	-14163
rical	-14164
ंदीदा	-14165
एशिया	-14166
क्षीय	-14167
द्वीप	-14168
वित्र	-14169
ष्कार	-14170
▁1500	-14171
▁1965	-14172
▁1982	-14173
▁2020	-14174
▁Best	-14175
▁Cuối	-14176
▁Fair	-14177
▁Form	-14178
▁Home	-14179
▁Jama	-14180
▁Kông	-14181
▁Nông	-14182
▁Salv	-14183
▁arch	-14184
▁canc	-14185
▁cười	-14186
▁giàn	-14187
▁huge	-14188
▁hùng	-14189
▁jump	-14190
▁liều	-14191
▁mort	-14192
▁neut	-14193
▁ring	-14194
▁sail	-14195
▁sell	-14196
▁tụng	-14197
▁đoạt	-14198
▁अंडर	-14199
▁अनुप	-14200
▁इलिन	-14201
▁एस्ट	-14202
▁कहने	-14203
▁कांस	-14204
▁जंगल	-14205
▁टायर	-14206
▁डिवी	-14207
▁नियो	-14208
▁पर्व	-14209
▁मतों	-14210
▁रहती	-14211
▁रहें	-14212
▁लापर	-14213
▁लिंक	-14214
▁लैंग	-14215
▁स्लो	-14216
▁हजार	-14217
▁हाइड	-14218
▁हैंड	-14219
Americ	-14220
ective	-14221
veland	-14222
टेलाइट	-14223
नेस्टी	-14224
विरोधी	-14225
्यांकन	-14226
▁12:00	-14227
▁2002,	-14228
▁2002.	-14229
▁Board	-14230
▁Forum	-14231
▁Medic	-14232
▁Tibet	-14233
▁basic	-14234
▁bears	-14235
▁cable	-14236
▁cited	-14237
▁crews	-14238
▁cưỡng	-14239
▁faces	-14240
▁forum	-14241
▁funds	-14242
▁hoang	-14243
▁newly	-14244
▁notes	-14245
▁risks	-14246
▁river	-14247
▁steps	-14248
▁waste	-14249
▁Đường	-14250
▁अंजाम	-14251
▁आसानी	-14252
▁इशारा	-14253
▁उतरने	-14254
▁कितनी	-14255
▁किताब	-14256
▁टीमें	-14257
▁डेविस	-14258
▁तारीख	-14259
▁दीर्घ	-14260
▁नाराज	-14261
▁पकड़े	-14262
▁पड़ोस	-14263
▁परिभा	-14264
▁पैकेज	-14265
▁भंडार	-14266
▁भड़का	-14267
▁मजदूर	-14268
▁मारकर	-14269
▁लगाते	-14270
▁सवारी	-14271
▁साजिश	-14272
▁हार्ड	-14273
▁होल्ड	-14274
related	-14275
sewhere	-14276
मुदायिक	-14277
▁Bayern	-14278
▁Carlos	-14279
▁Edward	-14280
▁Execut	-14281
▁Harper	-14282
▁Philip	-14283
▁Planet	-14284
▁Steven	-14285
▁Valley	-14286
▁Xinhua	-14287
▁broken	-14288
▁convoy	-14289
▁decide	-14290
▁easily	-14291
▁ending	-14292
▁excess	-14293
▁famous	-14294
▁feared	-14295
▁flying	-14296
▁fought	-14297
▁happen	-14298
▁hijack	-14299
▁judges	-14300
▁league	-14301
▁mechan	-14302
▁narrow	-14303
▁plants	-14304
▁prompt	-14305
▁spirit	-14306
▁square	-14307
▁strain	-14308
▁tested	-14309
▁testim	-14310
▁walked	-14311
▁winter	-14312
▁अकादमी	-14313
▁अफ़गान	-14314
▁इस्लाम	-14315
▁उत्साह	-14316
▁केन्या	-14317
▁कैनेडी	-14318
▁जाएँगे	-14319
▁जाएंगी	-14320
▁तूफ़ान	-14321
▁प्रिंट	-14322
▁विभाजन	-14323
▁सुश्री	-14324
▁स्वर्ण	-14325
elligent	-14326
उन्होंने	-14327
ोलॉजिस्ट	-14328
▁Laurent	-14329
▁McLaren	-14330
▁Nicolas	-14331
▁Richter	-14332
▁Stadium	-14333
▁Watford	-14334
▁amongst	-14335
▁anticip	-14336
▁cabinet	-14337
▁chances	-14338
▁constit	-14339
▁degrees	-14340
▁eastern	-14341
▁extreme	-14342
▁helping	-14343
▁imposed	-14344
▁markets	-14345
▁matches	-14346
▁meaning	-14347
▁reading	-14348
▁smoking	-14349
▁warming	-14350
▁इलिनोइस	-14351
▁इस्तीफा	-14352
▁कोशिशों	-14353
▁ग्राउंड	-14354
▁थाईलैंड	-14355
▁न्यायिक	-14356
▁पसंदीदा	-14357
▁बंदियों	-14358
▁मुकाबले	-14359
▁संक्रमण	-14360
▁सीरियाई	-14361
▁accounts	-14362
▁articles	-14363
▁creation	-14364
▁detainee	-14365
▁findings	-14366
▁identity	-14367
▁marriage	-14368
▁millions	-14369
▁occupied	-14370
▁pipeline	-14371
▁solution	-14372
▁survived	-14373
▁unemploy	-14374
▁wreckage	-14375
▁अपेक्षित	-14376
▁ऑपरेटिंग	-14377
▁गोपनीयता	-14378
▁नियुक्ति	-14379
▁पदार्थों	-14380
▁पहुंचाया	-14381
▁बेल्जियम	-14382
▁वर्षगांठ	-14383
▁व्याख्या	-14384
▁सर्वाधिक	-14385
▁सिंगापुर	-14386
▁Authority	-14387
▁Cleveland	-14388
▁Enceladus	-14389
▁Operation	-14390
▁activists	-14391
▁democracy	-14392
▁fireworks	-14393
▁intention	-14394
▁interests	-14395
▁involving	-14396
▁prevented	-14397
▁recommend	-14398
▁sustained	-14399
▁गैरकानूनी	-14400
▁ड्राइवरों	-14401
▁नकारात्मक	-14402
▁परीक्षणों	-14403
▁मंत्रियों	-14404
▁विज्ञप्ति	-14405
▁सामुदायिक	-14406
▁सेमीफाइनल	-14407
▁confidence	-14408
▁determined	-14409
▁diplomatic	-14410
▁nationwide	-14411
▁travelling	-14412
▁कंजर्वेटिव	-14413
▁प्रयोगशाला	-14414
▁transported	-14415
▁investigated	-14416
▁representing	-14417
▁कार्यकर्ताओं	-14418
▁पुनर्निर्माण	-14419
.'	-14420
2)	-14421
42	-14422
FF	-14423
LA	-14424
LM	-14425
My	-14426
Sự	-14427
hy	-14428
oF	-14429
ंथ	-14430
दक	-14431
पह	-14432
पै	-14433
.25	-14434
DAQ	-14435
She	-14436
TSB	-14437
Tất	-14438
atu	-14439
bar	-14440
ems	-14441
eva	-14442
iaz	-14443
pin	-14444
ram	-14445
rất	-14446
rắc	-14447
ser	-14448
set	-14449
uct	-14450
ugg	-14451
uls	-14452
uri	-14453
ंबा	-14454
ईसी	-14455
कीन	-14456
ज़े	-14457
दोष	-14458
बॉन	-14459
माग	-14460
राए	-14461
रित	-14462
संच	-14463
संत	-14464
सेव	-14465
ावी	-14466
िगन	-14467
ूढ़	-14468
्कन	-14469
▁$6	-14470
▁7-	-14471
▁95	-14472
▁FO	-14473
▁Fe	-14474
▁PA	-14475
▁PS	-14476
▁SA	-14477
▁VI	-14478
▁dã	-14479
▁lề	-14480
▁vẽ	-14481
▁उल	-14482
▁कब	-14483
▁छः	-14484
▁छव	-14485
Neil	-14486
When	-14487
aley	-14488
avre	-14489
cont	-14490
ffin	-14491
foot	-14492
ihad	-14493
loyd	-14494
mers	-14495
more	-14496
nold	-14497
orer	-14498
osex	-14499
phia	-14500
zona	-14501
क्या	-14502
गणना	-14503
चलित	-14504
जीवन	-14505
टकों	-14506
टाउन	-14507
पीसी	-14508
भारी	-14509
भूमि	-14510
लंका	-14511
वर्ट	-14512
विले	-14513
ासदी	-14514
ूंकि	-14515
ैतिक	-14516
्राय	-14517
▁(12	-14518
▁140	-14519
▁20%	-14520
▁20,	-14521
▁25,	-14522
▁40%	-14523
▁75%	-14524
▁777	-14525
▁95%	-14526
▁Add	-14527
▁Bod	-14528
▁Chữ	-14529
▁Câu	-14530
▁Cúp	-14531
▁Dam	-14532
▁Div	-14533
▁Dub	-14534
▁Fat	-14535
▁Hop	-14536
▁Nob	-14537
▁OPP	-14538
▁Rac	-14539
▁Raf	-14540
▁Sor	-14541
▁Spc	-14542
▁Zag	-14543
▁ant	-14544
▁arm	-14545
▁bụi	-14546
▁chư	-14547
▁chẽ	-14548
▁ded	-14549
▁dàn	-14550
▁fal	-14551
▁gác	-14552
▁leu	-14553
▁lộn	-14554
▁món	-14555
▁rập	-14556
▁scr	-14557
▁unn	-14558
▁ven	-14559
▁आइस	-14560
▁क्य	-14561
▁गेट	-14562
▁जूल	-14563
▁नगर	-14564
▁फंस	-14565
▁बहि	-14566
▁भंग	-14567
▁मनु	-14568
▁मुख	-14569
▁मौस	-14570
▁याच	-14571
▁रिव	-14572
▁लेक	-14573
▁वां	-14574
▁सिम	-14575
▁सॉल	-14576
▁स्त	-14577
Assad	-14578
abeth	-14579
anton	-14580
arden	-14581
arked	-14582
ayers	-14583
azine	-14584
endum	-14585
incol	-14586
inery	-14587
ishop	-14588
itary	-14589
ldogs	-14590
raeus	-14591
thony	-14592
trong	-14593
ubble	-14594
ublin	-14595
ullah	-14596
usion	-14597
utely	-14598
तावरण	-14599
तिष्क	-14600
द्दाम	-14601
पोलिस	-14602
वानिव	-14603
ष्णकट	-14604
साइटी	-14605
स्कृत	-14606
▁1992	-14607
▁Bart	-14608
▁Dick	-14609
▁Finn	-14610
▁Fund	-14611
▁Hoạt	-14612
▁Ivan	-14613
▁Kurn	-14614
▁Maur	-14615
▁Mold	-14616
▁Peru	-14617
▁Trái	-14618
▁Utah	-14619
▁Việt	-14620
▁Week	-14621
▁Wolf	-14622
▁cert	-14623
▁châm	-14624
▁chúc	-14625
▁dial	-14626
▁dinh	-14627
▁dogs	-14628
▁goes	-14629
▁hurt	-14630
▁khấu	-14631
▁knew	-14632
▁mile	-14633
▁muộn	-14634
▁nhạy	-14635
▁nhảy	-14636
▁nhậm	-14637
▁none	-14638
▁phổi	-14639
▁plot	-14640
▁prin	-14641
▁prol	-14642
▁rung	-14643
▁rưỡi	-14644
▁soạn	-14645
▁wins	-14646
▁đằng	-14647
▁अगली	-14648
▁अनुश	-14649
▁आचरण	-14650
▁इतने	-14651
▁ईसाई	-14652
▁उदार	-14653
▁कठोर	-14654
▁कार्	-14655
▁कुशल	-14656
▁केरी	-14657
▁कैदी	-14658
▁कोलो	-14659
▁गुरू	-14660
▁गूगल	-14661
▁ग्रा	-14662
▁झटका	-14663
▁तबाह	-14664
▁बंधक	-14665
▁बोली	-14666
▁ब्ला	-14667
▁मशीन	-14668
▁मैनु	-14669
▁रनों	-14670
▁राइड	-14671
▁रुचि	-14672
▁लिखे	-14673
▁लेता	-14674
▁विंड	-14675
▁विषा	-14676
▁सोशल	-14677
angers	-14678
baijan	-14679
egraph	-14680
enzell	-14681
itamin	-14682
ladesh	-14683
strong	-14684
स्ट्री	-14685
▁2011.	-14686
▁4,000	-14687
▁8,000	-14688
▁Danny	-14689
▁Dover	-14690
▁Dutch	-14691
▁Enter	-14692
▁Favre	-14693
▁Gibbs	-14694
▁Goody	-14695
▁Malik	-14696
▁Nader	-14697
▁Robin	-14698
▁Saint	-14699
▁Stock	-14700
▁Those	-14701
▁admin	-14702
▁advoc	-14703
▁dealt	-14704
▁delay	-14705
▁demol	-14706
▁depth	-14707
▁flown	-14708
▁giant	-14709
▁judic	-14710
▁oblig	-14711
▁ocean	-14712
▁pitch	-14713
▁rugby	-14714
▁spect	-14715
▁store	-14716
▁table	-14717
▁thiêu	-14718
▁twice	-14719
▁एडमिन	-14720
▁टेक्न	-14721
▁दवाओं	-14722
▁नामित	-14723
▁पकड़ा	-14724
▁पादरी	-14725
▁बच्चा	-14726
▁बाध्य	-14727
▁बोलते	-14728
▁ब्रेक	-14729
▁मल्टी	-14730
▁मोंटे	-14731
▁यातना	-14732
▁रवाना	-14733
▁रिलीज	-14734
▁लिखित	-14735
▁वोटों	-14736
▁स्टेज	-14737
▁हिंसक	-14738
imately	-14739
osexual	-14740
viously	-14741
▁10.000	-14742
▁Arnold	-14743
▁Dallas	-14744
▁Fawkes	-14745
▁Godwin	-14746
▁Hudson	-14747
▁Lincol	-14748
▁Marine	-14749
▁Market	-14750
▁Moussa	-14751
▁NASDAQ	-14752
▁Ottawa	-14753
▁Polish	-14754
▁Rogers	-14755
▁Sergei	-14756
▁Thrash	-14757
▁Viacom	-14758
▁Wilson	-14759
▁acknow	-14760
▁answer	-14761
▁approp	-14762
▁chosen	-14763
▁courts	-14764
▁curren	-14765
▁length	-14766
▁linked	-14767
▁motion	-14768
▁notice	-14769
▁orders	-14770
▁planes	-14771
▁pushed	-14772
▁reject	-14773
▁seemed	-14774
▁shares	-14775
▁singer	-14776
▁toward	-14777
▁एविएशन	-14778
▁एशियाई	-14779
▁खनिकों	-14780
▁छोड़कर	-14781
▁डिवीजन	-14782
▁दिग्गज	-14783
▁प्रोफ़	-14784
▁मेट्रो	-14785
▁मैनेजर	-14786
▁विफलता	-14787
▁संयोजन	-14788
▁सद्दाम	-14789
▁सवालों	-14790
▁सीरीज़	-14791
▁स्तरों	-14792
▁स्वीडन	-14793
adelphia	-14794
atherine	-14795
ductions	-14796
▁Amnesty	-14797
▁Anthony	-14798
▁Arizona	-14799
▁Barbara	-14800
▁Coleman	-14801
▁Control	-14802
▁Estonia	-14803
▁Franken	-14804
▁Katrina	-14805
▁Manning	-14806
▁Milmine	-14807
▁Morning	-14808
▁Newmont	-14809
▁Ossetia	-14810
▁Statoil	-14811
▁Telecom	-14812
▁Telstra	-14813
▁Village	-14814
▁Winfrey	-14815
▁advance	-14816
▁bombers	-14817
▁channel	-14818
▁complex	-14819
▁escaped	-14820
▁footage	-14821
▁keeping	-14822
▁maximum	-14823
▁outcome	-14824
▁passing	-14825
▁section	-14826
▁sixteen	-14827
▁smaller	-14828
▁testing	-14829
▁walking	-14830
▁अपराधों	-14831
▁एंजिल्स	-14832
▁एक्सप्ल	-14833
▁किशोरों	-14834
▁क्रिसमस	-14835
▁गोलियां	-14836
▁डिस्ट्र	-14837
▁नौसैनिक	-14838
▁पेनल्टी	-14839
▁योजनाओं	-14840
▁वातावरण	-14841
▁सेवानिव	-14842
▁सोसाइटी	-14843
operation	-14844
▁Bulldogs	-14845
▁Division	-14846
▁Paraguay	-14847
▁Petraeus	-14848
▁Romanian	-14849
▁Winnipeg	-14850
▁airplane	-14851
▁champion	-14852
▁existing	-14853
▁function	-14854
▁language	-14855
▁observed	-14856
▁powerful	-14857
▁repeated	-14858
▁strongly	-14859
▁supplies	-14860
▁अनुमोदित	-14861
▁अस्तित्व	-14862
▁एयरपोर्ट	-14863
▁गर्मियों	-14864
▁पनडुब्बी	-14865
▁पर्यटकों	-14866
▁प्रभावों	-14867
▁मतदाताओं	-14868
▁मैक्सिको	-14869
▁श्रीलंका	-14870
▁सैटेलाइट	-14871
▁Christoph	-14872
▁Commander	-14873
▁Executive	-14874
▁Lieberman	-14875
▁Telegraph	-14876
▁appointed	-14877
▁complaint	-14878
▁condemned	-14879
▁contribut	-14880
▁kidnapped	-14881
▁offensive	-14882
▁preparing	-14883
▁qualified	-14884
▁reduction	-14885
▁submarine	-14886
▁testimony	-14887
▁अस्पतालों	-14888
▁उल्लेखनीय	-14889
▁एम्बुलेंस	-14890
▁कनेक्टिकट	-14891
▁ग्रीनहाउस	-14892
▁निर्वाचित	-14893
▁प्रोग्राम	-14894
▁Bangladesh	-14895
▁ambassador	-14896
▁correspond	-14897
▁insurgents	-14898
▁newspapers	-14899
▁nomination	-14900
▁personally	-14901
▁possession	-14902
▁punishment	-14903
▁referendum	-14904
▁violations	-14905
▁आवश्यकताओं	-14906
▁निर्माताओं	-14907
▁प्रजातियों	-14908
▁regulations	-14909
▁डेमोक्रेट्स	-14910
▁Philadelphia	-14911
▁respectively	-14912
▁subsequently	-14913
▁बंदूकधारियों	-14914
▁infrastructure	-14915
32	-14916
46	-14917
PL	-14918
To	-14919
fl	-14920
चय	-14921
णु	-14922
पु	-14923
वो	-14924
ोश	-14925
ấc	-14926
▁Ứ	-14927
Bạn	-14928
Con	-14929
OAA	-14930
Sec	-14931
abb	-14932
aux	-14933
eli	-14934
elo	-14935
fur	-14936
ifa	-14937
isa	-14938
oen	-14939
oui	-14940
pur	-14941
top	-14942
ंजी	-14943
कोस	-14944
जेड	-14945
टिक	-14946
डेल	-14947
डोन	-14948
बाज	-14949
बूझ	-14950
विच	-14951
स्ख	-14952
हीन	-14953
िकी	-14954
िगे	-14955
िशप	-14956
ोजी	-14957
्पल	-14958
▁69	-14959
▁71	-14960
▁81	-14961
▁91	-14962
▁94	-14963
▁::	-14964
▁Es	-14965
▁Lý	-14966
▁WW	-14967
▁lạ	-14968
▁pi	-14969
▁rh	-14970
▁sn	-14971
▁£1	-14972
▁đỗ	-14973
▁उछ	-14974
▁टॉ	-14975
▁पच	-14976
▁बध	-14977
▁बौ	-14978
▁मक	-14979
enda	-14980
hard	-14981
iece	-14982
inch	-14983
iven	-14984
just	-14985
ondo	-14986
oran	-14987
rand	-14988
sole	-14989
town	-14990
uten	-14991
được	-14992
ंपरा	-14993
आईवी	-14994
कुओं	-14995
घाटन	-14996
टीवी	-14997
मानी	-14998
मारक	-14999
लिना	-15000
साचु	-15001
स्बे	-15002
िक्ट	-15003
ियंस	-15004
िल्व	-15005
▁(16	-15006
▁30%	-15007
▁ACT	-15008
▁Bai	-15009
▁Dri	-15010
▁GBP	-15011
▁Gun	-15012
▁Hak	-15013
▁Hil	-15014
▁ITV	-15015
▁Jar	-15016
▁Lun	-15017
▁Naz	-15018
▁Qua	-15019
▁Ray	-15020
▁Roy	-15021
▁Sul	-15022
▁Tan	-15023
▁ash	-15024
▁bra	-15025
▁cuô	-15026
▁dấy	-15027
▁dọn	-15028
▁ess	-15029
▁guy	-15030
▁gym	-15031
▁hoà	-15032
▁mắn	-15033
▁nứt	-15034
▁pit	-15035
▁ray	-15036
▁thọ	-15037
▁trễ	-15038
▁tẩy	-15039
▁unl	-15040
▁Đan	-15041
▁đeo	-15042
▁đãi	-15043
▁đắc	-15044
▁अधि	-15045
▁अबू	-15046
▁अभि	-15047
▁ओपन	-15048
▁कुक	-15049
▁कोट	-15050
▁गंत	-15051
▁गुम	-15052
▁चयन	-15053
▁छूट	-15054
▁टूर	-15055
▁टोक	-15056
▁डिए	-15057
▁नाक	-15058
▁पतन	-15059
▁फोर	-15060
▁बैक	-15061
▁मिट	-15062
▁राइ	-15063
▁रिफ	-15064
▁रुक	-15065
▁रेज	-15066
▁रेन	-15067
▁रोल	-15068
▁वाई	-15069
▁वाट	-15070
▁वॉल	-15071
▁सौर	-15072
▁Ứng	-15073
aired	-15074
bacco	-15075
ented	-15076
evens	-15077
idden	-15078
ijing	-15079
isley	-15080
orate	-15081
urers	-15082
चित्र	-15083
त्तों	-15084
नियां	-15085
स्कोप	-15086
ालामु	-15087
िमंडल	-15088
ेशनों	-15089
▁1930	-15090
▁Answ	-15091
▁Chúa	-15092
▁Deep	-15093
▁Food	-15094
▁Good	-15095
▁Lynn	-15096
▁Mạch	-15097
▁Ngài	-15098
▁Pent	-15099
▁Rail	-15100
▁Tiểu	-15101
▁Toàn	-15102
▁auth	-15103
▁bear	-15104
▁blow	-15105
▁debt	-15106
▁else	-15107
▁flow	-15108
▁heav	-15109
▁jets	-15110
▁lặng	-15111
▁pand	-15112
▁rare	-15113
▁roof	-15114
▁tied	-15115
▁trật	-15116
▁tống	-15117
▁vắng	-15118
▁warm	-15119
▁ways	-15120
▁अवलो	-15121
▁आरंभ	-15122
▁आर्क	-15123
▁आवाज	-15124
▁क्रे	-15125
▁खाने	-15126
▁गंवा	-15127
▁गायक	-15128
▁जश्न	-15129
▁जीती	-15130
▁जीते	-15131
▁टैंक	-15132
▁डेवल	-15133
▁तटीय	-15134
▁नस्ल	-15135
▁निगम	-15136
▁पीसी	-15137
▁पेड़	-15138
▁फेंक	-15139
▁फोरम	-15140
▁बार्	-15141
▁बैठे	-15142
▁ब्रु	-15143
▁लाइट	-15144
▁विन्	-15145
▁शोषण	-15146
▁स्टै	-15147
▁हांग	-15148
ecause	-15149
enders	-15150
ircuit	-15151
wealth	-15152
आधारित	-15153
पड़ताल	-15154
पत्रों	-15155
संख्यक	-15156
स्थिति	-15157
▁1.000	-15158
▁1999,	-15159
▁Crick	-15160
▁Delta	-15161
▁Giáng	-15162
▁Later	-15163
▁Matos	-15164
▁Peace	-15165
▁Shang	-15166
▁Solid	-15167
▁Tamil	-15168
▁Thiếu	-15169
▁Tuyên	-15170
▁Vardi	-15171
▁Wayne	-15172
▁agree	-15173
▁ammun	-15174
▁balls	-15175
▁banks	-15176
▁boats	-15177
▁brand	-15178
▁cargo	-15179
▁chain	-15180
▁daily	-15181
▁dozen	-15182
▁films	-15183
▁fines	-15184
▁mixed	-15185
▁motor	-15186
▁multi	-15187
▁nhiêu	-15188
▁title	-15189
▁trees	-15190
▁truth	-15191
▁uncon	-15192
▁viếng	-15193
▁अचानक	-15194
▁आगामी	-15195
▁उठाने	-15196
▁कठिना	-15197
▁कमांड	-15198
▁काबुल	-15199
▁किसान	-15200
▁क्रूर	-15201
▁ग्लास	-15202
▁जगहों	-15203
▁जर्नल	-15204
▁जानवर	-15205
▁जितना	-15206
▁डाउनर	-15207
▁दर्जन	-15208
▁धमाके	-15209
▁फीसदी	-15210
▁फोर्स	-15211
▁बनाते	-15212
▁बुल्स	-15213
▁मैक्स	-15214
▁यूएसए	-15215
▁रहेगी	-15216
▁रेयान	-15217
▁लक्षण	-15218
▁विधान	-15219
▁विराम	-15220
▁सुरंग	-15221
▁हार्म	-15222
derland	-15223
ections	-15224
holders	-15225
ictions	-15226
utenant	-15227
धिकारों	-15228
हालांकि	-15229
▁Darfur	-15230
▁Shiite	-15231
▁Social	-15232
▁accomp	-15233
▁altern	-15234
▁athlet	-15235
▁bought	-15236
▁causes	-15237
▁circum	-15238
▁corner	-15239
▁county	-15240
▁extend	-15241
▁guards	-15242
▁height	-15243
▁honour	-15244
▁kidney	-15245
▁mainly	-15246
▁museum	-15247
▁pieces	-15248
▁rushed	-15249
▁tanker	-15250
▁traged	-15251
▁voters	-15252
▁weapon	-15253
▁welcom	-15254
▁अंतरिम	-15255
▁अधिकतर	-15256
▁अलेक्ज	-15257
▁उच्चतम	-15258
▁एचआईवी	-15259
▁कामयाब	-15260
▁क्योटो	-15261
▁गॉर्डन	-15262
▁पवित्र	-15263
▁बाज़ार	-15264
▁मांगने	-15265
▁मायर्स	-15266
▁लाइनों	-15267
▁वियतना	-15268
▁सर्किट	-15269
▁सीएनएन	-15270
▁स्मारक	-15271
ointment	-15272
▁Beijing	-15273
▁Hungary	-15274
▁Program	-15275
▁Reports	-15276
▁Science	-15277
▁Speaker	-15278
▁Stephan	-15279
▁arrival	-15280
▁century	-15281
▁comfort	-15282
▁decline	-15283
▁deliber	-15284
▁demands	-15285
▁display	-15286
▁exactly	-15287
▁husband	-15288
▁infring	-15289
▁learned	-15290
▁serving	-15291
▁someone	-15292
▁stadium	-15293
▁strikes	-15294
▁tobacco	-15295
▁warrant	-15296
▁अटलांटा	-15297
▁एयरक्रा	-15298
▁क्रांति	-15299
▁गुरूवार	-15300
▁ट्रैफिक	-15301
▁त्रासदी	-15302
▁दर्शाता	-15303
▁धन्यवाद	-15304
▁निर्यात	-15305
▁प्रदूषण	-15306
▁प्रोटोक	-15307
▁मुक़दमे	-15308
▁विशेषता	-15309
▁संशोधित	-15310
▁समाप्ति	-15311
▁सर्बिया	-15312
▁Atlantic	-15313
▁Wireless	-15314
▁audience	-15315
▁congress	-15316
▁drinking	-15317
▁infected	-15318
▁interrog	-15319
▁messages	-15320
▁minority	-15321
▁peaceful	-15322
▁properly	-15323
▁provides	-15324
▁publicly	-15325
▁recovery	-15326
▁religion	-15327
▁requires	-15328
▁एमनेस्टी	-15329
▁ज्वालामु	-15330
▁निर्वाचन	-15331
▁पाइपलाइन	-15332
▁पुर्तगाल	-15333
▁प्रवर्तन	-15334
▁प्रांतीय	-15335
▁मस्तिष्क	-15336
▁यूरेनियम	-15337
▁Coalition	-15338
▁Moussaoui	-15339
▁attacking	-15340
▁extremely	-15341
▁increases	-15342
▁inflation	-15343
▁knowledge	-15344
▁materials	-15345
▁observers	-15346
▁telephone	-15347
▁प्रतीक्षा	-15348
▁प्रदर्शनी	-15349
ष्णकटिबंधीय	-15350
▁Convention	-15351
▁Sunderland	-15352
▁absolutely	-15353
▁ammunition	-15354
▁complaints	-15355
▁electrical	-15356
▁facilities	-15357
▁frequently	-15358
▁maintained	-15359
▁performing	-15360
▁provincial	-15361
▁registered	-15362
▁कॉर्पोरेशन	-15363
▁लेफ्टिनेंट	-15364
▁शांतिपूर्ण	-15365
▁Agriculture	-15366
▁Information	-15367
▁application	-15368
▁helicopters	-15369
▁replacement	-15370
▁एडमिनिस्ट्र	-15371
▁फ़िलिस्तीनी	-15372
▁लिबर्टेरियन	-15373
▁लोकतांत्रिक	-15374
▁conservative	-15375
▁specifically	-15376
▁successfully	-15377
▁माइक्रोसॉफ्ट	-15378
▁parliamentary	-15379
▁Transportation	-15380
▁investigations	-15381
!7	-15382
-9	-15383
DM	-15384
Gi	-15385
IC	-15386
IS	-15387
No	-15388
छा	-15389
जल	-15390
रत	-15391
षे	-15392
िं	-15393
िओ	-15394
-18	-15395
-19	-15396
.4%	-15397
CEF	-15398
awn	-15399
erg	-15400
eta	-15401
eum	-15402
log	-15403
ogo	-15404
ohm	-15405
olm	-15406
rov	-15407
ugo	-15408
ulu	-15409
unt	-15410
wat	-15411
zai	-15412
ंटा	-15413
एफए	-15414
कता	-15415
कूद	-15416
कूल	-15417
छले	-15418
जलि	-15419
जाद	-15420
दूस	-15421
परी	-15422
फ़्	-15423
मोर	-15424
सतन	-15425
साद	-15426
ूंढ	-15427
ेरह	-15428
ॉइड	-15429
ोमा	-15430
▁08	-15431
▁1%	-15432
▁62	-15433
▁8.	-15434
▁83	-15435
▁9/	-15436
▁HD	-15437
▁Ib	-15438
▁Jr	-15439
▁Kỹ	-15440
▁Xô	-15441
▁bế	-15442
▁cỏ	-15443
▁gl	-15444
▁tâ	-15445
▁एश	-15446
▁ओट	-15447
▁टा	-15448
▁ấm	-15449
-133	-15450
adow	-15451
akar	-15452
azaa	-15453
azzi	-15454
coni	-15455
ctic	-15456
erap	-15457
ette	-15458
imar	-15459
lobe	-15460
nast	-15461
oard	-15462
ogue	-15463
oker	-15464
olls	-15465
onel	-15466
onze	-15467
orge	-15468
osse	-15469
trak	-15470
ubar	-15471
umed	-15472
ऑक्स	-15473
कसिन	-15474
कांग	-15475
क्यू	-15476
टाइम	-15477
फ़िक	-15478
रिटी	-15479
र्टी	-15480
र्डर	-15481
वायर	-15482
वाली	-15483
ामिन	-15484
ारेन	-15485
िनती	-15486
ॉन्ड	-15487
्बास	-15488
्लाद	-15489
▁(80	-15490
▁102	-15491
▁15,	-15492
▁3.5	-15493
▁Cas	-15494
▁Fah	-15495
▁Fix	-15496
▁Gri	-15497
▁Hou	-15498
▁ICA	-15499
▁Ins	-15500
▁Kam	-15501
▁Luf	-15502
▁MST	-15503
▁Mul	-15504
▁NBC	-15505
▁Nag	-15506
▁Nep	-15507
▁Pte	-15508
▁Pun	-15509
▁Qur	-15510
▁Run	-15511
▁SNP	-15512
▁Sel	-15513
▁Tas	-15514
▁Ted	-15515
▁Tân	-15516
▁Vik	-15517
▁ast	-15518
▁bid	-15519
▁cồn	-15520
▁dra	-15521
▁hét	-15522
▁hảo	-15523
▁lốc	-15524
▁nầy	-15525
▁phà	-15526
▁rat	-15527
▁tân	-15528
▁vẹn	-15529
▁आईं	-15530
▁आती	-15531
▁छवि	-15532
▁जंग	-15533
▁डील	-15534
▁त्व	-15535
▁दाख	-15536
▁पिट	-15537
▁फेल	-15538
▁मंज	-15539
▁यंग	-15540
▁विट	-15541
▁हान	-15542
/2013	-15543
agasc	-15544
aming	-15545
avior	-15546
chang	-15547
erate	-15548
grams	-15549
iable	-15550
inent	-15551
ipped	-15552
iscal	-15553
itely	-15554
liner	-15555
mania	-15556
oenix	-15557
rador	-15558
thood	-15559
umbai	-15560
कलैंड	-15561
गांडा	-15562
बूझकर	-15563
म्पिक	-15564
र्विक	-15565
स्खलन	-15566
ांतों	-15567
ाइयों	-15568
ामकों	-15569
▁1962	-15570
▁1981	-15571
▁1985	-15572
▁Beck	-15573
▁Corn	-15574
▁Cout	-15575
▁Hans	-15576
▁Harm	-15577
▁Harv	-15578
▁Hear	-15579
▁Here	-15580
▁Holy	-15581
▁Hubb	-15582
▁Huss	-15583
▁Jess	-15584
▁Kath	-15585
▁Kiểm	-15586
▁Luke	-15587
▁Lula	-15588
▁Lund	-15589
▁McGu	-15590
▁Move	-15591
▁NYSE	-15592
▁Nico	-15593
▁Orle	-15594
▁Pine	-15595
▁Rica	-15596
▁Sask	-15597
▁Schr	-15598
▁Swan	-15599
▁Trạm	-15600
▁Turn	-15601
▁bary	-15602
▁busy	-15603
▁bách	-15604
▁calm	-15605
▁chay	-15606
▁chẩn	-15607
▁dece	-15608
▁exit	-15609
▁horm	-15610
▁mind	-15611
▁myel	-15612
▁nhựa	-15613
▁sank	-15614
▁stem	-15615
▁tape	-15616
▁task	-15617
▁thus	-15618
▁thép	-15619
▁trop	-15620
▁viêm	-15621
▁wage	-15622
▁wasn	-15623
▁word	-15624
▁xoáy	-15625
▁xách	-15626
▁असहम	-15627
▁आराम	-15628
▁आवास	-15629
▁इयान	-15630
▁ऑफिस	-15631
▁औसतन	-15632
▁कमिश	-15633
▁कर्ज	-15634
▁खुशी	-15635
▁खोला	-15636
▁गरीब	-15637
▁चाहे	-15638
▁चौथी	-15639
▁जबरद	-15640
▁जीवा	-15641
▁जोसे	-15642
▁टाउन	-15643
▁डिफ़	-15644
▁ढूंढ	-15645
▁ध्रु	-15646
▁नग्न	-15647
▁निषे	-15648
▁पढ़ा	-15649
▁पीएस	-15650
▁पीने	-15651
▁पूछे	-15652
▁पूर्	-15653
▁प्रच	-15654
▁बगैर	-15655
▁बुरा	-15656
▁मादक	-15657
▁माने	-15658
▁मिलर	-15659
▁लिवर	-15660
▁शैली	-15661
▁सख्त	-15662
▁सोनी	-15663
▁सोने	-15664
▁स्तन	-15665
▁स्वे	-15666
▁हड्ड	-15667
Israel	-15668
action	-15669
amples	-15670
annels	-15671
artney	-15672
castle	-15673
ctions	-15674
endoza	-15675
erbohm	-15676
icking	-15677
ocaust	-15678
ounced	-15679
perial	-15680
▁	-15681
n	-15682
t	-15683
e	-15684
i	-15685
h	-15686
a	-15687
o	-15688
c	-15689
r	-15690
ा	-15691
s	-15692
क	-15693
g	-15694
े	-15695
र	-15696
l	-15697
u	-15698
्	-15699
d	-15700
ि	-15701
m	-15702
न	-15703
स	-15704
ं	-15705
ी	-15706
p	-15707
म	-15708
ह	-15709
,	-15710
v	-15711
y	-15712
b	-15713
ल	-15714
ो	-15715
त	-15716
đ	-15717
य	-15718
प	-15719
f	-15720
.	-15721
à	-15722
व	-15723
k	-15724
w	-15725
द	-15726
ư	-15727
ज	-15728
á	-15729
ब	-15730
ग	-15731
"	-15732
ट	-15733
ै	-15734
ए	-15735
ु	-15736
0	-15737
ộ	-15738
T	-15739
।	-15740
ô	-15741
ế	-15742
अ	-15743
ड	-15744
श	-15745
ủ	-15746
C	-15747
ू	-15748
ả	-15749
ạ	-15750
थ	-15751
ó	-15752
च	-15753
ê	-15754
ố	-15755
S	-15756
ệ	-15757
A	-15758
1	-15759
ờ	-15760
ớ	-15761
ã	-15762
M	-15763
इ	-15764
ấ	-15765
उ	-15766
q	-15767
2	-15768
ợ	-15769
औ	-15770
ध	-15771
ष	-15772
B	-15773
â	-15774
फ	-15775
़	-15776
भ	-15777
x	-15778
ề	-15779
ị	-15780
आ	-15781
N	-15782
-	-15783
ể	-15784
ậ	-15785
H	-15786
I	-15787
ầ	-15788
P	-15789
ự	-15790
ई	-15791
ở	-15792
ứ	-15793
ख	-15794
í	-15795
ì	-15796
ữ	-15797
ơ	-15798
ă	-15799
5	-15800
ण	-15801
ọ	-15802
ụ	-15803
L	-15804
'	-15805
D	-15806
ॉ	-15807
G	-15808
3	-15809
R	-15810
ằ	-15811
9	-15812
ú	-15813
F	-15814
W	-15815
ổ	-15816
4	-15817
ắ	-15818
K	-15819
(	-15820
)	-15821
6	-15822
8	-15823
7	-15824
ừ	-15825
O	-15826
E	-15827
U	-15828
ử	-15829
छ	-15830
ồ	-15831
घ	-15832
ौ	-15833
z	-15834
ò	-15835
V	-15836
J	-15837
ẽ	-15838
ặ	-15839
Đ	-15840
j	-15841
ओ	-15842
ù	-15843
ỏ	-15844
:	-15845
ũ	-15846
ỉ	-15847
Q	-15848
ठ	-15849
é	-15850
ý	-15851
ऑ	-15852
ृ	-15853
ẫ	-15854
ỹ	-15855
ĩ	-15856
ढ	-15857
Y	-15858
ẩ	-15859
ỗ	-15860
झ	-15861
ễ	-15862
ँ	-15863
Z	-15864
%	-15865
;	-15866
ẻ	-15867
$	-15868
ỳ	-15869
Ô	-15870
ऐ	-15871
ञ	-15872
́	-15873
̣	-15874
X	-15875
Ú	-15876
ỷ	-15877
ऊ	-15878
õ	-15879
ỡ	-15880
ẹ	-15881
/	-15882
]	-15883
[	-15884
̀	-15885
ẳ	-15886
Â	-15887
?	-15888
è	-15889
—	-15890
!	-15891
ः	-15892
’	-15893
̉	-15894
Ủ	-15895
Ấ	-15896
&	-15897
–	-15898
£	-15899
ẵ	-15900
”	-15901
Á	-15902
Ý	-15903
̃	-15904
€	-15905
“	-15906
Ả	-15907
ऋ	-15908
*	-15909
+	-15910
Í	-15911
Ở	-15912
॰	-15913
ö	-15914
#	-15915
ā	-15916
°	-15917
ñ	-15918
ỵ	-15919
ü	-15920
Ư	-15921
Ứ	-15922
@	-15923
ä	-15924
₱	-15925
=	-15926
ø	-15927
·	-15928
č	-15929
ß	-15930
ë	-15931
ō	-15932
Š	-15933
ć	-15934
ł	-15935
ş	-15936
ॅ	-15937
‘	-15938
_	-15939
Ă	-15940
ǎ	-15941
・	-15942
®	-15943
É	-15944
Ð	-15945
ï	-15946
İ	-15947
Ổ	-15948
′	-15949
⁄	-15950
、	-15951
創	-15952
匯	-15953
峰	-15954
慧	-15955
新	-15956
智	-15957
朗	-15958
珠	-15959
瑪	-15960
穆	-15961
聚	-15962
集	-15963
體	-15964
Ó	-15965
Ü	-15966
æ	-15967
ē	-15968
ğ	-15969
ī	-15970
ń	-15971
š	-15972
ū	-15973
ž	-15974
Ơ	-15975
μ	-15976
‪	-15977
>	-15978
Ä	-15979
Ö	-15980
å	-15981
ç	-15982
ș	-15983
ʻ	-15984
с	-15985
ॆ	-15986
ॊ	-15987
२	-15988
Ồ	-15989
Ỹ	-15990
‐	-15991
₣	-15992
−	-15993
」	-15994
