<pad>	0
<unk>	0
[CLS]	0
[SEP]	0
[MASK]	0
,	-3.5761
.	-4.05333
▁the	-4.2632
▁के	-4.31735
▁	-4.58903
s	-4.73074
।	-4.82991
▁में	-4.8567
▁"	-4.96859
▁of	-5.07014
▁की	-5.08953
i	-5.10266
▁है	-5.10657
▁to	-5.13832
▁của	-5.19879
▁को	-5.22999
▁và	-5.27132
▁and	-5.29422
▁और	-5.32496
▁đã	-5.32614
▁से	-5.34247
▁in	-5.34991
ng	-5.35966
▁a	-5.38008
n	-5.39658
ी	-5.42932
▁ने	-5.48167
▁một	-5.52072
-	-5.6325
ों	-5.64313
े	-5.69166
▁कि	-5.70193
▁का	-5.75068
▁được	-5.7527
▁एक	-5.76901
▁các	-5.82407
▁trong	-5.86145
ing	-5.90645
▁là	-5.90915
▁cho	-5.91476
t	-5.91837
▁có	-5.9509
ा	-5.95239
ed	-5.97196
▁người	-5.97493
▁पर	-5.97886
▁that	-5.98518
'	-6.00921
▁लिए	-6.01847
."	-6.04309
▁The	-6.10912
y	-6.13037
▁हैं	-6.14548
▁vớ	-6.17976
▁những	-6.19705
m	-6.2015
▁for	-6.2095
"	-6.22897
▁không	-6.27869
▁was	-6.28045
▁rằng	-6.3009
▁किया	-6.31968
▁is	-6.33308
▁bị	-6.34174
▁vào	-6.34217
▁था	-6.34545
▁on	-6.34761
▁ở	-6.34928
▁này	-6.358
▁गया	-6.38813
▁(	-6.42231
▁करने	-6.47975
▁कहा	-6.49943
▁khi	-6.5135
▁ra	-6.51984
न	-6.52616
)	-6.54915
u	-6.54951
▁năm	-6.55194
▁कर	-6.55748
▁sẽ	-6.57841
▁इस	-6.59727
▁with	-6.60016
▁नहीं	-6.61415
▁by	-6.62435
र	-6.62614
c	-6.64725
ने	-6.65594
▁công	-6.66352
ित	-6.66364
▁về	-6.66592
▁từ	-6.69368
d	-6.69457
▁việc	-6.70135
▁nói	-6.72996
▁यह	-6.73232
▁để	-6.7333
▁ông	-6.73637
▁sự	-6.73651
▁tại	-6.75381
▁đến	-6.77078
▁as	-6.77749
▁be	-6.80571
▁has	-6.80675
▁have	-6.80801
▁at	-6.81532
▁from	-6.82363
▁N	-6.82845
g	-6.83819
▁thể	-6.83826
o	-6.84326
▁said	-6.85266
।"	-6.86431
▁भी	-6.86607
e	-6.88256
▁đó	-6.8902
▁viên	-6.89252
▁an	-6.89663
▁cuộc	-6.91016
▁हो	-6.91251
▁जो	-6.93349
▁दिया	-6.94865
▁đầu	-6.95767
▁साथ	-6.96333
▁đa	-6.9715
क	-6.98234
▁họ	-6.98405
▁nhà	-6.99978
h	-7.00062
▁C	-7.0013
ly	-7.00326
▁chính	-7.00543
▁were	-7.00601
a	-7.0274
▁T	-7.02908
er	-7.03325
▁are	-7.03949
▁số	-7.03954
▁sau	-7.04497
▁báo	-7.049
p	-7.05456
▁t	-7.08874
▁động	-7.08897
▁it	-7.09043
▁बाद	-7.0958
▁thành	-7.1069
▁ngày	-7.10698
▁not	-7.11395
▁thứ	-7.11495
स	-7.11597
▁थे	-7.12214
▁trên	-7.12381
▁vụ	-7.13524
▁quan	-7.13998
:	-7.14584
▁nhân	-7.14686
▁cũ	-7.15175
▁tháng	-7.15204
▁been	-7.15304
▁tôi	-7.16287
▁gia	-7.1666
▁जिस	-7.1711
ir	-7.17126
ं	-7.18798
▁hiện	-7.18975
▁his	-7.19104
▁he	-7.19181
▁द्वारा	-7.19315
▁will	-7.20212
▁hai	-7.20615
▁थी	-7.20702
▁biết	-7.22409
▁lại	-7.22448
▁A	-7.23757
▁làm	-7.24221
▁như	-7.25199
▁रूप	-7.2641
▁hành	-7.27008
▁गई	-7.27721
▁गए	-7.28088
▁do	-7.28127
▁तक	-7.28613
▁phát	-7.28819
▁điều	-7.29801
▁thông	-7.30265
्स	-7.31472
▁nước	-7.31781
,"	-7.32683
▁phải	-7.33348
▁m	-7.33418
▁हुए	-7.33712
ल	-7.34677
ि	-7.35576
िक	-7.35634
▁trước	-7.37297
▁अपने	-7.37874
▁had	-7.38468
म	-7.39393
▁chúng	-7.40503
▁hơn	-7.40591
▁S	-7.40963
▁chức	-7.41775
▁which	-7.42456
▁bố	-7.43399
▁उन्होंने	-7.44714
ई	-7.45077
▁nhất	-7.45332
ता	-7.47172
▁रहे	-7.47589
▁chỉ	-7.47609
al	-7.47739
▁bở	-7.48075
▁पहले	-7.48085
▁who	-7.48503
▁định	-7.48613
▁this	-7.48727
▁cả	-7.49142
▁qua	-7.49168
▁đội	-7.50238
▁ही	-7.50241
▁nhận	-7.51469
l	-7.51999
▁cáo	-7.53576
▁tin	-7.53955
▁mà	-7.54016
▁Mỹ	-7.54407
िल	-7.55096
▁जब	-7.55364
▁khác	-7.55395
▁उनक	-7.55534
▁đối	-7.56179
▁sát	-7.56251
▁vì	-7.56254
▁New	-7.57012
▁quốc	-7.57434
ीय	-7.57771
▁also	-7.57831
▁kết	-7.58134
▁nhiều	-7.58234
▁B	-7.59156
▁but	-7.59263
▁कम	-7.59625
ट	-7.59996
▁वे	-7.60132
में	-7.60809
▁nhưng	-7.61332
▁đồng	-7.61843
▁bắt	-7.61998
▁उस	-7.62028
S	-7.62274
▁hàng	-7.6308
▁after	-7.6337
▁वाले	-7.63444
▁रहा	-7.64022
▁they	-7.64515
▁वह	-7.64549
▁theo	-7.65012
▁अधिक	-7.65163
▁dân	-7.65383
▁đưa	-7.65484
▁ta	-7.65873
▁होने	-7.6597
▁लेकिन	-7.66173
▁I	-7.66417
▁people	-7.67558
▁लोगों	-7.6785
्	-7.67889
▁b	-7.67949
;	-7.68539
▁कुछ	-7.69119
▁trường	-7.6932
▁phủ	-7.70441
▁Các	-7.70897
▁con	-7.71427
▁जा	-7.71641
▁thống	-7.72381
▁cơ	-7.72563
▁dụng	-7.73334
▁khu	-7.74126
▁या	-7.74482
▁học	-7.7475
▁Một	-7.75126
ियों	-7.75146
▁tổ	-7.75172
▁thấy	-7.75181
▁dự	-7.75553
▁c	-7.75809
▁hội	-7.7614
▁tế	-7.76379
िंग	-7.76893
▁nay	-7.77219
▁liên	-7.77458
▁Quốc	-7.77699
▁chiến	-7.77944
▁अ	-7.78037
▁thực	-7.78677
▁cầu	-7.78928
▁साल	-7.79748
▁cử	-7.79822
▁दो	-7.80006
▁lên	-7.80416
▁tiếp	-7.80661
त	-7.80777
▁hôm	-7.81294
▁समय	-7.81414
▁giải	-7.82341
▁bay	-7.82766
▁hợp	-7.83191
▁or	-7.83794
▁would	-7.83842
▁quyền	-7.84482
▁lực	-7.84488
▁two	-7.85134
▁trình	-7.85137
▁toàn	-7.85572
ड	-7.86004
▁cảnh	-7.86088
▁đi	-7.86097
ना	-7.86111
▁đề	-7.86118
▁over	-7.86243
r	-7.86312
▁chủ	-7.86506
▁cách	-7.86509
▁mình	-7.87257
▁tình	-7.8726
▁khoản	-7.87558
▁In	-7.87587
▁giới	-7.87785
▁Anh	-7.8786
▁ba	-7.87974
▁M	-7.8813
▁cứu	-7.88499
▁-	-7.88651
▁दी	-7.89094
▁điểm	-7.89137
▁H	-7.89568
▁máy	-7.89683
▁thế	-7.89821
▁करते	-7.89901
▁thời	-7.8991
▁one	-7.90094
▁lượng	-7.90095
▁quân	-7.90233
▁v	-7.90355
b	-7.91284
▁sử	-7.9167
ज	-7.91673
▁vấn	-7.9275
प	-7.92807
से	-7.9295
th	-7.93099
▁lớn	-7.93307
▁Đ	-7.93451
▁thủ	-7.93676
▁hình	-7.93734
▁pháp	-7.93774
▁án	-7.93854
▁tra	-7.93859
ओं	-7.93895
▁cùng	-7.95174
▁vực	-7.95323
▁nó	-7.96126
▁सरकार	-7.96138
▁đây	-7.96198
ो	-7.96404
▁tới	-7.96498
▁gần	-7.96629
▁cấp	-7.96779
▁government	-7.97089
▁L	-7.97216
▁V	-7.97256
▁bằng	-7.97367
▁उन्हें	-7.97373
▁out	-7.97518
▁đấu	-7.97809
▁mới	-7.9797
▁He	-7.97996
▁bộ	-7.98264
es	-7.9856
▁शाम	-7.98561
or	-7.99312
▁trận	-7.99607
in	-7.99748
▁United	-7.99756
▁giờ	-7.9979
▁its	-7.99814
▁bỏ	-8.00062
▁phần	-8.00215
▁tuyê	-8.003
▁giá	-8.00357
▁अन्य	-8.00373
▁जाने	-8.00614
▁first	-8.00821
re	-8.01127
▁lý	-8.0159
▁किए	-8.01835
▁1	-8.01935
▁tự	-8.0194
an	-8.01979
▁xuất	-8.02367
▁अनुसार	-8.02832
▁xe	-8.03452
▁tấn	-8.03483
▁cao	-8.0349
I	-8.03605
Ô	-8.03614
▁quả	-8.03665
▁अपनी	-8.03775
▁đường	-8.0409
ग	-8.04369
▁हुई	-8.04488
▁tiên	-8.04592
▁हुआ	-8.04603
ब	-8.04779
▁क्षेत्र	-8.05055
▁about	-8.0524
▁time	-8.05442
▁स	-8.0569
C	-8.05894
▁d	-8.06293
▁trưởng	-8.06326
▁more	-8.06696
▁quyết	-8.06977
▁độ	-8.07125
▁कारण	-8.07203
▁कोई	-8.07684
N	-8.08831
▁न	-8.08849
के	-8.08981
ू	-8.0911
▁nào	-8.09114
▁luật	-8.09446
▁F	-8.09545
▁कई	-8.10168
▁còn	-8.10314
ch	-8.10474
▁up	-8.1079
▁स्थान	-8.10988
▁lần	-8.11132
▁lập	-8.11132
▁so	-8.11744
▁P	-8.11819
ur	-8.11986
▁vị	-8.12486
▁Tro	-8.127
▁đánh	-8.12847
▁s	-8.13053
▁पुलिस	-8.13142
▁thương	-8.13372
▁biểu	-8.13709
st	-8.14014
▁लगभग	-8.1408
▁vẫn	-8.1458
▁rất	-8.14796
▁we	-8.14839
▁आ	-8.15005
▁U	-8.1516
ण	-8.15292
▁ban	-8.15351
▁करना	-8.15473
▁when	-8.15639
▁nhiên	-8.16362
▁पास	-8.16586
▁tăng	-8.16895
▁10	-8.16956
▁bản	-8.17503
▁रही	-8.17521
▁bao	-8.17577
श	-8.17774
▁lời	-8.17809
व	-8.17865
▁trở	-8.18157
▁ng	-8.183
▁dẫn	-8.18337
▁bầu	-8.18531
▁all	-8.18796
▁tranh	-8.18901
▁chết	-8.19012
A	-8.19158
▁बताया	-8.19254
▁बारे	-8.19356
k	-8.19449
▁into	-8.19529
▁year	-8.1964
▁तो	-8.19652
ह	-8.1972
en	-8.19785
▁bấ	-8.19921
▁mặt	-8.20363
▁other	-8.20416
▁dịch	-8.20741
▁tính	-8.20772
▁Bộ	-8.21117
▁Iraq	-8.21328
▁sĩ	-8.21677
on	-8.22086
▁Tru	-8.22224
▁viện	-8.22434
▁đạo	-8.22813
▁anh	-8.22884
ers	-8.23207
▁क	-8.2346
▁संयुक्त	-8.23784
▁राज्य	-8.24217
▁đất	-8.24353
▁इसक	-8.24568
1	-8.24643
▁năng	-8.24933
▁लिया	-8.25193
▁giáo	-8.25262
f	-8.25356
hững	-8.2543
▁ty	-8.25483
ìm	-8.25609
́	-8.25909
▁सबसे	-8.25934
▁ý	-8.26335
▁being	-8.265
▁trị	-8.26502
▁tài	-8.26699
▁सकता	-8.27099
T	-8.27257
▁there	-8.27721
▁ऐस	-8.2776
▁hộ	-8.278
▁पिछल	-8.27929
le	-8.27963
▁लोग	-8.28254
▁ले	-8.28265
▁no	-8.28455
▁trợ	-8.285
▁bang	-8.28528
▁tâm	-8.28916
▁new	-8.29014
▁किसी	-8.29193
▁tuổi	-8.29965
▁buộc	-8.30147
▁địa	-8.30332
▁phương	-8.3034
▁अमेरिकी	-8.30377
▁gồm	-8.30538
▁giữ	-8.30655
z	-8.31145
▁xả	-8.31369
▁Đảng	-8.31635
▁शुरू	-8.31781
̣	-8.31781
▁bảo	-8.31785
▁राष्ट्रपति	-8.31804
▁3	-8.32153
▁thắng	-8.32199
▁gì	-8.32203
▁than	-8.32224
▁thêm	-8.32635
▁tên	-8.32675
▁क्योंकि	-8.3285
द	-8.32928
▁20	-8.32935
▁2	-8.33006
▁cố	-8.33086
▁Theo	-8.33388
▁mạng	-8.33464
▁ह	-8.33498
▁वर्ष	-8.33625
▁diễn	-8.3373
▁D	-8.33791
▁bệnh	-8.33894
▁5	-8.34074
if	-8.34076
te	-8.34098
▁sinh	-8.34107
▁liệu	-8.34745
▁nghị	-8.34754
▁उसक	-8.34836
▁दौरान	-8.35407
ra	-8.3547
▁nạn	-8.35824
▁phía	-8.35867
▁सभ	-8.36013
▁phòng	-8.36042
▁kiện	-8.36261
),	-8.36414
▁gâ	-8.36611
tham	-8.36651
▁ऑस्ट्रेलिया	-8.36714
जारी	-8.36928
▁तरह	-8.37136
▁बहुत	-8.37425
▁अब	-8.37482
▁hoạt	-8.37577
का	-8.37723
▁tội	-8.37807
▁4	-8.37983
▁tục	-8.38073
▁her	-8.38124
▁trí	-8.38215
▁Úc	-8.38465
▁trọng	-8.38468
▁ứng	-8.38912
▁yêu	-8.38913
▁जाता	-8.39023
▁some	-8.39169
▁cuối	-8.39224
▁đổi	-8.39226
▁chiếc	-8.39361
▁đô	-8.39405
▁truyền	-8.39592
▁K	-8.39673
▁n	-8.39729
▁बीच	-8.39817
▁last	-8.39838
मान	-8.39877
▁E	-8.39963
उनके	-8.40153
▁re	-8.40297
▁chứng	-8.40297
2	-8.40466
▁Israel	-8.40485
▁luận	-8.4072
M	-8.4072
कर	-8.409
▁तीन	-8.40953
▁bình	-8.40958
▁देश	-8.40959
▁8	-8.41167
▁trả	-8.41205
el	-8.41222
▁can	-8.41269
▁दिन	-8.41283
▁अमेरिका	-8.41434
▁đại	-8.41636
ar	-8.41931
▁sản	-8.42044
▁ảnh	-8.42078
▁tiến	-8.42239
▁xác	-8.42249
P	-8.42321
▁15	-8.42505
▁phố	-8.42642
▁tòa	-8.43027
▁nơi	-8.43029
▁only	-8.43059
▁khí	-8.43234
▁टीम	-8.43246
▁2007	-8.43303
▁tất	-8.43311
▁Ba	-8.43407
▁उन	-8.4353
▁against	-8.43745
ते	-8.43793
▁giảm	-8.43834
ion	-8.43843
▁hay	-8.43853
▁years	-8.43911
ें	-8.43924
▁रिपोर्ट	-8.44115
▁đoàn	-8.44201
▁sách	-8.44437
▁thay	-8.44456
ic	-8.44915
▁11	-8.45008
▁police	-8.45145
▁वाली	-8.45281
▁US	-8.4576
▁triệu	-8.45867
▁gọi	-8.45868
▁Liê	-8.45962
0	-8.46029
य	-8.46078
▁tàu	-8.46107
▁काम	-8.46127
3	-8.46164
▁Zealand	-8.46348
फ	-8.46702
8	-8.46764
▁cô	-8.47132
▁three	-8.47326
▁trang	-8.47394
▁Tổng	-8.47496
▁घोषणा	-8.47806
▁trung	-8.47816
▁हम	-8.4803
▁Kỳ	-8.48052
▁thường	-8.48056
▁'	-8.48157
▁tư	-8.48199
▁phiếu	-8.48316
ặc	-8.48441
▁ए	-8.48483
▁hoặc	-8.48794
ro	-8.49101
▁reported	-8.49169
▁करता	-8.49182
▁gian	-8.49238
▁बार	-8.49252
ri	-8.49255
▁होगा	-8.49573
▁tử	-8.49793
▁cần	-8.49795
ए	-8.49862
री	-8.50016
▁States	-8.50129
▁sáng	-8.50285
▁ghi	-8.50293
▁thức	-8.50302
▁bóng	-8.50312
The	-8.50505
▁19	-8.50514
▁phạm	-8.50536
▁thiết	-8.50794
se	-8.50864
▁6	-8.5105
▁giữa	-8.51151
▁वि	-8.51193
▁देने	-8.51322
▁chống	-8.51805
▁बात	-8.51833
▁hệ	-8.52315
▁l	-8.52332
B	-8.52892
%	-8.5295
▁Th	-8.52979
▁un	-8.53077
▁p	-8.53177
▁điện	-8.53344
िया	-8.53498
ु	-8.53565
▁आज	-8.53636
▁quá	-8.53668
▁phả	-8.54295
▁chưa	-8.54913
▁tuần	-8.54915
▁chương	-8.54922
▁could	-8.54973
7	-8.55042
▁kế	-8.55167
▁दोनों	-8.55171
▁पार्टी	-8.55173
▁अधिकारियों	-8.55451
▁tiền	-8.55503
च	-8.56093
▁चुनाव	-8.56273
▁12	-8.56361
नी	-8.56386
▁kiến	-8.56767
▁nghiệp	-8.57032
ũ	-8.57033
▁O	-8.57338
▁under	-8.5734
कि	-8.57665
▁vi	-8.57742
▁खेल	-8.5781
▁जांच	-8.57849
▁2005	-8.58066
▁nhóm	-8.58118
▁thi	-8.58383
▁मौत	-8.58392
▁इन	-8.58581
▁khỏi	-8.58656
▁thị	-8.58657
5	-8.58712
▁पूर्व	-8.589
▁ấy	-8.58929
ủng	-8.5893
▁ngoài	-8.58933
▁made	-8.58975
▁tạo	-8.58978
▁nổ	-8.59143
▁vòng	-8.59206
▁सुरक्षा	-8.59241
▁đua	-8.59483
▁Canada	-8.59493
▁फ	-8.59546
9	-8.59658
▁la	-8.59673
▁द	-8.5971
▁7	-8.59716
▁Hoa	-8.59788
▁thì	-8.59806
▁biệt	-8.59841
▁एव	-8.60011
▁phép	-8.60029
▁million	-8.60062
▁loại	-8.60306
▁जाएगा	-8.6031
▁It	-8.60326
▁Al	-8.60449
▁kinh	-8.60587
▁फिर	-8.60604
▁vệ	-8.60607
▁nhiệm	-8.60863
▁before	-8.60867
▁According	-8.6087
ज़	-8.61228
▁2004	-8.61433
▁मैं	-8.61555
▁2008	-8.61617
▁bên	-8.61772
▁since	-8.61985
▁country	-8.61985
▁chuyển	-8.61985
▁25	-8.62056
▁जीत	-8.62124
▁G	-8.62152
▁đảng	-8.62268
▁mất	-8.62314
▁हालांकि	-8.62321
▁18	-8.62898
us	-8.63095
▁आगे	-8.63116
ंग	-8.6312
4	-8.63285
ation	-8.63408
▁sở	-8.63426
▁प	-8.63481
▁tiếng	-8.63543
▁nữ	-8.63605
▁9	-8.6365
▁dù	-8.63805
▁khách	-8.63977
▁ये	-8.64016
▁Iran	-8.64272
वा	-8.64566
▁tác	-8.64679
▁tiêu	-8.64887
▁thư	-8.65136
ween	-8.65148
▁them	-8.65185
it	-8.65299
▁Minister	-8.65428
▁muốn	-8.65721
▁vậ	-8.65767
ve	-8.65969
▁sống	-8.66049
▁place	-8.66068
़	-8.66607
▁kể	-8.66611
▁पूर	-8.66901
▁सकते	-8.66901
at	-8.66913
▁W	-8.66927
▁Hai	-8.67034
▁Australia	-8.67049
]	-8.67196
▁đình	-8.67199
▁while	-8.6723
▁nên	-8.67502
▁cung	-8.67515
v	-8.67719
▁ít	-8.6786
▁phá	-8.68114
w	-8.6814
▁केवल	-8.6834
).	-8.68391
▁York	-8.68392
▁lãnh	-8.68395
▁g	-8.68704
Tô	-8.6892
▁14	-8.69017
▁bet	-8.69115
▁may	-8.69219
00	-8.6947
▁phụ	-8.69474
▁thu	-8.69496
▁tập	-8.69633
▁giao	-8.69788
D	-8.70025
▁dur	-8.7014
▁hiệu	-8.7052
▁मंत्री	-8.70552
थ	-8.70624
la	-8.70644
▁30	-8.70656
▁found	-8.70725
L	-8.71102
▁mười	-8.71136
▁minh	-8.71147
▁killed	-8.71159
▁kiểm	-8.71463
▁Tr	-8.71713
Chú	-8.71989
▁off	-8.72007
▁चाहिए	-8.72068
We	-8.72149
जन	-8.72253
man	-8.72481
H	-8.72596
▁thiệ	-8.72636
▁vùng	-8.72702
▁घटना	-8.72972
▁nghiên	-8.73018
ma	-8.73108
हम	-8.73187
▁ngôn	-8.73233
▁triển	-8.73324
▁उसे	-8.73432
▁hòa	-8.7364
▁उपयोग	-8.73675
▁प्र	-8.73796
▁ओर	-8.73934
▁President	-8.73982
▁team	-8.7403
▁Độ	-8.74203
▁where	-8.74276
▁state	-8.74334
▁today	-8.747
▁support	-8.74888
▁through	-8.74916
▁mức	-8.74932
▁chi	-8.7506
▁đá	-8.75167
̀	-8.75237
▁xem	-8.75332
▁any	-8.75374
▁This	-8.7539
▁शहर	-8.75527
▁खिलाफ	-8.75542
िन	-8.75554
lo	-8.75628
▁50	-8.75995
ước	-8.7601
▁13	-8.76044
ự	-8.76176
▁đốc	-8.76226
ad	-8.76331
▁बंद	-8.76348
▁अभी	-8.76542
▁Chính	-8.76628
▁बाहर	-8.76863
▁what	-8.76892
G	-8.76926
▁Mr	-8.77052
▁ब	-8.77059
▁biển	-8.77189
▁tướng	-8.772
".	-8.77313
▁hoàn	-8.77516
▁John	-8.77546
et	-8.7758
▁ज	-8.77886
▁around	-8.77898
▁पता	-8.77954
▁lúc	-8.7819
ỗi	-8.78495
▁म	-8.78499
▁2006	-8.78804
▁mạnh	-8.79179
▁शुरुआत	-8.79179
nếu	-8.79443
▁राष्ट्र	-8.79488
▁100	-8.79628
▁most	-8.79819
▁because	-8.79854
x	-8.8005
▁समर्थन	-8.80189
▁kỳ	-8.80189
▁đều	-8.80214
▁Cô	-8.80454
▁de	-8.80461
▁tay	-8.8057
▁अल	-8.80619
ây	-8.8062
▁xét	-8.80878
▁now	-8.80913
6	-8.81446
ne	-8.81846
as	-8.82041
ला	-8.82271
▁चार	-8.8232
▁trách	-8.82586
▁dầu	-8.82602
▁phóng	-8.82745
▁सेना	-8.82798
▁Bush	-8.82934
/	-8.82957
▁well	-8.83153
या	-8.83202
▁đóng	-8.83442
▁bán	-8.83843
▁chí	-8.83896
▁near	-8.83984
▁area	-8.83994
▁वर्त	-8.8405
▁k	-8.84125
▁second	-8.84155
▁J	-8.8419
▁down	-8.84504
▁mọ	-8.84548
▁sư	-8.85005
▁hưởng	-8.8508
▁told	-8.85118
▁bài	-8.8527
▁इराक	-8.8573
▁bạn	-8.85755
▁sáu	-8.85755
▁thúc	-8.85785
▁chất	-8.85818
्व	-8.86092
▁कार्य	-8.86113
▁both	-8.86114
▁rõ	-8.86116
▁say	-8.86148
ली	-8.86303
पूर्ण	-8.86527
▁just	-8.86831
▁Wikinews	-8.86835
▁thuộc	-8.86842
▁नए	-8.86881
am	-8.87042
▁An	-8.87064
▁प्रमुख	-8.87198
▁दावा	-8.872
्म	-8.87469
सी	-8.875
▁cộng	-8.87597
▁सामन	-8.87602
▁mục	-8.87609
▁Tuy	-8.87672
▁many	-8.87732
▁phán	-8.87747
▁कल	-8.87911
▁उम्मीद	-8.87922
ॉ	-8.88032
▁al	-8.88131
▁hoạch	-8.88292
▁vọng	-8.88292
▁कंपनी	-8.88292
▁पहली	-8.88342
▁स्थिति	-8.88471
▁मिलियन	-8.88667
▁statement	-8.88699
uồn	-8.88884
▁South	-8.89024
▁đàn	-8.89029
▁him	-8.89104
▁प्रति	-8.89182
▁व्यक्ति	-8.89203
▁24	-8.89217
▁cửa	-8.89301
▁attack	-8.89378
▁xuống	-8.89399
▁hạn	-8.89606
▁Nga	-8.8965
▁she	-8.89688
▁giúp	-8.89771
वे	-8.89772
ेन	-8.89893
्य	-8.89911
▁हाल	-8.89952
▁bà	-8.90065
▁London	-8.90144
▁tốt	-8.90361
▁châ	-8.90468
▁प्राप्त	-8.90518
um	-8.90656
ăn	-8.90873
▁local	-8.90897
▁r	-8.90979
▁tươ	-8.91124
il	-8.91149
gười	-8.91166
▁tích	-8.91279
▁khả	-8.9155
यह	-8.916
▁आरोप	-8.91603
▁including	-8.91679
▁हमार	-8.91821
▁vật	-8.92014
▁danh	-8.92041
▁nữa	-8.92152
▁take	-8.9227
▁17	-8.92287
▁su	-8.92291
▁cá	-8.92355
र्स	-8.92445
▁nỗ	-8.92562
▁16	-8.92631
▁मे	-8.92679
▁di	-8.92692
▁R	-8.92815
▁sân	-8.92821
▁cảm	-8.92878
▁भाग	-8.92901
▁xâ	-8.92944
▁प्रवक्ता	-8.9318
▁Obama	-8.9318
▁Australian	-8.93384
▁vậy	-8.93468
ies	-8.93527
▁कहन	-8.93561
▁thuốc	-8.93567
▁lửa	-8.93568
▁[	-8.93596
▁समूह	-8.93599
▁लेकर	-8.93621
▁Hiệ	-8.93672
▁bom	-8.93854
एस	-8.9388
▁đơn	-8.93955
▁announced	-8.93963
▁Năm	-8.93967
▁vô	-8.93989
▁giàn	-8.94032
▁mang	-8.94217
की	-8.94359
▁कहत	-8.94762
ting	-8.95011
▁अपना	-8.95065
▁tiết	-8.95136
▁part	-8.95237
ke	-8.95453
▁trẻ	-8.95522
▁back	-8.95754
ce	-8.9578
▁group	-8.95872
▁dài	-8.95915
ity	-8.95925
▁दूसरे	-8.96001
▁chế	-8.96045
▁video	-8.9622
▁gặp	-8.96315
▁dưới	-8.96316
▁ngay	-8.96327
▁Tây	-8.96812
▁Nam	-8.96993
▁सकती	-8.97111
▁diện	-8.97116
▁khủng	-8.97128
▁world	-8.97131
▁नाम	-8.97163
▁Thủ	-8.97262
▁says	-8.9729
▁our	-8.97519
▁đặc	-8.97528
ương	-8.9757
▁phút	-8.9793
▁World	-8.97937
फ़	-8.97954
▁due	-8.97977
▁day	-8.98163
▁trạng	-8.98319
▁nghiệm	-8.98321
▁tai	-8.98468
▁stated	-8.98483
ất	-8.98601
▁सि	-8.98646
▁विरोध	-8.98712
▁Âu	-8.98726
▁show	-8.98811
ंट	-8.98852
▁phâ	-8.98907
to	-8.98931
▁ओ	-8.99079
▁nghi	-8.99132
▁đặt	-8.99134
▁kh	-8.99229
▁Và	-8.99286
▁Ra	-8.99308
▁ख	-8.99358
▁tù	-8.99697
▁Sau	-8.99706
hose	-8.99878
O	-8.99934
▁बयान	-8.99961
▁तब	-8.99974
ton	-9.00132
▁hỗ	-9.0037
▁giết	-9.00373
▁संबंध	-9.00448
▁ला	-9.00458
▁bốn	-9.00476
uổi	-9.00687
▁military	-9.00784
▁Pháp	-9.00815
ेड	-9.00825
R	-9.00862
ती	-9.00927
▁फ़	-9.00944
▁đứng	-9.00947
▁saying	-9.01104
able	-9.01174
▁2003	-9.01197
▁khai	-9.01201
▁सदस्य	-9.01263
▁officials	-9.0133
▁ली	-9.01367
ie	-9.01415
▁आग	-9.01942
▁least	-9.02041
▁21	-9.02045
ले	-9.02076
▁lo	-9.02237
▁hạt	-9.02246
▁f	-9.0236
▁em	-9.02409
▁दुर्घटना	-9.02461
▁ký	-9.02462
▁nhau	-9.02464
▁thuật	-9.02468
▁Hội	-9.02468
ओ	-9.02529
▁phục	-9.02649
रा	-9.02732
▁St	-9.02873
▁trụ	-9.02926
▁tối	-9.03075
▁get	-9.03081
▁Đại	-9.0331
▁according	-9.03326
old	-9.0334
li	-9.03384
ख	-9.03401
▁kê	-9.03483
▁मिल	-9.03502
▁सप्ताह	-9.03737
▁सैनिक	-9.03761
▁Bắc	-9.03765
▁did	-9.03881
ent	-9.03898
▁died	-9.04057
▁योजना	-9.0413
▁four	-9.04134
▁company	-9.04167
▁hiệp	-9.04167
▁ऑफ	-9.04223
ंस	-9.04545
▁several	-9.04602
ment	-9.04774
▁देशों	-9.04839
▁कनाडा	-9.04898
▁कानून	-9.05022
▁National	-9.05031
ia	-9.05205
▁cái	-9.05324
▁end	-9.05366
▁बड़	-9.05402
▁bắn	-9.05465
E	-9.05477
▁đổ	-9.05729
▁Mười	-9.05902
K	-9.05974
्ट	-9.06154
▁अधिकारी	-9.06209
ba	-9.06312
▁Microsoft	-9.06341
▁पहुंच	-9.06348
▁दक्षिण	-9.06355
▁विस्फोट	-9.06434
ंड	-9.0657
कार	-9.06582
▁पांच	-9.06783
▁week	-9.06789
▁five	-9.06792
▁nguyên	-9.06805
▁come	-9.0701
▁जैसे	-9.071
▁reports	-9.07142
ll	-9.07226
▁tịch	-9.0725
▁प्रयास	-9.0731
▁used	-9.07485
▁मारे	-9.0754
▁संख्या	-9.07668
▁released	-9.07741
ộng	-9.07804
▁public	-9.07839
F	-9.07839
▁xử	-9.08116
▁विदेश	-9.08119
▁fire	-9.08149
▁इस्त	-9.08276
▁đáng	-9.08324
▁Lan	-9.08361
▁आप	-9.08407
▁you	-9.08476
▁Afghanistan	-9.08563
▁đoạn	-9.08564
▁यूरोप	-9.0857
▁Chủ	-9.08587
▁होता	-9.08611
▁Pakistan	-9.08823
▁यून	-9.08859
टी	-9.08942
▁next	-9.09013
▁mùa	-9.09028
pe	-9.09068
▁members	-9.09093
▁web	-9.09106
▁Bo	-9.09141
▁जाना	-9.09289
▁dùng	-9.09316
▁डॉलर	-9.09468
▁बजे	-9.09472
▁होगी	-9.09548
ta	-9.09665
▁giả	-9.09787
est	-9.09888
▁khiế	-9.09923
▁तेल	-9.09926
▁BBC	-9.09946
▁सा	-9.09947
ाई	-9.09957
▁विमान	-9.10057
▁जहा	-9.10075
▁सहायता	-9.10377
▁mở	-9.10414
▁chung	-9.1052
▁हमले	-9.10543
▁phí	-9.10796
▁वो	-9.10814
▁chuẩn	-9.10836
▁Nhật	-9.10848
▁Scotland	-9.10853
▁death	-9.10882
▁trích	-9.10897
▁Do	-9.10898
▁क्या	-9.10909
▁use	-9.10947
मा	-9.11071
ध	-9.11191
ेमाल	-9.11297
▁दिए	-9.113
▁nhập	-9.11302
▁hại	-9.11352
▁nghĩa	-9.11378
▁tố	-9.11474
▁Co	-9.11476
is	-9.11536
▁trực	-9.11767
▁number	-9.11803
▁प्रदर्शन	-9.11824
ीन	-9.11862
▁राष्ट्रीय	-9.11863
▁kẻ	-9.12229
▁make	-9.12619
▁बना	-9.12628
▁मुख्य	-9.12692
▁should	-9.12693
▁Prime	-9.12693
▁40	-9.12699
▁thẩm	-9.12708
▁वाला	-9.12849
nh	-9.12852
▁मार	-9.12864
▁tr	-9.1289
▁बढ़	-9.13075
▁सुबह	-9.13161
▁countries	-9.13162
▁băng	-9.1317
▁game	-9.13229
▁कार	-9.13321
▁Y	-9.13458
▁cứ	-9.13482
▁कार्यक्रम	-9.13636
▁quy	-9.13648
▁तौ	-9.13652
▁độc	-9.14008
▁hết	-9.1411
▁man	-9.14119
▁expected	-9.14187
▁called	-9.14313
▁khoa	-9.14317
पी	-9.14356
▁văn	-9.14505
▁these	-9.14548
▁दुनिया	-9.14583
▁mô	-9.1471
▁bàn	-9.14953
uộc	-9.14963
▁đạt	-9.15062
▁court	-9.15062
▁câu	-9.15138
▁result	-9.15141
▁tờ	-9.15162
un	-9.15432
▁hỏi	-9.15542
▁ज्यादा	-9.15542
▁oil	-9.15547
▁chịu	-9.15555
▁श्री	-9.15668
▁प्रभाव	-9.15902
▁न्यू	-9.15946
▁report	-9.15953
▁súng	-9.16026
▁घायल	-9.16026
▁अंतिम	-9.1603
son	-9.16095
▁हर	-9.16281
the	-9.16325
out	-9.1634
▁another	-9.16511
▁hướng	-9.16512
▁chấp	-9.16539
▁थीं	-9.16567
▁युद्ध	-9.16584
▁San	-9.16633
▁hồi	-9.16882
▁Re	-9.16926
▁bảy	-9.16999
▁đảo	-9.17001
▁ninh	-9.17008
▁thích	-9.17011
▁On	-9.17046
▁23	-9.17089
iều	-9.1721
▁Bản	-9.17283
It	-9.17307
ive	-9.17391
▁bại	-9.17489
▁still	-9.17497
▁हवाई	-9.17527
वर	-9.17559
▁ch	-9.17758
बी	-9.17782
age	-9.17983
▁chuyến	-9.17988
▁She	-9.1814
▁từng	-9.18222
▁head	-9.18358
▁जिन	-9.18378
▁तैयार	-9.18477
▁महीने	-9.18477
▁international	-9.18477
▁फैसल	-9.18477
▁अभियान	-9.18478
▁आवश्यकता	-9.18501
▁nổi	-9.18593
▁former	-9.18605
▁22	-9.18812
▁tả	-9.18914
▁dựng	-9.18961
▁held	-9.18976
▁California	-9.18987
▁Dân	-9.18995
▁took	-9.19026
▁करेंगे	-9.19045
id	-9.1914
ục	-9.19357
▁स्वास्थ्य	-9.19492
▁tỷ	-9.19499
▁city	-9.1953
▁रहने	-9.19548
▁कोशिश	-9.19613
▁nam	-9.19621
▁News	-9.19688
▁विश्व	-9.19973
▁phạt	-9.19977
▁president	-9.19991
▁रिकॉर्ड	-9.20482
▁bão	-9.20491
gử	-9.20542
▁sức	-9.20548
▁Họ	-9.20747
▁đe	-9.20879
▁đ	-9.20937
▁चला	-9.20948
मैं	-9.20996
▁करेगा	-9.21037
▁very	-9.21107
▁मामले	-9.21165
▁nghĩ	-9.21425
▁lợi	-9.215
▁British	-9.215
▁dục	-9.21569
▁आई	-9.21717
ian	-9.21852
▁बड़े	-9.21905
▁विशेष	-9.22005
▁nhằ	-9.22024
▁like	-9.22057
▁However	-9.22062
▁lộ	-9.22082
▁रखा	-9.22104
▁election	-9.22263
▁सेवा	-9.22351
▁water	-9.22372
▁home	-9.2243
▁hóa	-9.22528
▁हूं	-9.22528
▁Wikipedia	-9.22528
▁mỏ	-9.22541
▁Đức	-9.22542
िस	-9.22588
▁गोल	-9.22771
▁दे	-9.22951
ां	-9.22971
▁Phi	-9.23016
ul	-9.23085
▁27	-9.23163
▁माना	-9.2317
▁स्तर	-9.23177
▁प्रेस	-9.23185
▁áp	-9.23201
▁họp	-9.23331
di	-9.23363
▁won	-9.23578
▁đông	-9.23627
▁ग	-9.2374
▁At	-9.23774
▁Friday	-9.24091
▁Sáu	-9.24115
▁days	-9.24184
▁hãng	-9.24196
▁suc	-9.2427
hà	-9.24279
ै	-9.24438
स्ट	-9.2446
इ	-9.24467
ist	-9.24504
▁lệ	-9.24586
▁अस्पताल	-9.24617
▁thuận	-9.24627
ảnh	-9.24687
▁power	-9.24726
िश	-9.24892
▁Le	-9.25143
▁Google	-9.25147
▁lịch	-9.25152
▁बिना	-9.25212
▁Hồi	-9.25272
▁work	-9.25275
▁अंत	-9.2529
▁हमला	-9.25295
▁लगा	-9.25466
▁high	-9.25574
▁मिनट	-9.25678
▁tinh	-9.25686
▁खोज	-9.25841
▁phim	-9.25862
▁lệnh	-9.26229
▁चल	-9.26253
▁स्पष्ट	-9.26257
▁हास	-9.26269
ight	-9.2633
क्ष	-9.26632
एं	-9.26676
led	-9.26715
▁American	-9.26728
▁अंतर	-9.26735
▁जानकारी	-9.26752
▁तथा	-9.26753
▁ph	-9.26755
▁gắng	-9.26775
▁sao	-9.26831
▁सीमा	-9.26852
▁दूर	-9.26872
▁As	-9.2709
’	-9.27291
▁David	-9.27291
▁kiếm	-9.27291
▁महत्व	-9.27293
▁thảo	-9.27345
रो	-9.27368
ấn	-9.27374
year	-9.27433
▁बनाने	-9.27445
,000	-9.27625
▁chặn	-9.27726
▁hữu	-9.27834
▁nhỏ	-9.27836
▁मील	-9.27856
▁पाया	-9.27874
ằ	-9.27877
▁duy	-9.27886
▁Michael	-9.27898
▁party	-9.28185
▁hạ	-9.28204
▁घर	-9.28273
̉	-9.2838
▁lính	-9.28392
▁लगाया	-9.28401
▁Party	-9.28407
▁श	-9.28408
ow	-9.28418
▁nội	-9.28443
▁2000	-9.28444
de	-9.28494
▁half	-9.28496
▁incident	-9.28593
▁thanh	-9.28627
▁va	-9.28631
▁सदस्यों	-9.28848
▁House	-9.28897
▁परिणाम	-9.2893
▁प्रतिनिधि	-9.2893
▁soát	-9.2893
▁जापान	-9.28931
▁sóng	-9.28939
ca	-9.28959
á	-9.29264
▁शुक्रवार	-9.29483
▁China	-9.2949
▁ऑफ़	-9.29508
▁th	-9.29508
▁bé	-9.2951
बा	-9.29643
▁system	-9.29706
▁set	-9.29749
ếu	-9.29787
▁trăm	-9.3004
▁order	-9.30042
ate	-9.30062
▁tức	-9.30075
▁वापस	-9.30108
▁रात	-9.30316
▁Ma	-9.30384
▁Tư	-9.30405
▁सु	-9.3045
ường	-9.30524
▁भर	-9.30576
▁hủy	-9.306
▁ईरान	-9.30674
▁case	-9.3086
▁यू	-9.30864
गी	-9.30912
▁khó	-9.31065
ry	-9.31079
▁समाप्त	-9.31094
▁मदद	-9.31158
▁put	-9.31292
▁दल	-9.3134
▁पार	-9.31344
▁देखा	-9.31395
ine	-9.31428
डी	-9.31459
▁law	-9.31542
▁जल	-9.316
▁chơi	-9.31726
ân	-9.31761
▁lạc	-9.31793
tion	-9.31921
▁national	-9.31921
▁nh	-9.31965
?	-9.32093
▁chạy	-9.32292
▁information	-9.32293
▁phẩm	-9.32296
▁rộng	-9.3231
▁2010	-9.32362
▁मीडिया	-9.32394
▁xu	-9.32417
▁उ	-9.32493
▁इ	-9.32573
▁पद	-9.32841
▁ask	-9.3286
Ủ	-9.32863
अंतर्राष्ट्रीय	-9.32863
▁पुष्टि	-9.32866
▁सैन्य	-9.32869
▁thiếu	-9.32883
▁lưu	-9.32895
▁security	-9.32895
▁ब्रिटिश	-9.32895
▁रखने	-9.32912
▁biên	-9.32936
▁घंटे	-9.3297
इस	-9.32989
▁mố	-9.33204
▁X	-9.33223
▁De	-9.33272
.000	-9.33292
vi	-9.33374
▁phỏng	-9.33438
▁La	-9.33443
▁lead	-9.33623
ेट	-9.33662
▁start	-9.33713
▁help	-9.33758
थित	-9.33885
▁sơ	-9.34071
▁news	-9.34208
▁जॉन	-9.34215
▁ड	-9.34223
▁ca	-9.34384
▁way	-9.3442
▁लेने	-9.34452
▁hu	-9.34563
▁जिन्होंने	-9.34597
▁trái	-9.34597
▁संघ	-9.34612
▁thần	-9.34643
ông	-9.34679
▁विचार	-9.34692
रे	-9.34713
▁केंद्र	-9.34825
अगले	-9.35004
▁अलग	-9.35077
▁cấm	-9.35182
▁International	-9.35182
▁nguy	-9.35186
▁same	-9.35187
▁मैच	-9.35191
▁ngoại	-9.35199
hỏa	-9.35348
ड़	-9.35374
▁large	-9.35699
ill	-9.3572
ể	-9.35724
▁phi	-9.35744
▁नुकसान	-9.3577
▁Ban	-9.35815
▁media	-9.35836
▁biến	-9.35854
▁They	-9.35873
▁बे	-9.35879
को	-9.35967
▁200	-9.35984
▁स्थित	-9.36071
na	-9.36137
▁known	-9.3619
▁tá	-9.36259
▁current	-9.36271
▁80	-9.36346
▁women	-9.36362
▁yếu	-9.36372
▁पानी	-9.36382
▁tỉ	-9.36388
▁cánh	-9.36404
मेंट	-9.36436
▁x	-9.36771
▁सं	-9.36853
hẳng	-9.36869
▁chuyện	-9.36958
▁संभावना	-9.36985
▁प्रदा	-9.37046
▁my	-9.37292
▁vừa	-9.37556
▁kích	-9.37564
▁देते	-9.37647
▁Israeli	-9.37682
लैंड	-9.3782
ेशन	-9.37899
▁cư	-9.37964
▁cú	-9.37965
▁quản	-9.37991
▁came	-9.38095
▁cự	-9.3811
▁वजह	-9.38158
▁trò	-9.38165
▁doanh	-9.38181
▁nhạc	-9.38181
ish	-9.38249
▁taken	-9.38272
▁चीन	-9.38329
▁quay	-9.38399
▁स्कूल	-9.38404
जी	-9.38445
▁नेता	-9.38505
▁men	-9.38532
▁गोली	-9.38679
▁Thursday	-9.38764
▁nghiêm	-9.38764
▁टिप्पणी	-9.38764
▁प्रधानमंत्री	-9.38765
▁chuyê	-9.38891
▁रोक	-9.39131
▁छोड़	-9.39221
com	-9.39248
▁sớm	-9.39374
▁जवाब	-9.39374
▁लंदन	-9.39374
▁đủ	-9.39378
▁मार्च	-9.39385
▁मांग	-9.39389
▁सूचना	-9.3939
▁लगता	-9.39427
▁बनाए	-9.39485
ाइटे	-9.39517
उ	-9.39573
W	-9.39669
▁$	-9.39672
▁e	-9.39762
U	-9.39878
▁डेमोक्रेट	-9.39988
▁cháy	-9.39988
▁campaign	-9.39992
▁investigation	-9.39995
▁viết	-9.40036
क्स	-9.40102
▁vượ	-9.40112
सा	-9.40186
सन	-9.40276
ha	-9.40349
land	-9.40435
▁cụ	-9.40534
ol	-9.40592
▁per	-9.40596
▁मृत्यु	-9.40606
▁cổ	-9.40621
▁ngân	-9.40641
▁later	-9.40646
▁sửa	-9.41011
▁North	-9.41222
Ấ	-9.41226
▁समाचार	-9.41227
▁Police	-9.41227
▁अनुमान	-9.41236
▁chối	-9.41236
▁आने	-9.41282
▁win	-9.41292
ष	-9.41481
hượng	-9.41496
▁final	-9.41503
▁car	-9.41582
▁—	-9.41766
▁lái	-9.41787
▁dặm	-9.41851
▁समुद्र	-9.41851
▁left	-9.41851
▁region	-9.41853
▁तुलना	-9.41854
▁nhanh	-9.41854
▁thất	-9.41866
▁căn	-9.41901
Không	-9.42058
▁going	-9.42129
▁देख	-9.4213
▁long	-9.42141
up	-9.42461
▁go	-9.42478
▁अध्यक्ष	-9.4248
▁नीचे	-9.4248
co	-9.42484
▁सार्व	-9.42485
▁bạo	-9.42513
ởi	-9.42547
▁बल	-9.42552
▁पहला	-9.42567
▁thân	-9.42639
ờ	-9.42681
▁war	-9.42844
▁decision	-9.42855
ted	-9.42921
▁chú	-9.43074
▁event	-9.43107
▁riêng	-9.43113
▁ध्यान	-9.43113
▁early	-9.43113
▁nghệ	-9.43116
▁मौजूद	-9.43136
▁binh	-9.43163
ực	-9.43167
▁co	-9.43181
▁Indonesia	-9.43291
▁UN	-9.43312
ial	-9.43508
▁State	-9.43622
▁जिसने	-9.43716
चेतावनी	-9.4375
▁further	-9.4375
▁अनुमत	-9.43751
▁विभाग	-9.43753
गा	-9.43765
:00	-9.43863
▁Bảy	-9.43895
▁मुझे	-9.43902
▁व	-9.43956
▁बन	-9.43996
▁Việ	-9.4421
▁race	-9.44249
ghị	-9.44366
▁tượng	-9.44402
▁European	-9.44406
▁After	-9.4444
ter	-9.44484
▁मिला	-9.44491
▁vote	-9.4468
▁प्रस्ताव	-9.44907
▁unti	-9.44991
▁महिला	-9.44991
तर	-9.45008
▁Cơ	-9.45024
▁अध्ययन	-9.45036
▁ràng	-9.45038
▁cập	-9.4507
▁UTC	-9.45179
▁सी	-9.45462
hi	-9.45528
▁leader	-9.45547
▁phiê	-9.45593
no	-9.45596
▁निर्णय	-9.45685
▁प्रतिशत	-9.45685
▁प्रतिबंध	-9.45689
▁वर्षीय	-9.45844
त्व	-9.45854
▁pre	-9.46126
V	-9.4613
▁nặng	-9.46339
▁đoán	-9.46339
▁kỷ	-9.46345
▁chọn	-9.46402
▁ngô	-9.46444
▁tốc	-9.46522
भ	-9.46579
▁नई	-9.46583
▁bày	-9.46723
!	-9.46744
os	-9.46858
▁डी	-9.46929
▁अदालत	-9.46997
▁past	-9.46998
▁mua	-9.46998
ung	-9.47665
▁लग	-9.477
▁received	-9.47765
▁अधिकार	-9.47868
▁run	-9.47944
wa	-9.48046
वें	-9.48072
▁बम	-9.4826
▁dàn	-9.48266
▁मतदान	-9.48327
▁गंभीर	-9.48374
▁नेशनल	-9.48384
▁own	-9.48392
▁पक्ष	-9.48479
▁प्रभावित	-9.48503
ối	-9.48599
▁official	-9.48696
▁open	-9.48719
▁एन	-9.4878
▁हमें	-9.48973
▁control	-9.48997
▁children	-9.48997
▁2012	-9.49002
▁ई	-9.49008
▁पूरा	-9.49082
▁dis	-9.4911
do	-9.49113
▁km	-9.49116
▁बा	-9.49122
em	-9.49157
ới	-9.49362
▁Sa	-9.49367
प्र	-9.49399
▁see	-9.49536
▁Na	-9.49608
▁rơi	-9.49676
्र	-9.49683
▁months	-9.49775
▁life	-9.49775
जा	-9.49784
▁60	-9.49974
ard	-9.5013
▁allow	-9.5019
▁एंड	-9.50192
rời	-9.50268
▁yesterday	-9.50353
▁पीड़ित	-9.50353
▁संसद	-9.50355
▁तरीक	-9.50355
▁vong	-9.50357
▁dọa	-9.50368
स्क	-9.50406
▁पेश	-9.50409
-1	-9.50438
ors	-9.50514
▁lá	-9.50522
▁tải	-9.50536
ant	-9.50781
▁forces	-9.50881
▁Ho	-9.50915
▁morning	-9.51038
▁Monday	-9.51039
▁much	-9.51074
▁बढ़ा	-9.51318
▁परीक्षण	-9.51364
फी	-9.51474
da	-9.51482
ee	-9.51521
▁पी	-9.51664
▁बचाव	-9.51694
▁सजा	-9.51697
▁उत्तर	-9.51718
▁post	-9.51725
▁Internet	-9.51727
▁already	-9.51727
▁खुद	-9.51727
▁माध्यम	-9.51727
▁साक्षात्कार	-9.51727
▁हत्या	-9.51727
▁hiểm	-9.51729
▁बुश	-9.51736
▁bill	-9.51744
▁मध्य	-9.51827
▁Cup	-9.5185
▁There	-9.52309
▁within	-9.52391
▁गुरुवार	-9.52422
▁वृद्धि	-9.52422
▁संकेत	-9.52422
▁सोमवार	-9.52422
▁France	-9.52438
▁right	-9.52471
▁political	-9.5249
nd	-9.52511
▁मो	-9.52519
▁even	-9.52574
▁26	-9.52644
▁करती	-9.52661
▁chiếm	-9.53121
▁एजेंसी	-9.53121
वी	-9.53124
▁tưởng	-9.53135
▁Ch	-9.53216
▁निर्माण	-9.53305
▁One	-9.53308
▁रि	-9.5332
ling	-9.53488
र्ड	-9.5369
▁suốt	-9.53825
▁George	-9.53826
▁đảm	-9.53827
▁how	-9.53838
▁tỉnh	-9.53839
▁bức	-9.53851
ान	-9.53945
▁caused	-9.54013
▁जैस	-9.54055
▁संगठन	-9.54176
op	-9.54181
...	-9.54274
▁hy	-9.54321
▁nhì	-9.54497
▁bác	-9.54503
▁इसलिए	-9.54535
without	-9.54569
▁Thái	-9.54599
▁मिली	-9.54689
▁दर	-9.54743
▁May	-9.54837
▁मु	-9.54868
ach	-9.54878
▁cà	-9.55065
▁y	-9.55107
प्त	-9.55125
ho	-9.55151
▁गिर	-9.55197
ियन	-9.552
▁Sunday	-9.55249
▁injured	-9.55249
▁परमाणु	-9.55249
▁बावजूद	-9.55249
▁स्वीकार	-9.55249
▁हथियार	-9.55249
▁currently	-9.5536
स्त	-9.55465
▁28	-9.55599
▁minister	-9.55798
▁cha	-9.558
▁Ta	-9.55861
▁six	-9.55925
▁giống	-9.55968
▁वेबसाइट	-9.55968
▁occurred	-9.5597
▁xã	-9.55974
▁niên	-9.56017
▁move	-9.56242
▁me	-9.56394
▁Mo	-9.56467
▁hours	-9.56486
▁मैक	-9.56508
▁building	-9.56595
▁trì	-9.56689
▁McCain	-9.56693
▁ngoái	-9.56693
▁health	-9.56693
▁University	-9.56694
▁địch	-9.56697
▁however	-9.56698
▁विवाद	-9.56703
▁lễ	-9.56709
▁dead	-9.56721
▁nuclear	-9.56728
ầu	-9.56766
▁भीतर	-9.56813
▁31	-9.56861
▁होती	-9.56868
लो	-9.57204
▁ल	-9.57266
टर	-9.57343
▁member	-9.57387
▁major	-9.5741
▁kéo	-9.57423
▁đời	-9.57427
▁giam	-9.5747
▁rút	-9.57506
▁khá	-9.57528
▁Đông	-9.57549
▁पत्र	-9.57672
▁tám	-9.57715
ber	-9.5798
▁then	-9.57985
▁डे	-9.58084
▁उप	-9.5809
तृत	-9.58158
▁रक्षा	-9.58159
▁few	-9.58164
▁nhật	-9.5817
▁उल्लंघन	-9.5817
▁इजरायल	-9.58185
▁night	-9.58196
▁following	-9.58223
▁राजनीतिक	-9.58247
र्फ	-9.58269
uyên	-9.58327
▁पश्चिम	-9.58412
▁want	-9.58497
▁अगर	-9.58514
▁quanh	-9.58578
▁bảng	-9.58605
ाँ	-9.58671
▁close	-9.58773
▁2009	-9.58813
ô	-9.58838
0,000	-9.58867
▁cắt	-9.58899
▁thoại	-9.58899
▁अतिरिक्त	-9.58899
▁जगह	-9.58899
▁đích	-9.58901
▁Vụ	-9.58908
▁पीछे	-9.58972
▁human	-9.58993
▁हिस्सा	-9.59031
▁cực	-9.5911
▁एल	-9.59131
▁âm	-9.59133
▁हाउस	-9.5914
▁Tổ	-9.59212
वि	-9.59365
▁उड़ान	-9.59391
▁मि	-9.59401
▁cải	-9.5944
▁We	-9.59472
▁बिल	-9.59625
▁hậu	-9.59645
▁मंत्रालय	-9.59645
▁Gaza	-9.5965
ver	-9.5966
and	-9.59772
▁along	-9.59812
र्न	-9.59903
अ	-9.59916
▁minutes	-9.59975
▁play	-9.60077
▁môn	-9.60214
▁Su	-9.6034
▁earlier	-9.60397
▁England	-9.60397
▁gái	-9.60397
▁thử	-9.604
▁UK	-9.60447
▁बच्चों	-9.60447
▁विकास	-9.60463
▁Ng	-9.60488
▁added	-9.60489
▁बी	-9.60491
▁जीवन	-9.6055
▁कीमत	-9.60559
▁आया	-9.60571
▁जेल	-9.6067
▁attacks	-9.60672
ांश	-9.60759
▁Me	-9.60816
▁hav	-9.60908
▁tín	-9.61062
▁points	-9.61135
▁spokesman	-9.61155
▁foreign	-9.6116
▁market	-9.61161
▁March	-9.61219
▁चाहते	-9.61225
▁plane	-9.61392
▁huy	-9.61412
ाया	-9.61503
▁Russian	-9.61532
tra	-9.61584
rs	-9.61589
hầu	-9.61601
▁परिवार	-9.61614
ner	-9.61686
▁छ	-9.61737
▁शो	-9.61752
▁आधार	-9.6184
▁hit	-9.61867
ेज	-9.61892
▁loạt	-9.61918
▁ओबामा	-9.61918
▁कार्रवाई	-9.61918
▁प्रणाल	-9.61918
▁think	-9.61918
▁Wales	-9.61934
▁month	-9.61935
▁ब्रिटेन	-9.61954
▁Giá	-9.62012
▁arrested	-9.62041
ance	-9.62122
▁29	-9.62125
▁face	-9.6222
▁बढ़त	-9.62472
▁रन	-9.62559
▁वोट	-9.62667
▁आलोचना	-9.62687
▁Paul	-9.62697
▁Thế	-9.62698
▁thật	-9.6271
▁chiều	-9.6273
▁confirmed	-9.6275
▁निर्धार	-9.62757
▁उत्तरी	-9.62759
▁आए	-9.62774
यो	-9.62795
▁hạng	-9.62805
bi	-9.62899
▁given	-9.63012
▁ăn	-9.63021
ary	-9.63277
गो	-9.63386
▁यूएस	-9.63438
▁Japan	-9.63459
▁Palestine	-9.63463
▁good	-9.6347
▁तट	-9.63517
▁third	-9.63572
▁बैंक	-9.6358
▁main	-9.63629
▁ten	-9.63692
▁डि	-9.63729
▁पड़ा	-9.63854
▁far	-9.63889
▁रेस	-9.63903
▁त	-9.64081
▁hospital	-9.64134
▁उद्देश्य	-9.64244
▁ऊपर	-9.64244
▁पाकिस्तान	-9.64244
▁प्रवेश	-9.64244
▁वीडियो	-9.64244
▁ध	-9.64253
▁Dr	-9.64269
▁आयोजित	-9.64282
▁ngờ	-9.64285
▁involved	-9.6434
▁गिरफ्तार	-9.64573
▁पा	-9.64661
▁Di	-9.64679
áo	-9.64765
nce	-9.64813
▁Khi	-9.64824
▁Chiế	-9.64827
ेल	-9.6497
▁site	-9.64971
▁प्रक्रिया	-9.64996
▁goal	-9.65004
▁उपलब्ध	-9.65031
▁each	-9.65042
▁छह	-9.65059
▁bờ	-9.65165
▁बस	-9.652
▁जहाज	-9.65248
▁miles	-9.65255
ाय	-9.65426
▁call	-9.65536
▁change	-9.65716
▁website	-9.65728
▁recent	-9.65741
đầy	-9.65825
▁possible	-9.65825
▁Union	-9.65825
▁Howard	-9.65828
▁Ar	-9.65835
▁free	-9.65868
▁सात	-9.65975
▁thiện	-9.66164
ắc	-9.66426
▁tri	-9.66457
▁स्	-9.66479
ुल	-9.66494
आ	-9.66566
we	-9.66613
▁इंग्लैंड	-9.66625
▁तूफान	-9.66625
▁tuyển	-9.66627
▁तहत	-9.66631
▁yet	-9.66648
▁lost	-9.66685
he	-9.66686
▁West	-9.66687
▁सहित	-9.66735
▁एम	-9.66752
▁भारी	-9.66788
यू	-9.66808
▁hồ	-9.66816
▁tôn	-9.66825
▁sa	-9.66877
▁môi	-9.66904
▁press	-9.66923
▁कमी	-9.66934
एक	-9.66968
▁कुल	-9.66988
side	-9.67059
▁उम्मीदवार	-9.6708
50	-9.67114
▁hỏa	-9.67208
▁करके	-9.67325
▁तेज	-9.67329
▁भ	-9.67349
ेंस	-9.67353
▁संभाव	-9.67398
▁Brazil	-9.67431
▁Saturday	-9.67431
▁accident	-9.67431
▁chắn	-9.67431
▁ngại	-9.67431
▁Tòa	-9.67431
▁seven	-9.67432
▁प्रतिक्रिया	-9.67433
▁capital	-9.67435
▁Châu	-9.67436
▁look	-9.67446
▁भविष्य	-9.67469
red	-9.67486
▁lỗi	-9.67629
▁h	-9.67644
▁च	-9.67659
▁Bà	-9.67693
me	-9.67721
▁started	-9.67796
ana	-9.6784
ster	-9.67897
▁air	-9.68074
▁आम	-9.68116
▁interview	-9.6817
▁service	-9.68178
ेस	-9.68182
▁action	-9.68197
▁उच्च	-9.68243
▁फ्रांस	-9.68244
▁भूकंप	-9.68244
▁रविवार	-9.68244
▁trừ	-9.68244
▁आदेश	-9.68257
▁tiểu	-9.68274
▁Mark	-9.68293
▁चिंता	-9.68314
िर	-9.68358
ay	-9.68375
▁जाते	-9.68398
▁जाती	-9.68398
▁रोकने	-9.68418
▁đáp	-9.68463
्ड	-9.6848
ally	-9.68525
▁नि	-9.6861
▁đột	-9.68779
▁होना	-9.68856
▁वाल	-9.68936
▁Clinton	-9.69064
▁Washington	-9.69064
▁situation	-9.69064
▁नवंबर	-9.69064
▁đăng	-9.69067
▁कदम	-9.6907
▁thấp	-9.69071
▁परिवर्तन	-9.69094
▁बनाया	-9.69098
tor	-9.69181
▁Giáo	-9.69184
ận	-9.69257
▁Con	-9.69298
▁एयर	-9.69316
▁away	-9.69325
दा	-9.69425
▁ai	-9.69508
▁claims	-9.69732
▁Đà	-9.6983
▁So	-9.69856
▁lấy	-9.6989
▁पहचान	-9.6989
▁nhiệt	-9.69897
▁All	-9.69922
▁2001	-9.69928
▁cận	-9.69934
ot	-9.69982
▁Air	-9.69996
▁every	-9.70015
▁went	-9.70018
▁claimed	-9.70086
▁total	-9.70094
▁khăn	-9.70163
▁Qu	-9.70203
▁लड़क	-9.70317
▁नागरिक	-9.70366
▁attempt	-9.70411
▁need	-9.70421
▁able	-9.70506
▁November	-9.70724
▁शनिवार	-9.70724
▁trấn	-9.7074
▁सरकारी	-9.70748
▁संभव	-9.70797
ous	-9.70944
▁record	-9.71021
▁Ben	-9.71039
▁know	-9.71109
मुझे	-9.71394
ार	-9.71396
ập	-9.71408
▁समस्या	-9.71528
▁French	-9.71564
▁family	-9.71564
▁होंगे	-9.71566
▁प्रांत	-9.71573
▁tuyến	-9.71576
▁दस	-9.71693
▁meeting	-9.71739
ोर	-9.7177
ở	-9.71853
▁us	-9.71919
▁town	-9.71948
bo	-9.71956
्यू	-9.71982
▁pro	-9.72045
▁70	-9.72118
ran	-9.72143
▁truy	-9.72325
▁यद	-9.72367
▁नेटवर्क	-9.72412
▁अलावा	-9.72412
▁cãi	-9.72412
▁become	-9.72412
▁bổ	-9.72436
▁began	-9.72449
▁lương	-9.72505
▁कभी	-9.72542
▁biệ	-9.72548
▁No	-9.72688
▁old	-9.72749
▁Lo	-9.72982
▁0	-9.73122
▁रा	-9.73122
▁tỏ	-9.73204
▁35	-9.73262
▁Tuesday	-9.73266
▁जनवरी	-9.73266
▁जिम्मेदार	-9.73266
▁nửa	-9.73273
▁सुरक्षित	-9.73395
▁bước	-9.734
▁स्व	-9.73425
30	-9.73456
र्क	-9.73602
ell	-9.73643
्त	-9.73653
▁रे	-9.73742
ley	-9.738
यों	-9.73806
ेंट	-9.73839
▁top	-9.73934
▁release	-9.74058
▁Secretary	-9.74128
▁du	-9.74128
▁January	-9.74128
▁हालाँकि	-9.74128
▁मंगलवार	-9.74129
▁khắp	-9.74136
▁thuế	-9.74138
▁cạnh	-9.74147
▁2002	-9.74161
▁thăm	-9.74173
ù	-9.74242
▁sắ	-9.74264
tic	-9.74279
▁City	-9.7433
▁भेज	-9.74354
▁st	-9.74439
ac	-9.74444
▁ना	-9.74461
▁lao	-9.74474
▁रह	-9.74514
▁Romania	-9.74536
▁कह	-9.74589
▁Be	-9.74596
▁ताक	-9.74629
▁dấ	-9.7465
▁गैर	-9.74782
ud	-9.74817
▁match	-9.74963
▁shot	-9.74983
मैन	-9.74994
▁हवा	-9.75018
▁बैठक	-9.75213
ful	-9.75225
▁गु	-9.7532
▁To	-9.75443
▁हटा	-9.75447
▁Georgia	-9.75481
ौर	-9.75519
▁रूस	-9.75539
ty	-9.75571
▁others	-9.75624
▁Pa	-9.75651
▁areas	-9.7567
▁Department	-9.75875
▁Texas	-9.75875
▁न्यूजीलैंड	-9.75875
▁mươi	-9.75875
▁पैदा	-9.75878
▁thuyền	-9.75886
ौ	-9.75888
▁thuyết	-9.75892
▁Canadian	-9.75893
▁crew	-9.75894
va	-9.75896
▁करीब	-9.7594
पर	-9.75944
▁sent	-9.75954
▁सीनेटर	-9.75957
▁trial	-9.75984
▁Press	-9.76003
▁less	-9.76029
▁Ga	-9.76104
▁xa	-9.76124
▁कै	-9.76186
▁thải	-9.76374
▁tán	-9.76431
▁launch	-9.76503
ầm	-9.76646
This	-9.76648
▁does	-9.76713
▁Wednesday	-9.7676
▁cậu	-9.7676
▁mại	-9.7676
▁sẵn	-9.7676
▁ठीक	-9.7676
▁न्यूयॉर्क	-9.7676
▁विश्वविद्यालय	-9.7676
▁संदिग्ध	-9.7676
▁đài	-9.7676
▁गति	-9.7676
▁Court	-9.7676
▁percent	-9.76763
▁2011	-9.7677
▁xếp	-9.76775
▁process	-9.7682
ka	-9.76859
ियो	-9.76867
▁chín	-9.76928
▁Ha	-9.77007
▁इंटरने	-9.77035
िट	-9.77065
ंद	-9.77077
po	-9.77116
▁working	-9.77224
▁Peter	-9.7724
▁Ngà	-9.77254
▁dung	-9.77294
ev	-9.77295
ru	-9.77304
▁रो	-9.77425
▁states	-9.77437
▁continue	-9.77534
▁damage	-9.776
”	-9.77653
▁कर्मचारियों	-9.77653
▁द्वीप	-9.77653
▁लक्ष्य	-9.77653
▁phong	-9.77654
▁thổ	-9.77658
▁YouTube	-9.77685
▁पोस्ट	-9.77706
टो	-9.77761
▁troops	-9.77769
एम	-9.77818
▁देता	-9.77827
▁लगाने	-9.77877
▁rights	-9.77893
"।	-9.77924
▁Si	-9.78004
▁Times	-9.78044
▁जिनक	-9.78074
fa	-9.78159
▁कोर्ट	-9.78182
less	-9.78286
▁crash	-9.78295
▁Hà	-9.78323
▁protest	-9.78549
▁response	-9.78554
▁study	-9.78554
▁जुलाई	-9.78554
▁बुधवार	-9.78554
▁Fiji	-9.78554
ure	-9.78558
▁season	-9.78562
▁खबर	-9.78564
▁eight	-9.7857
▁school	-9.78574
▁महिलाओं	-9.78604
▁संघीय	-9.78634
end	-9.78649
▁lâu	-9.7866
▁पहुँच	-9.78679
▁स्ट	-9.78781
Đ	-9.78785
▁point	-9.78834
ạo	-9.78846
▁जाए	-9.78862
ph	-9.78875
▁Hu	-9.78939
▁trai	-9.79047
▁Viện	-9.79212
iêu	-9.79251
▁increase	-9.79337
▁मूल	-9.79377
▁मर	-9.79425
▁Hạ	-9.79463
▁đàm	-9.79463
▁đẩy	-9.79463
▁सम्मेलन	-9.79463
▁नीति	-9.79465
▁आठ	-9.79488
▁आधिकारि	-9.79505
▁billion	-9.79518
▁ngành	-9.79548
per	-9.79553
ler	-9.79574
ck	-9.79617
▁Ro	-9.79713
ak	-9.79829
▁45	-9.79854
ấu	-9.79874
ated	-9.79908
▁Syria	-9.7992
▁Russia	-9.79925
go	-9.79926
▁रूसी	-9.79929
लाइन	-9.79935
▁अपराध	-9.80017
▁provide	-9.80067
▁Gia	-9.80165
▁Lu	-9.8018
दी	-9.80216
▁सो	-9.80223
िस्ट	-9.80252
्टन	-9.80261
▁whether	-9.8038
▁यात्रा	-9.80381
▁July	-9.80381
▁क्षमता	-9.80381
▁evidence	-9.80381
▁कार्यालय	-9.80383
▁सुधार	-9.80385
▁शांति	-9.80397
▁taking	-9.80408
▁director	-9.80464
▁đêm	-9.80499
▁रिपब्लिकन	-9.80509
▁हिस्से	-9.80585
▁ज़	-9.80661
chia	-9.80673
नो	-9.80721
ga	-9.80748
▁300	-9.80757
▁EU	-9.80758
▁xin	-9.80827
▁board	-9.8093
पा	-9.81002
▁program	-9.81038
▁remain	-9.81071
▁El	-9.81167
▁small	-9.81217
goại	-9.81279
ết	-9.81297
▁ngừng	-9.81306
▁đúng	-9.81306
▁kỹ	-9.81311
▁dữ	-9.81317
▁chắc	-9.81326
ियर	-9.81332
▁tiện	-9.81341
र्ट	-9.81348
▁believed	-9.81414
▁हे	-9.81555
▁using	-9.81623
▁thờ	-9.81641
▁legal	-9.81678
▁India	-9.81775
ions	-9.81989
é	-9.82088
▁थ	-9.82168
▁person	-9.82197
ễ	-9.82197
ग्रस्त	-9.8221
▁सह	-9.82213
▁Government	-9.82241
▁staff	-9.82242
▁luyện	-9.82244
▁जाएगी	-9.82251
▁Apple	-9.82259
▁lòng	-9.82302
▁great	-9.82303
▁cause	-9.82495
▁form	-9.82572
▁पाए	-9.82591
▁Ka	-9.82635
▁अंक	-9.82826
▁pay	-9.82923
ov	-9.83
राष्ट्रीय	-9.83122
▁tuy	-9.83165
▁Ontario	-9.83184
▁September	-9.83184
▁project	-9.83184
▁मौसम	-9.83185
▁सचिव	-9.83185
▁आपातकाल	-9.83187
▁lai	-9.83218
▁nghe	-9.83223
▁mong	-9.83247
ाने	-9.83337
शन	-9.83371
ham	-9.83467
ोस	-9.83563
▁Am	-9.8357
▁सेंटर	-9.8362
▁बो	-9.83675
ष्ट	-9.8372
:30	-9.83725
▁सड़क	-9.83777
▁Bả	-9.83802
▁trao	-9.839
▁500	-9.83923
▁met	-9.84003
▁com	-9.84035
तः	-9.84133
▁aircraft	-9.84137
▁khỏe	-9.84137
▁दौड़	-9.84137
▁संपर्क	-9.84137
▁Tony	-9.84139
▁Mexico	-9.84151
▁making	-9.84158
▁Gi	-9.84174
्री	-9.84249
▁दूसरी	-9.8425
▁nền	-9.84261
▁qu	-9.84391
▁Man	-9.84424
र्थ	-9.84438
▁General	-9.84456
▁Se	-9.84672
hậm	-9.84712
▁33	-9.84756
ủy	-9.84843
40	-9.84951
▁khẩ	-9.84955
▁thoát	-9.85098
▁निदेशक	-9.85098
▁राजधानी	-9.85098
▁सितंबर	-9.85098
▁search	-9.85099
▁लड़ाई	-9.85109
▁enter	-9.8511
When	-9.85112
▁साइट	-9.85136
▁cầm	-9.85146
▁thought	-9.85248
▁thảm	-9.85279
ja	-9.8542
▁ô	-9.85439
रण	-9.85471
▁बच	-9.85481
▁सब	-9.85531
न्स	-9.85644
▁व्यक्त	-9.85657
▁मेल	-9.8567
▁Po	-9.85825
lin	-9.85827
▁सके	-9.85835
▁War	-9.85933
▁clear	-9.85976
▁again	-9.86039
▁across	-9.86069
▁1990	-9.86076
be	-9.86086
▁mẹ	-9.86094
▁ऑन	-9.86163
▁स्थापित	-9.86191
ên	-9.86251
J	-9.86329
▁बीमार	-9.86462
ư	-9.8648
दार	-9.8663
कों	-9.86666
िम	-9.86695
एल	-9.86867
▁October	-9.87049
▁nhiễm	-9.87049
▁policy	-9.87049
▁नियंत्रण	-9.87049
▁पर्यावरण	-9.87049
▁safety	-9.87053
▁Hamas	-9.87056
▁access	-9.87084
▁समान	-9.8715
▁मूल्य	-9.87161
वादी	-9.8736
▁Ko	-9.87531
▁họa	-9.87677
हर	-9.87764
ating	-9.87769
▁return	-9.8778
ành	-9.87782
▁कप	-9.87784
▁आरोपों	-9.87979
▁Senator	-9.88039
▁góp	-9.88039
▁Sydney	-9.8804
▁among	-9.8804
▁जिन्हे	-9.88041
▁अपील	-9.88042
▁प्रधान	-9.88049
▁thập	-9.88051
▁mềm	-9.88062
▁thao	-9.88063
▁sâu	-9.88072
▁mật	-9.88106
▁सामान्य	-9.8813
▁अरब	-9.88142
▁बदल	-9.88211
▁Nha	-9.88214
▁hi	-9.88308
▁90	-9.88329
▁bào	-9.88335
▁मामल	-9.88447
▁act	-9.88454
▁đồ	-9.88484
ật	-9.8858
za	-9.88665
▁coi	-9.88725
ần	-9.88841
▁results	-9.88873
▁Robert	-9.89029
một	-9.89035
▁thừa	-9.8904
▁वाहन	-9.8904
▁border	-9.8904
▁núi	-9.8904
▁storm	-9.8904
▁don	-9.89044
▁चुके	-9.89044
▁must	-9.89046
▁आर्थ	-9.8907
▁मुकदमा	-9.89071
ाव	-9.89071
▁chữa	-9.89072
▁February	-9.89076
▁चुका	-9.89091
▁जान	-9.8911
▁देना	-9.89114
ोव	-9.89258
▁मा	-9.89373
ाइट	-9.89439
▁निकल	-9.89447
▁होते	-9.8946
bu	-9.89465
▁TV	-9.89707
hở	-9.89847
.5	-9.89902
आर	-9.89908
▁दर्ज	-9.8992
20	-9.89937
▁बर्फ	-9.89971
टन	-9.90047
▁feet	-9.9005
▁Democratic	-9.90057
▁बिलियन	-9.90063
▁chứa	-9.90078
▁workers	-9.90102
▁bắc	-9.90109
▁Hô	-9.90147
▁authorities	-9.90157
ेंगे	-9.90162
क्षम	-9.90164
▁issued	-9.90174
ệ	-9.90253
▁जर्मनी	-9.90278
▁ब्र	-9.90304
▁टाइम	-9.9032
्च	-9.90333
▁charges	-9.90417
चर	-9.90464
ations	-9.90498
▁Có	-9.90613
▁America	-9.90615
टा	-9.90785
▁test	-9.90873
ists	-9.90969
▁लड़	-9.90997
▁डॉ	-9.91006
▁chạm	-9.9107
▁प्रस्तुत	-9.9107
▁coast	-9.9107
▁ném	-9.9107
▁tuyệt	-9.91073
▁Thổ	-9.91082
▁issue	-9.91095
▁train	-9.91269
ाना	-9.91273
्रो	-9.91309
▁cây	-9.91395
▁Da	-9.91463
▁side	-9.91497
▁got	-9.91536
ã	-9.91719
▁deal	-9.91768
ness	-9.92052
▁August	-9.92101
▁Council	-9.92101
▁अक्टूबर	-9.92101
▁अगस्त	-9.92101
▁ऊर्जा	-9.92101
▁money	-9.92102
▁बाढ़	-9.92106
▁miền	-9.92125
▁Taliban	-9.92159
all	-9.92201
con	-9.92248
▁लि	-9.92314
▁ex	-9.92328
ever	-9.92389
ánh	-9.92422
ấp	-9.92433
▁1,	-9.92464
क्र	-9.92514
बे	-9.92537
lan	-9.92589
▁phó	-9.92677
iễn	-9.92729
ình	-9.92842
▁पकड़	-9.93013
▁Ireland	-9.93143
▁conference	-9.93143
▁emergency	-9.93143
▁saw	-9.93164
▁हस्ताक्षर	-9.9318
▁lục	-9.93185
▁Smith	-9.93202
▁चालक	-9.93234
▁Park	-9.93255
ò	-9.93626
ick	-9.93636
मी	-9.93686
▁अप	-9.9379
line	-9.94035
▁लेख	-9.94137
▁network	-9.94196
▁एड	-9.94196
▁विकस	-9.94197
▁ground	-9.94201
विन	-9.94246
▁approximately	-9.94247
▁Z	-9.94276
▁काउंटी	-9.94282
ंतु	-9.94283
▁मजबूत	-9.94304
▁जून	-9.94327
▁largest	-9.94343
▁closed	-9.94375
▁aid	-9.94402
▁उत्	-9.94491
▁lạ	-9.94504
▁इंडोनेशिया	-9.94507
▁students	-9.94568
dy	-9.94624
▁इं	-9.94643
▁जि	-9.9468
▁चर्च	-9.94997
▁present	-9.95001
एन	-9.95029
दोषी	-9.95053
ठ	-9.95089
▁strong	-9.95177
▁prison	-9.95231
▁मुताबिक	-9.95259
▁iPhone	-9.95259
▁खराब	-9.95259
▁loài	-9.95259
▁series	-9.95261
▁तकनीक	-9.95263
▁virus	-9.95267
▁bomb	-9.95299
▁described	-9.95326
▁वास्तव	-9.95376
▁Nations	-9.95376
▁मानन	-9.95429
▁weapons	-9.95435
▁मई	-9.95454
यान	-9.95724
▁हार	-9.95814
▁$1	-9.95925
▁seen	-9.95995
▁strike	-9.96017
ôi	-9.96113
▁भारत	-9.96282
▁अनुभव	-9.96334
▁अनुरोध	-9.96334
▁James	-9.96334
▁outside	-9.96386
▁Two	-9.96407
▁माइकल	-9.96459
▁लाइन	-9.96466
▁Germany	-9.96475
ाद	-9.96552
▁इलाके	-9.96555
▁चर्चा	-9.96603
▁sai	-9.96619
▁मिले	-9.96621
रिक	-9.96702
▁cases	-9.96952
ft	-9.97003
▁give	-9.97019
ì	-9.97028
▁हमल	-9.97092
▁claim	-9.97094
यद	-9.97097
oun	-9.97135
▁based	-9.97187
à	-9.97225
̃	-9.97421
▁niệm	-9.97421
▁बल्कि	-9.97421
▁thái	-9.97421
▁June	-9.97421
▁हजार	-9.97421
▁keep	-9.97422
▁व्यापक	-9.97422
▁व्यापार	-9.97422
▁hải	-9.97424
▁hard	-9.97435
▁NASA	-9.97439
▁आशा	-9.97444
▁र	-9.97486
▁स्टेट्स	-9.97487
▁late	-9.9749
▁प्रकाशित	-9.97494
▁believe	-9.975
▁previously	-9.97507
▁मत	-9.97538
▁मीटर	-9.97586
▁thả	-9.97601
▁कानूनी	-9.97618
▁body	-9.97673
▁rule	-9.97729
▁Fa	-9.97815
एँ	-9.97905
▁Lee	-9.97968
▁pass	-9.97981
▁alleged	-9.98114
▁विल	-9.98267
न्	-9.98327
▁tô	-9.98383
▁business	-9.98485
▁companies	-9.9852
▁ghế	-9.9852
▁trại	-9.9852
▁तुरंत	-9.9852
▁सामग्री	-9.9852
▁demand	-9.9852
▁thưởng	-9.98533
▁Ý	-9.98537
▁hand	-9.98571
▁दूसरा	-9.98598
▁services	-9.98609
không	-9.98625
▁शव	-9.98629
▁घोष	-9.9865
▁line	-9.98847
▁Tom	-9.9885
kh	-9.9889
ab	-9.9896
मन	-9.9896
▁मार्क	-9.98977
ợp	-9.98986
▁Har	-9.99077
▁...	-9.99362
▁समझौत	-9.99364
▁Vi	-9.99442
ism	-9.99553
▁Iraqi	-9.99591
▁weeks	-9.99625
▁future	-9.99631
▁similar	-9.99631
▁suicide	-9.99631
▁उम्र	-9.99631
▁फिल्म	-9.99631
▁Center	-9.99632
▁Barack	-9.99635
▁quận	-9.99638
▁stop	-9.99667
▁प्रत्येक	-9.99672
▁बच्चे	-9.99703
fe	-9.99718
▁tệ	-9.99728
most	-9.99742
▁nông	-9.99764
hĩ	-9.99795
cre	-9.9991
▁ma	-9.99952
▁khuyế	-9.9997
▁Kho	-9.99986
▁आर	-10.0001
▁chóng	-10.0003
▁position	-10.0022
ook	-10.0025
▁&	-10.0027
ep	-10.0028
▁en	-10.0036
▁nhấ	-10.0047
▁find	-10.0047
han	-10.005
▁कोरिया	-10.0051
▁दूरी	-10.0056
ियां	-10.0063
▁lan	-10.0069
▁न्याय	-10.0072
▁Chris	-10.0074
▁वित्त	-10.0075
▁डेविड	-10.0075
▁भुगतान	-10.0075
▁संघर्ष	-10.0075
▁economic	-10.0076
▁hiểu	-10.0076
▁लागत	-10.008
▁खरीद	-10.0082
▁Phá	-10.0087
▁include	-10.0087
▁पुनर्	-10.0088
▁likely	-10.0096
▁rate	-10.0101
▁although	-10.0102
time	-10.0107
iến	-10.0122
▁fact	-10.0123
▁Giả	-10.0125
▁कु	-10.0128
▁Dan	-10.0135
▁खो	-10.0137
▁best	-10.0165
▁Mi	-10.0175
▁आवश्यक	-10.0184
▁research	-10.0186
▁April	-10.0189
▁luôn	-10.0189
▁nghỉ	-10.0189
▁sạn	-10.0189
▁đạn	-10.0189
▁film	-10.0189
▁Health	-10.0189
▁accused	-10.0189
▁opposition	-10.0189
▁community	-10.019
▁tuyết	-10.019
▁bring	-10.0193
भिन्न	-10.0194
▁बाजार	-10.0199
▁recently	-10.0202
j	-10.0207
▁candidate	-10.0215
▁शा	-10.0217
▁बचा	-10.0224
▁force	-10.0233
▁37	-10.0239
▁land	-10.0241
रि	-10.0241
र्ज	-10.0247
▁लाग	-10.0248
▁ga	-10.025
▁sea	-10.0252
▁conditions	-10.0254
▁स्टेट	-10.027
▁da	-10.0273
▁नौ	-10.0275
▁appear	-10.0278
▁target	-10.0278
▁ago	-10.0284
▁Ryan	-10.0304
▁कर्मचारी	-10.0304
▁क्षति	-10.0304
▁गवाह	-10.0304
▁quỹ	-10.0304
▁hút	-10.0304
▁television	-10.0304
▁am	-10.0307
▁बोल	-10.0312
▁talk	-10.0332
▁road	-10.0352
▁सही	-10.0362
▁câ	-10.0365
▁problems	-10.0374
..."	-10.0385
ूल	-10.0385
▁देर	-10.0389
▁direct	-10.0393
▁full	-10.0399
▁previous	-10.0411
▁ट	-10.0412
▁अव	-10.0413
▁स्वतंत्र	-10.0415
ुक	-10.0417
▁regard	-10.042
▁Parliament	-10.042
▁federal	-10.042
▁population	-10.042
▁fuel	-10.0421
▁nguyện	-10.0421
▁जहाँ	-10.0421
▁पार्क	-10.0421
▁मालिक	-10.0423
▁vẻ	-10.0423
▁mưa	-10.0423
▁गेम	-10.0424
▁Tạ	-10.0425
▁failed	-10.0428
▁With	-10.0431
▁वहां	-10.0432
▁trời	-10.0436
—	-10.0436
▁Gu	-10.0441
▁Los	-10.0446
▁Republican	-10.045
by	-10.0456
ंत	-10.0461
?"	-10.0461
▁खड़	-10.0477
▁इमारत	-10.0502
गल	-10.0505
den	-10.0531
Qaeda	-10.0538
▁Brown	-10.0538
▁available	-10.0538
▁बिजली	-10.0538
▁बेहतर	-10.0538
▁agency	-10.0538
▁संकट	-10.0538
▁दबाव	-10.0538
▁hiến	-10.0539
▁presidential	-10.054
▁thiên	-10.0542
पन्न	-10.0543
▁डाल	-10.0544
▁treatment	-10.0545
▁hoảng	-10.0559
▁chân	-10.0566
▁flight	-10.0569
मात्र	-10.0569
▁vai	-10.0572
▁cost	-10.0574
यर	-10.059
Nhưng	-10.059
ise	-10.0604
▁(1	-10.0611
ina	-10.0618
▁चोट	-10.0626
▁वा	-10.0626
ek	-10.0635
▁Ki	-10.0637
▁उपयोगकर्ता	-10.0644
▁रिहा	-10.0644
▁behind	-10.0657
▁लॉन्च	-10.0657
▁अंदर	-10.0657
▁स्कोर	-10.0657
▁अप्रैल	-10.0657
▁परिणामस्वरूप	-10.0657
▁आसपास	-10.0657
▁design	-10.0657
▁समुदाय	-10.0658
▁Ministry	-10.0658
▁vỡ	-10.0659
▁age	-10.066
▁दिखाई	-10.0662
गर	-10.067
▁जनरल	-10.0674
came	-10.0677
▁too	-10.0681
uch	-10.0686
ính	-10.0686
▁reach	-10.0693
िटी	-10.0711
▁times	-10.0716
▁đứ	-10.0717
ries	-10.0733
बर	-10.0737
▁II	-10.0747
▁कॉ	-10.075
ụy	-10.075
▁जी	-10.0767
▁December	-10.0778
▁appeal	-10.0778
▁ईंधन	-10.0778
▁उद्योग	-10.0778
▁न्यूज़ीलैंड	-10.0778
▁Group	-10.0778
▁स्कॉटलैंड	-10.0778
▁निवासियों	-10.0779
▁located	-10.0779
âu	-10.0782
▁होटल	-10.0784
▁ABC	-10.0784
mp	-10.0801
▁दवा	-10.0802
▁ích	-10.0805
▁nóng	-10.0809
▁operation	-10.0811
▁tây	-10.0813
▁And	-10.0828
▁जे	-10.0828
io	-10.0831
▁non	-10.0849
one	-10.0857
▁kháng	-10.0862
्टर	-10.0872
lay	-10.088
ack	-10.0886
▁Á	-10.0889
▁East	-10.0899
▁himself	-10.0899
▁इतिहास	-10.0899
▁कंपनियों	-10.0899
▁छोटे	-10.0899
▁दिसंबर	-10.0899
▁history	-10.09
▁हिंसा	-10.09
▁gió	-10.09
▁उपकरण	-10.09
▁Martin	-10.09
▁पर्या	-10.0901
▁chief	-10.0901
▁लाभ	-10.0902
▁ngược	-10.0902
▁White	-10.0902
▁County	-10.0903
▁Luật	-10.0908
▁scored	-10.0908
▁cường	-10.0909
▁उत्पादन	-10.0909
▁अच्छा	-10.0922
ide	-10.0922
▁sắc	-10.0923
ये	-10.0928
▁office	-10.093
Th	-10.0931
ाल	-10.0931
▁soldiers	-10.0933
▁cut	-10.0934
▁पत्रकारों	-10.0935
▁launched	-10.0935
▁name	-10.0938
▁try	-10.0947
सो	-10.0947
▁hour	-10.0957
▁32	-10.0976
▁क्रिस	-10.0979
▁thí	-10.0981
au	-10.0987
▁plans	-10.0988
▁पत्रकार	-10.0989
मो	-10.0997
▁prevent	-10.0997
▁plan	-10.1
▁hắn	-10.1023
▁spokesperson	-10.1023
▁despi	-10.1024
▁Jackson	-10.1024
▁phê	-10.1024
▁1999	-10.1024
▁scheduled	-10.1024
▁Mike	-10.1025
▁समिति	-10.1026
▁प्रशासन	-10.103
▁वेस्ट	-10.1032
▁actions	-10.1034
▁Phó	-10.1034
▁जिसकी	-10.1048
▁Sha	-10.1051
-2	-10.1053
▁किमी	-10.1065
बल	-10.1089
hần	-10.1114
ोन	-10.1129
▁issues	-10.113
wi	-10.1132
्रा	-10.1135
▁Nó	-10.1135
▁Queensland	-10.1148
▁disease	-10.1148
▁hát	-10.1148
▁rồi	-10.1148
▁sót	-10.1148
▁महसू	-10.1148
▁express	-10.1148
▁letter	-10.1148
▁जॉर्जिया	-10.115
▁यूरो	-10.115
▁हफ्ते	-10.1158
ical	-10.1162
▁Mar	-10.1168
▁low	-10.1173
▁nâ	-10.1174
िव	-10.1177
▁ट्रेन	-10.1178
▁2006.	-10.1179
art	-10.1184
▁victims	-10.1189
men	-10.1193
▁tạ	-10.1194
▁đợi	-10.1195
बो	-10.1199
▁हिल	-10.1201
▁नागरिकों	-10.1202
▁Dur	-10.1207
qu	-10.121
▁efforts	-10.1211
▁Ru	-10.1214
▁phậ	-10.1223
▁Nhâ	-10.123
▁दशक	-10.1238
▁đôi	-10.1241
आई	-10.1242
ác	-10.1249
▁इनका	-10.125
▁sứ	-10.1262
▁contract	-10.1275
▁violence	-10.1275
▁ऑपरेशन	-10.1275
▁इंटरनेशनल	-10.1275
▁Sudan	-10.1275
▁Britain	-10.1275
▁important	-10.1275
▁hơi	-10.1275
▁मिशन	-10.1275
▁यूनियन	-10.1277
▁ro	-10.1277
▁Sĩ	-10.1278
▁Tra	-10.128
▁Scientology	-10.128
▁Chi	-10.1281
▁Bar	-10.1292
▁Chú	-10.1297
▁देखने	-10.13
स्ट्र	-10.1306
ाह	-10.1308
▁interest	-10.1313
▁light	-10.1315
ik	-10.1323
▁Green	-10.1327
▁creat	-10.1336
$	-10.1362
▁बेच	-10.1378
▁deaths	-10.1392
▁Chín	-10.1393
ộ	-10.1394
म्प	-10.1401
क्क	-10.1402
▁Baghdad	-10.1403
▁Chinese	-10.1403
▁Toronto	-10.1403
▁bồ	-10.1403
▁अंतरिक्ष	-10.1403
▁परिषद	-10.1403
▁announcement	-10.1403
▁food	-10.1404
▁जन्म	-10.1404
▁agreement	-10.1404
▁उतर	-10.1405
▁चलते	-10.1408
▁stage	-10.1409
▁ग्रीन	-10.141
कल	-10.1412
▁Some	-10.1416
▁His	-10.1421
mer	-10.1425
▁वार	-10.1428
साथ	-10.1434
त्र	-10.1435
▁kì	-10.1441
▁round	-10.1446
वीं	-10.1447
az	-10.1451
▁ball	-10.1456
▁Du	-10.1459
▁बने	-10.1464
ko	-10.1467
▁phổ	-10.147
▁Pi	-10.1473
जे	-10.1476
ơ	-10.1484
▁Africa	-10.1487
म्ब	-10.1492
▁स्टेशन	-10.1498
▁बतात	-10.1505
▁suggest	-10.1507
▁पड़	-10.1519
ap	-10.1527
▁सफल	-10.1528
▁स्वयं	-10.1533
▁Committee	-10.1533
▁Landmark	-10.1533
▁bodies	-10.1533
▁तुर्की	-10.1533
▁परियोजना	-10.1533
▁विज्ञापन	-10.1533
▁respond	-10.1533
▁euro	-10.1533
▁speed	-10.1533
▁Hoàng	-10.1533
▁संदेश	-10.1533
▁gỡ	-10.1534
▁dâm	-10.1534
▁sợ	-10.1534
▁प्रकार	-10.1537
▁ट्र	-10.1538
mail	-10.1538
▁सिटी	-10.154
▁base	-10.1545
ॉन	-10.1546
▁विश्वास	-10.155
▁increased	-10.1551
▁residents	-10.1552
▁$2	-10.1556
▁groups	-10.1562
▁nation	-10.1563
▁लीग	-10.1567
ज़ा	-10.1571
▁estimate	-10.1574
▁judge	-10.1575
▁Palestinian	-10.1575
▁organization	-10.1575
▁लो	-10.1588
av	-10.1596
▁36	-10.1598
▁đau	-10.1615
▁लगाता	-10.1621
्टी	-10.1632
▁मानव	-10.1642
▁55	-10.1653
▁short	-10.1655
▁हमने	-10.1664
▁Kevin	-10.1664
▁Lebanon	-10.1664
▁tồn	-10.1664
▁न्यायाधीश	-10.1664
▁trữ	-10.1665
▁सवाल	-10.1666
▁suất	-10.1668
▁Johnson	-10.1668
▁sàng	-10.1669
▁तरफ	-10.1675
▁48	-10.1677
▁commented	-10.168
▁Tà	-10.1681
ức	-10.1683
▁continued	-10.1683
ोल	-10.1685
▁कैस	-10.1689
▁front	-10.1689
▁passed	-10.1695
▁बोर्ड	-10.1699
▁lũ	-10.17
▁cam	-10.1702
ship	-10.1702
▁driver	-10.171
▁Ali	-10.1711
▁hà	-10.1718
काल	-10.1721
ùng	-10.1733
ris	-10.1734
▁tàn	-10.1736
ास	-10.1756
▁elections	-10.1759
▁quán	-10.1764
ker	-10.1766
मेल	-10.1769
▁meet	-10.1773
ff	-10.1779
▁chó	-10.1781
▁स्कॉट	-10.1797
▁Church	-10.1798
▁dừng	-10.1798
▁nắ	-10.1798
▁किलोमीटर	-10.1798
▁फरवरी	-10.1798
▁महीनों	-10.1798
▁रोमानिया	-10.1798
▁उल्लेख	-10.1798
▁mission	-10.1798
▁Kingdom	-10.1798
▁अवसर	-10.1798
▁thăng	-10.1798
▁loạn	-10.1798
▁technology	-10.1798
▁दक्षिणी	-10.1799
▁Ross	-10.1799
hóm	-10.18
▁बाल	-10.1803
▁space	-10.1805
▁वास्तविक	-10.1806
▁इस्लाम	-10.1807
▁woman	-10.1808
▁Ca	-10.1811
ैन	-10.1814
▁tràn	-10.1816
ju	-10.182
▁hope	-10.1822
▁ngọ	-10.1824
▁Act	-10.1832
▁भेजा	-10.1839
▁users	-10.1839
▁Olympic	-10.1843
mon	-10.1845
▁toward	-10.1847
har	-10.1854
hiều	-10.1855
▁lot	-10.188
ाइन	-10.19
iss	-10.1905
▁rescue	-10.1919
▁trốn	-10.1922
▁general	-10.1923
मार	-10.1924
▁spoke	-10.1933
▁Florida	-10.1933
▁dõi	-10.1933
▁global	-10.1933
▁scene	-10.1933
▁दोपहर	-10.1933
▁व्यवसाय	-10.1933
▁blast	-10.1933
▁खतरा	-10.1933
▁mét	-10.1933
▁hè	-10.1933
▁दायर	-10.1934
▁Andrew	-10.1934
▁majority	-10.1935
▁2006,	-10.1936
▁parties	-10.1937
▁amount	-10.1944
í	-10.1945
▁ha	-10.1962
sang	-10.1964
जो	-10.197
ea	-10.1972
▁सम	-10.1977
▁बर	-10.1978
▁effect	-10.198
▁क्ल	-10.1983
ंच	-10.1987
ê	-10.1993
▁che	-10.1998
ó	-10.2002
▁journalists	-10.2003
▁turn	-10.2006
▁anti	-10.2016
ेहद	-10.2016
ther	-10.2017
▁गलत	-10.2025
र्ग	-10.2033
्वे	-10.2038
▁600	-10.204
▁दौर	-10.2045
▁For	-10.2046
▁w	-10.2053
▁imp	-10.2053
▁airline	-10.2061
▁Columbia	-10.207
▁independent	-10.207
▁responsible	-10.207
▁ग्रुप	-10.207
▁विस्तार	-10.207
▁जमीन	-10.207
▁heavy	-10.207
▁करेगी	-10.207
▁सुनिश्चित	-10.207
▁missing	-10.207
▁trào	-10.207
▁आपूर्ति	-10.207
▁Adam	-10.207
▁खर्च	-10.207
▁Christian	-10.2075
ite	-10.2076
▁Bank	-10.2076
▁tu	-10.2081
▁चाहता	-10.2081
▁जॉर्ज	-10.2081
▁stay	-10.2083
▁मान	-10.2088
ess	-10.2089
▁बनाई	-10.2089
▁छात्रों	-10.209
िक्स	-10.2094
ॉट	-10.2101
▁34	-10.2102
▁मेरे	-10.2102
नया	-10.2103
field	-10.2107
▁needed	-10.2112
▁Hàn	-10.2114
▁पूर्वी	-10.2124
▁मार्ग	-10.2133
ign	-10.2135
डर	-10.2142
▁inside	-10.2153
शा	-10.216
▁đươ	-10.2161
ern	-10.2168
ल्ड	-10.2179
मे	-10.2181
▁gi	-10.2187
ỉ	-10.2189
ging	-10.2198
▁difficult	-10.2207
िरासत	-10.2208
▁travel	-10.2208
▁earthquake	-10.2209
▁energy	-10.2209
▁ngồi	-10.2209
▁period	-10.2209
▁आदमी	-10.2209
▁paper	-10.2209
▁वार्ता	-10.2209
▁रेडियो	-10.2209
▁1997	-10.2209
▁ho	-10.221
▁भूमिका	-10.221
▁जाएंगे	-10.2211
▁kịch	-10.2211
▁Mc	-10.2212
▁kênh	-10.2212
ॉल	-10.2215
▁published	-10.2216
▁यूके	-10.2216
▁डॉक्टर	-10.2219
▁स्प	-10.2222
▁included	-10.2224
▁बढ़ाने	-10.2236
▁book	-10.2238
▁Bay	-10.2242
ble	-10.2253
▁सैन	-10.2254
!"	-10.2258
▁drug	-10.226
▁तोड़	-10.226
▁tax	-10.2267
▁Indian	-10.2268
▁Williams	-10.2276
▁एस	-10.2277
▁सेंट	-10.228
25	-10.2283
▁thủy	-10.2285
gen	-10.2288
पो	-10.2292
▁showed	-10.2297
बारी	-10.2304
क्त	-10.2314
▁trán	-10.2314
▁visit	-10.2322
▁loss	-10.2348
▁Thomas	-10.2349
▁message	-10.2349
▁software	-10.2349
▁व्यवहार	-10.2349
▁buýt	-10.235
▁development	-10.2351
वन	-10.2352
▁never	-10.2353
▁send	-10.2356
▁gain	-10.2358
▁shooting	-10.2358
▁tạp	-10.2359
▁affected	-10.2363
les	-10.2363
ino	-10.2369
▁khẩu	-10.237
▁mine	-10.2371
ex	-10.2373
uân	-10.2385
ारिज	-10.2404
▁टे	-10.2419
▁Korea	-10.2446
द्ध	-10.2451
▁field	-10.2454
▁Star	-10.2461
che	-10.2463
▁फैल	-10.2466
▁ever	-10.2469
ेरी	-10.247
▁शीर्ष	-10.2477
▁सीनेट	-10.2479
▁serious	-10.2483
▁Europe	-10.2489
▁प्रसार	-10.2489
▁giấy	-10.2492
▁murder	-10.2492
▁mắt	-10.2492
▁किंगडम	-10.2492
▁विजेता	-10.2492
▁सिस्टम	-10.2492
▁Blair	-10.2492
▁कटौती	-10.2492
▁मानवाधिकार	-10.2492
▁सबूत	-10.2493
▁कार्यकारी	-10.2493
▁व्यक्तिगत	-10.2494
▁दिखाया	-10.2494
▁पैमान	-10.2494
▁Hải	-10.2495
▁victory	-10.2495
▁lâ	-10.2495
▁sẻ	-10.2496
▁लाख	-10.2496
▁nối	-10.2498
▁vợ	-10.2499
▁kính	-10.25
▁role	-10.2504
▁Bill	-10.2506
▁कॉल	-10.2508
▁पायलट	-10.2508
ात	-10.251
▁thẳng	-10.2513
▁additional	-10.2516
▁75	-10.252
▁पोल	-10.2521
â	-10.2524
▁trying	-10.2525
que	-10.2525
▁पुरुषों	-10.2526
▁2,	-10.2529
▁चलाने	-10.2531
▁chấn	-10.2531
था	-10.2536
Các	-10.254
▁đương	-10.2545
▁document	-10.2547
▁union	-10.2562
rit	-10.2564
hương	-10.2565
▁level	-10.2565
off	-10.2571
▁अच्छ	-10.2578
▁मै	-10.2585
▁bank	-10.2593
▁Ja	-10.2594
्सन	-10.2595
गन	-10.2597
▁sign	-10.2603
स्टर	-10.2608
▁addition	-10.2613
▁gas	-10.2619
▁अनु	-10.2627
▁हाई	-10.2629
ose	-10.2636
▁1980	-10.2637
▁NATO	-10.2637
▁Security	-10.2637
▁mẫu	-10.2637
▁speech	-10.2637
▁जाँच	-10.2637
▁मुश्किल	-10.2637
▁Yahoo	-10.2637
▁credit	-10.2637
▁different	-10.2637
▁disaster	-10.2637
▁खदान	-10.2638
▁lưới	-10.2638
▁Quân	-10.2639
▁देगा	-10.2641
▁अड्डे	-10.2642
▁अफगानिस्तान	-10.2643
my	-10.2644
▁इज़राइल	-10.2644
▁Santa	-10.2644
ही	-10.2645
▁Dự	-10.2648
▁nhắc	-10.2649
▁सीरिया	-10.2651
▁forward	-10.2655
▁sông	-10.2657
लर	-10.266
▁बजाय	-10.2664
▁प्रशिक्ष	-10.2666
▁धन	-10.2667
▁Go	-10.2672
▁आउट	-10.2676
▁thua	-10.2684
▁bi	-10.2685
▁Red	-10.2693
▁problem	-10.2696
▁रोग	-10.2725
वाद	-10.2726
way	-10.2726
▁टो	-10.2729
▁But	-10.2734
ắp	-10.2734
▁bù	-10.2737
▁फॉर	-10.2737
▁निकाल	-10.2745
▁वकील	-10.2748
▁teams	-10.275
▁खुलास	-10.2752
▁suffer	-10.2756
▁Sea	-10.2779
▁रख	-10.2783
▁Chicago	-10.2784
▁सत्ता	-10.2784
▁CEO	-10.2784
▁Education	-10.2784
▁brought	-10.2784
▁families	-10.2784
▁penalty	-10.2784
▁tầng	-10.2784
▁điệp	-10.2784
▁कांग्रेस	-10.2784
▁बिक्री	-10.2784
▁अफ्रीका	-10.2784
▁lượt	-10.2784
▁कोलंबिया	-10.2784
▁Senate	-10.2785
▁injuries	-10.2785
▁चरण	-10.2785
▁1998	-10.2785
▁declared	-10.279
▁Nội	-10.2791
▁Victoria	-10.2793
▁filed	-10.2793
▁Tám	-10.2793
nder	-10.2795
▁killing	-10.2796
▁खात	-10.2799
वधि	-10.2799
▁khích	-10.2803
▁chỉnh	-10.2804
▁signed	-10.281
▁break	-10.2811
ám	-10.2819
▁sung	-10.282
ांत	-10.2824
गत	-10.2826
–	-10.2831
▁share	-10.2842
▁स्टार	-10.2855
▁हिस्स	-10.2873
▁51	-10.2875
▁Arab	-10.2879
▁thù	-10.2887
Đâ	-10.2888
ँ	-10.2889
▁38	-10.2893
ised	-10.2894
▁fight	-10.2897
▁Pe	-10.2907
ả	-10.2915
▁सलाह	-10.2932
▁broadcast	-10.2933
▁together	-10.2933
▁अवैध	-10.2933
▁बातचीत	-10.2933
▁लौट	-10.2933
▁विकिन्यूज़	-10.2933
▁श्रृंखला	-10.2933
▁सुझाव	-10.2933
▁GMT	-10.2933
▁trưng	-10.2933
▁बजट	-10.2933
▁Hussein	-10.2934
▁xúc	-10.2934
▁enough	-10.2934
▁शासन	-10.2935
▁तर्क	-10.2935
▁nhớ	-10.2935
▁4.	-10.2936
▁mẽ	-10.2937
▁matter	-10.2937
▁camera	-10.2939
▁đâm	-10.294
▁लॉ	-10.2945
िका	-10.2952
घ	-10.2952
बीबीसी	-10.2956
▁टीवी	-10.2961
ế	-10.2962
▁विज्ञान	-10.2964
भाव	-10.2968
.6	-10.2979
ten	-10.2982
X	-10.2983
based	-10.2984
दर	-10.302
▁मारा	-10.3022
▁Mah	-10.3031
▁सूच	-10.3039
▁गर्म	-10.304
ược	-10.305
बड़ा	-10.3054
▁चा	-10.3055
▁प्रयासों	-10.3055
▁expect	-10.3059
▁टा	-10.306
▁coming	-10.3071
▁समूहों	-10.3073
▁illegal	-10.3076
▁thác	-10.3077
▁अन	-10.3077
▁जीता	-10.3083
▁significant	-10.3084
▁Cruise	-10.3085
▁Reuters	-10.3085
▁cướp	-10.3085
▁industry	-10.3085
▁गठबंधन	-10.3085
▁निर्माता	-10.3085
▁carbon	-10.3085
▁यात्री	-10.3085
▁lawsuit	-10.3085
▁सुनवाई	-10.3085
▁liệt	-10.3085
▁एयरलाइन	-10.3086
▁Grand	-10.3087
▁Port	-10.3088
▁Cả	-10.3088
▁Thống	-10.3088
▁host	-10.3089
▁न्यूज़	-10.3092
▁"[	-10.3093
▁ổn	-10.3099
▁tắc	-10.3102
▁finished	-10.3104
लिन	-10.3108
▁Whil	-10.3109
▁online	-10.3111
▁आतंकवादी	-10.3113
▁जुड़े	-10.3113
▁400	-10.3113
▁मुकदमे	-10.3113
▁एशिया	-10.3114
▁rest	-10.3115
They	-10.3116
▁reached	-10.3118
मेशा	-10.3123
▁सीम	-10.3127
▁£	-10.3135
अलग	-10.3138
$1	-10.3141
▁threat	-10.3146
▁Island	-10.3147
▁concerns	-10.3147
▁गा	-10.315
▁province	-10.3152
hợ	-10.3157
ef	-10.316
ेगा	-10.3163
▁प्रो	-10.3172
ring	-10.3183
▁घरों	-10.3185
▁Hy	-10.3185
0.000	-10.3185
▁consider	-10.3185
▁पुरुष	-10.3203
्यु	-10.3207
▁निध	-10.3213
▁बेन	-10.3228
▁FIFA	-10.3239
▁crisis	-10.3239
▁lụt	-10.3239
▁tồi	-10.3239
▁खिलाड़ी	-10.3239
▁समीक्षा	-10.3239
▁đào	-10.3239
▁review	-10.3239
▁giấu	-10.3239
▁1995	-10.324
▁xuyên	-10.3241
▁chờ	-10.3242
▁सीध	-10.3242
▁bus	-10.3242
▁lật	-10.3242
▁शिक्षा	-10.3242
ीकरण	-10.3244
▁ngầm	-10.3245
▁बारिश	-10.3245
▁स्वतंत्रता	-10.3246
gh	-10.3259
tin	-10.3259
ice	-10.3269
▁Inc	-10.3278
▁ब्ल	-10.3283
▁Cho	-10.3285
▁allowed	-10.3298
▁leaders	-10.3302
शु	-10.3302
▁परि	-10.3303
▁explosion	-10.3305
ằng	-10.3306
▁condition	-10.3314
▁रिपोर्टों	-10.3319
वार	-10.3319
मर	-10.3322
ney	-10.3326
ỗ	-10.3328
▁cuố	-10.3334
17	-10.3334
▁Za	-10.335
▁named	-10.336
CA	-10.3362
तम	-10.3366
▁peace	-10.3385
▁đê	-10.3387
▁राज	-10.3393
ese	-10.3394
▁young	-10.3395
▁Zimbabwe	-10.3395
▁gốc	-10.3395
▁uống	-10.3395
▁विकिपीडिया	-10.3395
▁executive	-10.3395
▁burn	-10.3395
▁निशान	-10.3395
▁बदलाव	-10.3396
▁lẽ	-10.3396
▁मात्रा	-10.3398
▁खाल	-10.3402
▁nine	-10.3402
ऊ	-10.3406
▁followed	-10.3408
▁dây	-10.3411
तीत	-10.3411
▁दोस्त	-10.3412
fer	-10.3415
▁पॉल	-10.3417
▁live	-10.3418
▁लिखा	-10.3418
▁सोच	-10.3419
इन	-10.3424
▁question	-10.3438
▁khảo	-10.344
▁áo	-10.3441
▁done	-10.3448
कृत	-10.345
▁स्थल	-10.3452
▁account	-10.3464
▁सर	-10.3468
▁leading	-10.3471
▁Trậ	-10.3477
▁शे	-10.3477
If	-10.3477
sa	-10.3488
ब्र	-10.3497
▁care	-10.3502
हमें	-10.3505
rious	-10.3509
▁लैंड	-10.3525
ward	-10.3527
▁arrest	-10.3528
▁वापसी	-10.3534
ẻ	-10.3538
▁thú	-10.3542
ढ	-10.3543
▁सक्रिय	-10.3548
ार्ड	-10.3553
▁Facebook	-10.3554
▁Venezuela	-10.3554
▁cross	-10.3554
▁शिकायत	-10.3554
▁mưu	-10.3554
▁lawyer	-10.3554
▁hổ	-10.3554
▁Force	-10.3556
▁निजी	-10.3556
▁क्लब	-10.3557
▁लोकप्रिय	-10.356
▁गैस	-10.356
▁here	-10.3562
▁Dương	-10.3564
▁rò	-10.3565
▁USD	-10.3565
▁required	-10.3566
▁ship	-10.3567
▁उठा	-10.3571
्ले	-10.3572
▁रखते	-10.3575
▁thượng	-10.3577
▁मानत	-10.3579
▁noted	-10.3582
▁Stan	-10.3588
अप	-10.3588
▁chu	-10.3592
▁Lao	-10.3593
▁seem	-10.3604
▁अस	-10.3612
▁डब्ल्यू	-10.3625
▁vehicle	-10.3626
tar	-10.364
ize	-10.3647
▁योगदान	-10.3651
ory	-10.3651
ियल	-10.3651
mark	-10.3657
▁दिखा	-10.367
▁मैन	-10.3674
▁लगे	-10.3679
▁join	-10.3688
▁cản	-10.3689
▁class	-10.3695
▁पहुंचा	-10.37
▁विफल	-10.3709
ghiên	-10.3713
▁तीसर	-10.3713
▁Colombia	-10.3715
▁hoãn	-10.3715
▁village	-10.3715
▁क्लिंटन	-10.3715
▁गिरावट	-10.3715
▁टेलीविजन	-10.3715
▁प्रयोग	-10.3715
▁compar	-10.3715
▁मुस्लिम	-10.3715
▁single	-10.3715
▁Scottish	-10.3716
▁Army	-10.3716
▁đò	-10.3717
▁hotel	-10.3717
▁rỉ	-10.3717
▁सम्मान	-10.3717
▁इतन	-10.3717
▁proposed	-10.3717
▁khắc	-10.3718
ढ़	-10.3718
▁भाष	-10.3719
▁तय	-10.372
▁pressure	-10.372
▁गईं	-10.3722
▁potential	-10.3723
▁popular	-10.3723
▁बेल	-10.3724
10	-10.3726
▁band	-10.3726
▁child	-10.3728
▁Post	-10.3729
धान	-10.3731
▁changes	-10.3733
▁बैंड	-10.3734
▁सुन	-10.3735
▁League	-10.3738
▁considered	-10.3742
win	-10.3748
▁đợ	-10.3769
▁याद	-10.3775
▁जन	-10.3783
▁price	-10.3791
▁कितन	-10.3802
▁prices	-10.3803
▁नाव	-10.3816
▁manage	-10.3816
▁–	-10.3827
▁operations	-10.3834
ệt	-10.3838
गे	-10.384
कारी	-10.384
100	-10.384
ंध	-10.3841
▁रिक	-10.3843
▁ice	-10.3845
ron	-10.3849
coming	-10.3851
▁leg	-10.3852
ah	-10.3861
▁संचाल	-10.3865
▁prior	-10.3878
▁राय	-10.3878
▁डो	-10.3878
▁Afghan	-10.3879
▁lớp	-10.3879
▁पत्नी	-10.3879
▁mother	-10.3879
▁wife	-10.3879
▁स्पेस	-10.388
▁quần	-10.388
▁Angeles	-10.3881
ified	-10.3881
▁lựa	-10.3881
for	-10.3883
iya	-10.3883
▁वर्ग	-10.3884
▁bí	-10.3885
▁charged	-10.3888
nes	-10.3888
▁English	-10.3888
▁करें	-10.3889
▁42	-10.389
▁57	-10.3891
ổ	-10.3894
▁रेड	-10.3903
▁soon	-10.3907
वल	-10.3917
lock	-10.392
द्	-10.3947
ề	-10.3951
▁सीट	-10.3953
▁thiệu	-10.3953
शील	-10.3957
▁Ke	-10.3958
▁list	-10.3958
He	-10.396
▁officer	-10.3962
▁William	-10.3966
ear	-10.3966
▁officers	-10.3968
गु	-10.3977
डे	-10.3983
▁King	-10.3985
▁वेब	-10.3991
▁जल्द	-10.3994
▁चौथ	-10.4002
ized	-10.4007
▁इलाक	-10.4008
▁Steve	-10.4009
▁term	-10.4014
ven	-10.4019
af	-10.4022
▁German	-10.4024
▁जोड़	-10.404
तु	-10.404
▁Associat	-10.4041
org	-10.4043
▁experience	-10.4045
▁rock	-10.4046
▁1991	-10.4046
▁Melbourne	-10.4046
▁budget	-10.4046
▁dậy	-10.4046
▁hứa	-10.4046
▁nại	-10.4046
▁अर्थव्यवस्था	-10.4046
▁आबादी	-10.4046
▁कार्यवाही	-10.4046
▁कैलिफोर्निया	-10.4046
▁धमकी	-10.4046
▁पुरस्कार	-10.4046
▁यात्रियों	-10.4046
▁संदेह	-10.4046
▁समारोह	-10.4046
▁either	-10.4046
▁father	-10.4046
▁प्रतियोगिता	-10.4046
▁crime	-10.4046
▁ruling	-10.4046
▁Royal	-10.4046
▁bãi	-10.4046
▁गवर्नर	-10.4046
▁warned	-10.4046
▁đọc	-10.4046
▁thiểu	-10.4046
rd	-10.4047
▁nearby	-10.4048
ैक	-10.4048
▁vời	-10.4049
▁better	-10.405
▁जनता	-10.4052
▁phái	-10.4054
वां	-10.4061
▁उनसे	-10.4072
▁upon	-10.4074
▁गार्ड	-10.4078
▁2005.	-10.4082
dge	-10.4087
▁पैर	-10.4088
▁thousands	-10.4092
▁island	-10.4095
▁सूची	-10.4095
▁Per	-10.4096
▁Pro	-10.4101
board	-10.4115
▁hư	-10.4121
▁2008.	-10.4123
▁source	-10.4126
▁नामक	-10.4133
There	-10.4137
▁पिता	-10.4138
▁trade	-10.4146
▁sub	-10.4151
▁मुद्द	-10.4154
▁डर	-10.4161
▁house	-10.4169
▁real	-10.417
05	-10.4189
▁song	-10.4189
▁address	-10.4189
▁Wal	-10.4196
▁mã	-10.4198
▁defend	-10.4202
यन	-10.4212
▁step	-10.4213
▁चीज	-10.4213
▁Congress	-10.4215
▁conflict	-10.4215
▁dứt	-10.4215
▁progress	-10.4215
▁rừng	-10.4215
▁निष्कर्ष	-10.4215
▁impact	-10.4215
▁snow	-10.4215
▁focus	-10.4215
▁administration	-10.4215
▁planned	-10.4215
▁रॉबर्ट	-10.4215
▁financial	-10.4216
▁lĩnh	-10.4216
▁Northern	-10.4216
▁extra	-10.4216
▁sỹ	-10.4217
▁rối	-10.4219
▁đuổi	-10.4219
▁Boeing	-10.4223
▁Hill	-10.4226
uy	-10.4227
▁निश्चित	-10.4232
▁course	-10.4234
एफ	-10.4247
ez	-10.4247
▁2.	-10.425
▁ad	-10.4265
ier	-10.427
▁played	-10.4274
▁passengers	-10.4279
▁Jo	-10.4279
▁न्यूज	-10.4281
टोनी	-10.4289
स्थल	-10.4292
ंप	-10.4292
▁More	-10.4297
▁journalist	-10.4302
▁station	-10.4303
▁sources	-10.4305
▁leave	-10.4307
स्थ	-10.4329
ुआ	-10.4342
▁चिकित्सा	-10.435
▁पूर्ण	-10.4355
▁Chỉ	-10.4355
ỷ	-10.4375
▁score	-10.4375
07	-10.4376
▁hoa	-10.4379
are	-10.4386
▁Manchester	-10.4388
▁Twitter	-10.4388
▁trạm	-10.4388
▁काउंसिल	-10.4388
▁विधेयक	-10.4388
▁internet	-10.4388
ाइल	-10.4388
▁Wikileaks	-10.4388
▁सेकंड	-10.4388
▁बराबर	-10.4388
▁Alexand	-10.4388
▁Simon	-10.4388
▁Western	-10.4389
▁डेटा	-10.4389
▁hầm	-10.4389
▁वर्ण	-10.4389
▁Jack	-10.4389
▁sút	-10.439
▁शरी	-10.4394
▁chậm	-10.4396
▁track	-10.4396
▁मलबे	-10.4397
▁जैक	-10.4398
▁निर्देश	-10.4399
▁अत्यधिक	-10.4401
ल्ट	-10.4401
▁trượ	-10.4403
▁माता	-10.4403
ịch	-10.4404
▁Gra	-10.4404
त्म	-10.4406
फा	-10.4406
▁People	-10.4406
▁successful	-10.4413
▁नो	-10.4421
▁voted	-10.4422
▁dòng	-10.4423
▁parts	-10.4429
▁घ	-10.443
▁150	-10.443
▁Ad	-10.4433
लिंग	-10.4434
हमार	-10.4448
▁African	-10.4449
km	-10.4458
Y	-10.4462
▁đền	-10.4465
▁once	-10.4467
▁effort	-10.4474
▁cóc	-10.4482
▁lives	-10.4486
्वान	-10.449
रन	-10.4501
ey	-10.4504
▁विपक्ष	-10.4504
▁tour	-10.4507
res	-10.451
▁nations	-10.451
▁प्रदर्शनकार	-10.4522
▁candidates	-10.4523
भी	-10.4534
पार्ट	-10.4537
▁गाय	-10.4541
ाइड	-10.4541
ारा	-10.4552
▁ngàn	-10.4555
▁Ph	-10.4557
▁Sp	-10.456
▁star	-10.4563
नियंत्रित	-10.4563
▁Taiwan	-10.4563
▁economy	-10.4563
▁phẫu	-10.4563
▁कैंसर	-10.4563
▁चैनल	-10.4563
▁private	-10.4563
▁विषय	-10.4563
▁Coast	-10.4563
▁आत्मघात	-10.4563
▁đỡ	-10.4564
▁Japanese	-10.4564
▁युवा	-10.4564
अक्सर	-10.4564
▁rocket	-10.4565
ियम	-10.4565
▁भर्त	-10.4565
▁आपदा	-10.4566
▁nộp	-10.4566
▁Jim	-10.4566
▁data	-10.4568
▁टकरा	-10.4574
▁really	-10.4577
▁किस	-10.4579
▁thai	-10.4583
▁lower	-10.4583
▁घटनाओं	-10.4583
▁नियमों	-10.4587
▁idea	-10.4588
▁longer	-10.4588
▁मुक्त	-10.4589
▁Hã	-10.4591
▁प्रस्तावित	-10.4598
▁Day	-10.4606
▁WHO	-10.4606
Q	-10.4619
▁runs	-10.4621
▁cúm	-10.4623
tri	-10.4628
सि	-10.4636
&	-10.464
मार्क	-10.4641
▁card	-10.4642
▁create	-10.4644
▁परिवारों	-10.4646
▁सै	-10.4647
वान	-10.4648
▁Muslim	-10.4652
▁chance	-10.4656
▁lack	-10.4657
ल्फ	-10.4659
ủ	-10.4663
कर्ताओं	-10.4668
▁view	-10.4677
▁बुर	-10.4681
ities	-10.4681
▁लगी	-10.4685
▁दु	-10.4686
▁mộ	-10.4692
▁चीनी	-10.4694
ल्स	-10.4706
▁Ri	-10.4708
▁वी	-10.4711
▁though	-10.4715
▁अपहरण	-10.4717
well	-10.4718
▁Mac	-10.4721
▁buồn	-10.4723
ेयर	-10.4726
hăm	-10.4729
▁Republic	-10.4738
▁Richard	-10.4741
▁Foundation	-10.4742
▁Philippines	-10.4742
▁Street	-10.4742
▁dạng	-10.4742
▁tsunami	-10.4742
▁संपत्ति	-10.4742
▁always	-10.4742
▁denied	-10.4742
▁tộc	-10.4742
▁ढंग	-10.4742
▁यूनिवर्सिटी	-10.4742
▁deliver	-10.4742
▁Justice	-10.4742
▁why	-10.4742
▁running	-10.4742
oreign	-10.4742
▁construction	-10.4742
▁रॉकेट	-10.4742
▁gather	-10.4742
▁production	-10.4743
▁buôn	-10.4743
▁phone	-10.4744
ार्मिक	-10.4744
▁शोध	-10.4744
▁क्रॉस	-10.4745
▁वेल्स	-10.4747
▁इच्छा	-10.4749
▁नेताओं	-10.4753
▁Bob	-10.4753
▁आधे	-10.4754
▁fourth	-10.4757
▁male	-10.4757
▁tàng	-10.4759
▁पीटर	-10.4761
▁लंबे	-10.4762
ôn	-10.4763
cal	-10.4767
▁tường	-10.477
▁khóa	-10.4771
▁वही	-10.4773
▁nghì	-10.4773
▁भूमि	-10.4777
▁मुद्दे	-10.4778
▁बनने	-10.4778
▁छोड़ने	-10.478
▁employees	-10.4781
▁your	-10.4785
▁बेस	-10.4788
▁पालन	-10.4792
eld	-10.4799
▁लाप	-10.4804
▁job	-10.4805
▁Kh	-10.4806
ult	-10.4808
▁Jan	-10.481
▁Pat	-10.4816
▁होकर	-10.4821
▁màu	-10.483
▁Sri	-10.4832
▁risk	-10.4833
▁Thứ	-10.4837
▁chấ	-10.4842
▁मॉ	-10.4844
day	-10.4846
ya	-10.4847
▁Mat	-10.485
▁जेन	-10.4859
MS	-10.4861
▁MP	-10.4863
▁घंट	-10.4864
cha	-10.4865
▁उत्पाद	-10.4872
18	-10.489
▁son	-10.4893
▁हि	-10.4898
▁games	-10.49
▁समझ	-10.491
▁दा	-10.491
▁पै	-10.491
ời	-10.4912
▁मौ	-10.4915
▁गेंद	-10.4915
कर्ता	-10.492
+	-10.4923
▁Abbott	-10.4923
▁Federal	-10.4923
▁Moscow	-10.4923
▁Windows	-10.4923
▁council	-10.4923
▁ngắn	-10.4923
▁struck	-10.4923
▁vốn	-10.4923
▁असफल	-10.4923
▁इलाज	-10.4923
▁खाद्य	-10.4923
▁मिसाइल	-10.4923
▁वाशिंगटन	-10.4923
▁हूँ	-10.4923
▁AWB	-10.4923
▁medical	-10.4923
▁social	-10.4923
▁resolution	-10.4924
▁उपचार	-10.4924
▁चुकी	-10.4924
▁hiếp	-10.4924
▁severe	-10.4924
ेस्ट	-10.4924
▁आयोग	-10.4924
▁department	-10.4924
▁khổ	-10.4925
्रे	-10.4925
▁nêu	-10.4926
▁special	-10.4927
▁लेबर	-10.4927
-4	-10.4928
▁ति	-10.4931
▁value	-10.4931
▁big	-10.4932
▁1,000	-10.4935
▁Honda	-10.4936
▁सेवाओं	-10.4936
▁फिलिस्तीनी	-10.4942
▁tổn	-10.4948
हा	-10.4952
▁ड्राइवर	-10.4955
ji	-10.4956
▁रहते	-10.4957
▁environmental	-10.4958
इल	-10.496
▁phe	-10.4966
देश	-10.4971
्ज	-10.4973
▁crashed	-10.4976
▁लिख	-10.4993
forced	-10.5
▁hoàng	-10.5005
▁:	-10.5008
vo	-10.5022
tru	-10.5035
रल	-10.5037
ển	-10.504
▁phối	-10.5046
▁màn	-10.5051
ford	-10.5058
ोट	-10.5058
▁broke	-10.5062
những	-10.5064
▁सवार	-10.5067
▁हाथ	-10.5077
▁block	-10.5088
▁Li	-10.5089
q	-10.509
mar	-10.5091
▁protect	-10.5099
▁remains	-10.51
▁link	-10.5106
▁High	-10.5108
▁Gordon	-10.5109
▁Radio	-10.5109
▁तापमान	-10.5109
▁विकल्प	-10.5109
▁संविधान	-10.5109
▁हड़ताल	-10.5109
▁Cassini	-10.5109
▁सर्वश्रेष्ठ	-10.5109
▁साउथ	-10.5109
▁Rudd	-10.5109
▁सहायक	-10.5109
▁poor	-10.5109
▁Francisco	-10.5109
▁content	-10.5109
▁सुनामी	-10.5109
▁Singh	-10.5109
▁chỗ	-10.511
▁growth	-10.511
▁Alex	-10.511
▁giây	-10.5111
▁Institute	-10.5111
▁Đôn	-10.5111
▁संधि	-10.5111
▁देंगे	-10.5112
▁rise	-10.5113
▁chiếu	-10.5114
▁agreed	-10.5115
▁Tiên	-10.5116
▁समस्याओं	-10.5117
▁annual	-10.5117
▁criticism	-10.5119
▁ahead	-10.5132
▁Or	-10.5133
▁हटाने	-10.5137
ेंड	-10.5142
▁appeared	-10.5151
▁Tiến	-10.5162
▁critical	-10.5165
▁विरोधी	-10.5166
▁Pu	-10.5169
▁wanted	-10.5174
▁अगल	-10.5174
In	-10.5178
▁पदक	-10.518
▁44	-10.5195
Một	-10.5196
पूर्व	-10.5197
50,000	-10.5202
▁indicat	-10.5203
वेल	-10.5206
▁north	-10.5206
▁individual	-10.5208
▁friend	-10.5209
ue	-10.5212
-0	-10.5215
▁laws	-10.5215
▁article	-10.5216
▁43	-10.5217
aged	-10.5225
▁Ai	-10.5228
छ	-10.5235
▁महा	-10.5239
▁dụ	-10.5239
▁decid	-10.5249
▁टी	-10.5257
▁rain	-10.5259
▁जुड़	-10.5259
▁लगाए	-10.5264
ough	-10.5268
▁flood	-10.527
केट	-10.5285
जाया	-10.5287
▁भू	-10.5293
ारियो	-10.5294
टल	-10.5295
▁Buffalo	-10.5297
▁Middle	-10.5297
▁Singapore	-10.5297
▁व्हाइट	-10.5297
▁Safety	-10.5297
▁committee	-10.5297
▁female	-10.5297
▁lừa	-10.5297
▁separate	-10.5297
▁weather	-10.5297
▁इज़रायल	-10.5297
▁ओलंपिक	-10.5297
▁पसंद	-10.5297
▁nuôi	-10.5297
▁quarter	-10.5297
▁खतरे	-10.5297
▁तलाश	-10.5297
▁चुनौती	-10.5297
▁संस्करण	-10.5298
▁ưu	-10.5298
▁Virginia	-10.5298
▁vui	-10.5299
▁cannot	-10.5299
▁stating	-10.5299
▁lược	-10.53
▁Agency	-10.53
▁हमास	-10.5301
▁gave	-10.5301
▁बहस	-10.5302
▁check	-10.5303
▁Iranian	-10.5304
रेट	-10.5305
▁nhẹ	-10.5305
▁सफलता	-10.5306
▁पूछा	-10.5306
▁Sir	-10.5306
▁अर्थ	-10.5306
▁manager	-10.5311
▁bar	-10.5316
▁đức	-10.5319
▁removed	-10.5321
▁सिर	-10.5328
बर्ग	-10.5328
▁Marc	-10.5334
▁Space	-10.5339
▁safe	-10.5347
-3	-10.5349
21	-10.535
uck	-10.5351
जीवित	-10.5353
▁parliament	-10.5367
▁things	-10.5367
14	-10.5379
▁दोष	-10.5379
वायु	-10.5389
▁कोच	-10.5392
TV	-10.5411
ited	-10.5412
ú	-10.542
▁qui	-10.5431
▁talks	-10.5444
निक	-10.5459
▁Office	-10.5462
▁प्रकाश	-10.5462
▁represent	-10.5463
▁stand	-10.5463
▁conduct	-10.5464
▁इसी	-10.5473
▁unit	-10.5473
▁कठिन	-10.5474
▁cover	-10.5475
▁schools	-10.5485
▁साब	-10.5486
▁दस्तावेज	-10.5487
▁carrie	-10.5489
▁south	-10.5489
▁Turk	-10.5489
▁Ferrari	-10.549
▁Guantanamo	-10.549
▁School	-10.549
▁Seattle	-10.549
▁little	-10.549
▁टेक्सास	-10.549
▁पूछताछ	-10.549
▁प्रतिस्पर्धा	-10.549
▁यौन	-10.549
▁Hòa	-10.549
▁answer	-10.549
▁district	-10.549
▁jury	-10.549
▁इटली	-10.549
▁felt	-10.549
▁अभियोज	-10.549
▁something	-10.549
▁किशोर	-10.549
▁न्यायालय	-10.549
▁Ryanair	-10.549
▁maintain	-10.549
▁जरूरत	-10.549
▁तीव्रता	-10.5491
▁क्यों	-10.5491
▁वादा	-10.5491
▁सुपर	-10.5492
▁दस्तावेज़	-10.5492
▁cancer	-10.5492
▁sóc	-10.5492
▁Rice	-10.5493
▁immediately	-10.5495
▁Association	-10.5495
▁सुविधा	-10.5495
▁संशोधन	-10.5495
▁discovered	-10.5496
▁वर्ल्ड	-10.5499
ंडा	-10.5502
▁didn	-10.5503
दान	-10.5506
▁conducted	-10.5516
▁वैज्ञानिकों	-10.552
धार	-10.552
▁भीड़	-10.5525
▁आह	-10.5527
▁suggested	-10.5528
▁फाइनल	-10.5533
▁अच्छे	-10.5536
ood	-10.5536
▁means	-10.5541
▁east	-10.5541
▁contain	-10.5543
anh	-10.5544
नारे	-10.5551
▁votes	-10.5561
ड़ा	-10.5563
▁request	-10.557
ple	-10.5575
वाल	-10.5577
port	-10.5577
▁Win	-10.5581
▁Joe	-10.5582
पिता	-10.5584
ग्रह	-10.5584
▁कार्ड	-10.5585
▁caus	-10.5589
back	-10.5593
▁receive	-10.5593
Họ	-10.5594
▁fear	-10.5597
▁मां	-10.5609
▁levels	-10.5609
▁art	-10.5627
▁Q	-10.5641
▁जर्मन	-10.5641
▁वाइ	-10.5644
ग्न	-10.5648
लंबी	-10.5652
▁tiề	-10.5658
▁limit	-10.566
32	-10.5664
▁reduce	-10.5676
▁leav	-10.5679
▁author	-10.568
ũng	-10.5681
▁protests	-10.5681
▁जोर	-10.5682
goài	-10.5683
▁Mir	-10.5683
▁LHQ	-10.5686
▁Official	-10.5686
▁Serbia	-10.5686
▁attention	-10.5686
▁operating	-10.5686
▁themselves	-10.5686
▁transport	-10.5686
▁आशंका	-10.5686
▁जोखिम	-10.5686
▁पाउंड	-10.5686
▁ống	-10.5686
▁living	-10.5686
▁Philip	-10.5686
▁feel	-10.5686
▁allegations	-10.5686
▁ठहराया	-10.5687
▁Ne	-10.5687
▁duyệt	-10.5687
▁respect	-10.5687
▁दावे	-10.5687
▁Flight	-10.5687
▁đệ	-10.5688
▁coach	-10.5688
▁सत्र	-10.5688
▁वायरस	-10.5688
▁Other	-10.5688
▁sụp	-10.569
:45	-10.569
▁सहमति	-10.5692
▁Loan	-10.5693
▁Haiti	-10.5696
▁Anna	-10.5697
▁thách	-10.5698
▁ओवर	-10.57
▁निवासी	-10.57
▁ví	-10.5702
नि	-10.5703
FA	-10.5703
▁Liberal	-10.5704
▁हवाला	-10.5705
शाली	-10.5706
िज	-10.5712
▁gra	-10.5714
▁बहुम	-10.573
▁civilians	-10.5731
▁डाला	-10.5731
चित्र	-10.5735
ray	-10.5742
▁room	-10.5745
can	-10.575
inh	-10.5751
▁आधारित	-10.5757
je	-10.5765
10,000	-10.5769
▁center	-10.5769
त्मक	-10.5772
▁worked	-10.5782
▁indicate	-10.5785
ोप	-10.5788
▁लु	-10.5795
▁एडम	-10.5802
ून	-10.5808
▁डा	-10.5809
▁chủng	-10.581
ॉर्	-10.5815
▁minute	-10.5817
▁एक्स	-10.5819
▁ड्राइव	-10.582
AC	-10.5821
▁attacked	-10.5824
▁nhắ	-10.5827
▁पो	-10.583
lthough	-10.584
▁owner	-10.5846
▁होम	-10.5847
▁शक्ति	-10.5848
▁fall	-10.5857
▁finish	-10.586
▁bin	-10.5861
▁discuss	-10.5861
▁If	-10.5863
ain	-10.5867
rate	-10.5869
▁फा	-10.587
▁tụ	-10.5871
▁hôn	-10.5875
▁entire	-10.5876
्षिक	-10.5877
▁beat	-10.5878
ặp	-10.5884
▁वॉ	-10.5885
▁गर्भ	-10.5886
▁Discovery	-10.5886
▁guilty	-10.5886
▁mừng	-10.5886
▁responsibility	-10.5886
▁senior	-10.5886
▁आकर्ष	-10.5886
▁एसोसिएशन	-10.5886
▁कंप्यूटर	-10.5886
▁प्रगति	-10.5886
▁बलात्कार	-10.5886
▁वैश्विक	-10.5886
▁सिडनी	-10.5886
▁CNN	-10.5886
▁begin	-10.5886
▁secretary	-10.5886
▁अधिनियम	-10.5886
▁Airport	-10.5886
▁प्रचार	-10.5886
▁संग्रह	-10.5886
▁toán	-10.5887
▁आंतर	-10.5887
▁climate	-10.5887
▁traffic	-10.5887
▁Wood	-10.5887
▁fell	-10.5888
▁ngữ	-10.5888
▁अज्ञात	-10.5889
▁आतंकवादियों	-10.5889
▁हराया	-10.589
▁पुस्तक	-10.5895
▁destroyed	-10.5902
ani	-10.5905
▁citizens	-10.591
▁Cha	-10.5913
▁mid	-10.5913
▁संरक्ष	-10.5917
eo	-10.5917
ट्रि	-10.5921
▁measures	-10.5923
ात्मक	-10.5926
▁militants	-10.5927
ala	-10.593
ping	-10.5934
▁Hơ	-10.595
ă	-10.597
▁Chan	-10.5972
करण	-10.5973
▁130	-10.5984
शी	-10.5985
झ	-10.5987
ought	-10.5989
hr	-10.5995
11	-10.6002
▁Sam	-10.6011
19	-10.6015
डो	-10.6017
मिन	-10.6022
▁accept	-10.6023
▁मह	-10.6031
▁dư	-10.6032
स्व	-10.6038
▁Sch	-10.6045
▁diễ	-10.6047
फर	-10.6052
her	-10.6052
▁बुल	-10.6054
▁li	-10.606
▁मजबू	-10.6069
▁đen	-10.608
▁Mos	-10.6081
▁improve	-10.6087
ime	-10.6089
▁Super	-10.609
▁बत	-10.609
▁Santorum	-10.609
▁Illinois	-10.609
▁Network	-10.609
▁education	-10.609
▁especially	-10.609
▁lắng	-10.609
▁policies	-10.609
▁उत्सर्जन	-10.609
▁कृषि	-10.609
▁घरेलू	-10.609
▁ताइवान	-10.609
▁निगरानी	-10.609
▁निवेश	-10.609
▁यॉर्क	-10.609
▁वरिष्ठ	-10.609
▁विवरण	-10.609
▁सर्वेक्षण	-10.609
▁operate	-10.609
▁कमजोर	-10.609
▁डूब	-10.609
▁anything	-10.609
▁Team	-10.609
▁Daily	-10.609
▁वेतन	-10.609
▁football	-10.609
शस्त्र	-10.609
▁स्टीव	-10.609
▁airport	-10.609
▁đỏ	-10.6091
▁nghèo	-10.6091
▁शेयर	-10.6091
▁आस	-10.6091
▁diệt	-10.6091
▁xấu	-10.6092
▁kick	-10.6093
▁xanh	-10.6093
▁उपस्थिति	-10.6095
▁श्रेणी	-10.6095
▁Italian	-10.6095
▁protesters	-10.6096
▁जुर्माना	-10.6096
▁dần	-10.6097
▁नदी	-10.6097
▁hearing	-10.61
▁Asia	-10.6101
▁cent	-10.6101
▁स्मिथ	-10.6104
▁spread	-10.6104
▁battle	-10.6106
र्सी	-10.6107
▁संचालन	-10.6108
▁xứ	-10.6109
▁happened	-10.611
▁heard	-10.6117
▁raised	-10.6119
▁आय	-10.612
▁अनुस	-10.612
▁(2	-10.6122
▁Mer	-10.6122
▁Nigeria	-10.6123
जनक	-10.6123
ãnh	-10.6124
▁fighting	-10.6128
▁foot	-10.613
▁seats	-10.6137
▁presented	-10.614
ानी	-10.6144
▁homes	-10.6146
▁fired	-10.6148
▁suit	-10.6164
▁Matt	-10.6172
▁events	-10.6172
▁reporters	-10.6174
lon	-10.6175
▁कं	-10.6187
▁thâ	-10.6193
Có	-10.6201
▁टै	-10.6205
अर	-10.6207
▁material	-10.6208
▁य	-10.6215
erra	-10.622
▁सार	-10.6228
▁पेन	-10.6254
▁स्रोत	-10.6262
▁giác	-10.6268
▁सू	-10.6274
▁offer	-10.6284
ệnh	-10.6287
▁सहमत	-10.6292
▁1964	-10.6298
▁1996	-10.6298
▁DeLay	-10.6298
▁coalition	-10.6298
▁computer	-10.6298
▁increasing	-10.6298
▁inquiry	-10.6298
▁instead	-10.6298
▁quickly	-10.6298
▁subject	-10.6298
▁तालिबान	-10.6298
▁दृष्टिकोण	-10.6298
▁व्यवस्था	-10.6298
▁फीट	-10.6298
▁Turkey	-10.6298
▁Putin	-10.6298
▁abuse	-10.6299
▁संभाल	-10.6299
▁Chief	-10.6299
▁satellite	-10.6299
▁criminal	-10.6299
▁thẻ	-10.6299
▁treo	-10.6299
▁Laden	-10.63
▁Paris	-10.63
▁thận	-10.6301
▁रिलीज	-10.6301
▁Í	-10.6301
▁dọc	-10.6305
जब	-10.6307
▁भारतीय	-10.6308
▁अपेक्षा	-10.631
▁Time	-10.631
▁save	-10.6311
▁movement	-10.6311
▁टूट	-10.6312
▁cờ	-10.6313
▁Abu	-10.6314
▁carrying	-10.6315
▁flu	-10.6316
of	-10.6319
ग्रा	-10.632
ao	-10.6322
▁mảnh	-10.6325
▁मना	-10.6335
▁Car	-10.6338
▁पे	-10.6339
zza	-10.6344
▁बता	-10.6345
▁मामला	-10.6355
्स्ट	-10.6375
15	-10.638
▁काट	-10.6385
▁vay	-10.6392
era	-10.6397
▁comment	-10.6398
▁Tim	-10.6399
▁49	-10.6403
rew	-10.6404
ची	-10.6405
▁देखत	-10.6406
▁stations	-10.6408
वह	-10.6421
▁fl	-10.6421
▁boy	-10.6422
CD	-10.6429
▁गाज	-10.644
ĩ	-10.6441
▁दिख	-10.6448
war	-10.645
▁पत	-10.6453
▁विशेषज्ञ	-10.6475
▁राज्यों	-10.6479
▁success	-10.6479
▁46	-10.6484
▁contact	-10.6485
▁वन	-10.6497
▁xá	-10.6504
▁(3	-10.6506
कश	-10.6508
▁Director	-10.6511
▁District	-10.6511
▁Pacific	-10.6511
▁Publi	-10.6511
▁Spanish	-10.6511
▁caught	-10.6511
▁आंदोलन	-10.6511
▁रद्द	-10.6511
▁विशाल	-10.6511
▁कुत्त	-10.6511
▁जेम्स	-10.6511
▁spent	-10.6511
▁दर्शक	-10.6511
▁Phòng	-10.6511
▁legislation	-10.6512
▁स्वामि	-10.6512
▁common	-10.6512
▁नवीन	-10.6512
What	-10.6512
▁winner	-10.6514
▁failure	-10.6514
▁Ở	-10.6514
▁Reid	-10.6515
▁wounded	-10.6516
टेल	-10.6522
▁Can	-10.6524
▁मेरी	-10.6525
▁एर	-10.6526
▁khiển	-10.6528
▁reason	-10.6532
▁उच	-10.6535
▁Media	-10.6537
▁dàng	-10.6544
▁Kế	-10.6544
ath	-10.6551
▁đo	-10.6553
▁सभा	-10.656
▁decide	-10.6565
▁ră	-10.6567
▁date	-10.6568
▁जल्दी	-10.6568
pon	-10.6573
▁AM	-10.658
▁toà	-10.6581
▁concern	-10.6584
ious	-10.6586
▁wide	-10.6586
▁pháo	-10.659
▁52	-10.6595
▁Pol	-10.6602
▁Pakistani	-10.6602
94	-10.6606
▁उम्मीदवारों	-10.6607
कम	-10.6608
▁tung	-10.6614
▁47	-10.6615
▁Shi	-10.6618
▁Che	-10.6618
मेरा	-10.662
▁giản	-10.6626
▁Service	-10.6638
▁mark	-10.664
बू	-10.6642
US	-10.6645
▁sale	-10.6645
▁(6	-10.6651
▁My	-10.6654
▁pilot	-10.6655
long	-10.6656
▁inter	-10.6666
7%	-10.6674
jo	-10.6677
रू	-10.6679
▁सहयोग	-10.6679
umb	-10.6689
iên	-10.6698
▁निलंब	-10.6713
हमने	-10.6716
▁file	-10.6716
व्याप	-10.672
खा	-10.672
▁आखिर	-10.6727
▁Campbell	-10.6728
▁Delhi	-10.6728
▁Jersey	-10.6728
▁Stephen	-10.6728
▁hỏng	-10.6728
▁trắng	-10.6728
▁đỉnh	-10.6728
▁कार्बन	-10.6728
▁पाँच	-10.6728
▁मतलब	-10.6728
▁संगीत	-10.6728
▁समयानुसार	-10.6728
▁crowd	-10.6728
▁समाज	-10.6728
▁Despi	-10.6728
▁गुजर	-10.6728
▁चैंपियनशिप	-10.6728
▁competition	-10.6728
▁rào	-10.6729
▁hề	-10.6729
▁River	-10.6729
giving	-10.673
▁शॉट	-10.673
िस्तान	-10.673
▁कड़ी	-10.6731
▁key	-10.6731
▁mis	-10.674
▁revealed	-10.6743
▁identified	-10.6745
▁sexual	-10.6746
▁kho	-10.6746
▁dương	-10.6747
over	-10.6747
3,000	-10.675
▁Cập	-10.6752
▁cất	-10.6752
पात	-10.6755
▁दौरा	-10.6756
▁गो	-10.6757
वास	-10.676
▁कमांडर	-10.6761
▁trúng	-10.6761
berg	-10.6764
▁higher	-10.6765
▁joint	-10.6765
rove	-10.6768
▁provided	-10.6776
▁39	-10.6785
▁Khoản	-10.6787
ually	-10.6795
▁recorded	-10.6796
▁sh	-10.6809
▁प्ले	-10.6813
▁दंड	-10.6814
cent	-10.6817
Islamic	-10.6821
▁players	-10.6824
55	-10.6827
▁58	-10.6831
▁Sara	-10.6832
▁suspect	-10.6836
ड्र	-10.6837
▁boat	-10.686
▁चले	-10.6864
▁फैला	-10.6865
सीए	-10.6866
ments	-10.6872
26	-10.6873
▁यु	-10.6875
▁khán	-10.6877
▁4,	-10.6887
▁player	-10.6888
car	-10.6897
▁कब्ज	-10.6897
▁61	-10.691
▁रहत	-10.6911
▁ended	-10.6913
▁हमलावर	-10.6918
▁tim	-10.6941
▁ग्रे	-10.6945
▁सौ	-10.6946
▁radio	-10.6947
▁APEC	-10.695
▁Bố	-10.695
▁Kennedy	-10.695
▁Lạp	-10.695
▁assault	-10.695
▁brother	-10.695
▁dạy	-10.695
▁kẹt	-10.695
▁अटॉर्नी	-10.695
▁खिलाड़ियों	-10.695
▁मिस्र	-10.695
▁Ohio	-10.695
▁itself	-10.695
▁máu	-10.6951
▁draw	-10.6951
▁थोड़	-10.6951
▁average	-10.6951
▁स्वागत	-10.6951
▁Free	-10.6951
▁Quỹ	-10.6951
▁फ्रांसीसी	-10.6951
▁ngang	-10.6951
▁Hillary	-10.6951
▁medal	-10.6951
▁शेष	-10.6952
▁Report	-10.6952
▁lăm	-10.6952
▁रहेंगे	-10.6952
▁effective	-10.6952
कालीन	-10.6953
▁Cape	-10.6953
▁जिले	-10.6953
▁निकट	-10.6954
▁khối	-10.6955
▁नौका	-10.6955
▁served	-10.6962
▁defeated	-10.6963
पाने	-10.6965
▁2004.	-10.6965
▁लिबरल	-10.6967
▁रहेगा	-10.6971
ाम	-10.6972
▁शुल्क	-10.6975
▁centre	-10.6977
▁सकें	-10.6978
▁राशि	-10.6981
क्रम	-10.6982
▁parents	-10.6982
▁flooding	-10.6983
▁NZ	-10.6985
▁shows	-10.6988
▁Pr	-10.6989
▁damaged	-10.6989
▁7,	-10.6997
▁buildings	-10.7
▁related	-10.7
▁rape	-10.7008
▁साथी	-10.7009
▁हरा	-10.7029
िकल	-10.703
फील्ड	-10.7031
▁Don	-10.7045
bs	-10.7049
down	-10.7049
यल	-10.7051
▁अना	-10.7051
▁ग्रह	-10.7069
▁गै	-10.7073
town	-10.7077
अगर	-10.7077
▁questions	-10.7077
rat	-10.7082
ội	-10.7089
▁effects	-10.7097
डब्ल्यू	-10.71
ड़े	-10.7104
▁82	-10.711
नीय	-10.7111
%)	-10.7116
पास	-10.7123
▁Thiế	-10.7123
▁wind	-10.7137
ins	-10.7138
▁lố	-10.7144
स्टी	-10.7151
▁leak	-10.7153
▁Commission	-10.7154
▁आंकड़	-10.7154
▁वैज्ञानिक	-10.7155
▁अभि	-10.7156
▁रखे	-10.7163
▁sentence	-10.7165
पल	-10.7167
▁minor	-10.7177
▁Thai	-10.7178
▁Blue	-10.7178
▁Central	-10.7178
▁Conservative	-10.7178
▁Trắng	-10.7178
▁activities	-10.7178
▁attorney	-10.7178
▁ministry	-10.7178
▁species	-10.7178
▁Vaile	-10.7178
▁afternoon	-10.7178
▁dropped	-10.7178
▁पदार्थ	-10.7178
▁First	-10.7178
▁spot	-10.7178
शानदार	-10.7178
▁debate	-10.7178
▁central	-10.7178
▁उतार	-10.7178
▁प्रश्न	-10.7179
▁massive	-10.7179
▁truck	-10.7179
▁Daniel	-10.7179
▁necessary	-10.718
▁Fernando	-10.718
▁trần	-10.718
▁đập	-10.718
▁quoted	-10.7181
▁anyone	-10.7181
▁dải	-10.7181
▁xóa	-10.7182
▁blame	-10.7182
▁personal	-10.7182
▁latest	-10.7184
▁bigge	-10.7186
▁sánh	-10.7186
▁career	-10.7191
ुन	-10.7191
▁refused	-10.7194
▁tho	-10.7197
▁supporters	-10.7198
▁Nick	-10.7202
▁camp	-10.7205
▁offered	-10.7207
▁Somalia	-10.7211
▁Bel	-10.7215
▁संचार	-10.7215
▁read	-10.7218
▁निकाला	-10.7219
▁hot	-10.7223
▁Ham	-10.7231
▁गे	-10.7232
नाम	-10.7232
iện	-10.7233
▁चलने	-10.7234
óng	-10.7247
बार	-10.725
▁thùng	-10.7253
▁Ken	-10.7257
SA	-10.7261
▁ग्राहक	-10.7264
▁आयर	-10.7269
▁ट्रक	-10.7271
विक	-10.7279
फ्ल	-10.7284
फोर्ड	-10.7287
▁equal	-10.729
-5	-10.7298
Nó	-10.7324
các	-10.7333
▁इंटर	-10.7339
राइट	-10.7341
ional	-10.7346
▁engine	-10.7355
▁hã	-10.7357
ngập	-10.7361
़ा	-10.7363
▁nhu	-10.7365
▁कैद	-10.7371
▁Dar	-10.7375
▁जानत	-10.7378
▁निर्	-10.7388
ải	-10.739
▁hâ	-10.7391
▁gắn	-10.74
▁edit	-10.7402
▁investigati	-10.7408
õ	-10.7409
▁civil	-10.7409
▁occur	-10.741
▁मुद्रा	-10.741
▁chặt	-10.741
▁driving	-10.741
▁magnitude	-10.741
▁डिज़ाइन	-10.741
▁प्रमाण	-10.741
▁सैकड़ो	-10.741
▁हेलीकॉप्टर	-10.741
▁गयी	-10.741
▁कहीं	-10.741
shire	-10.741
▁Sadd	-10.741
▁elected	-10.7411
▁अनुबंध	-10.7411
▁लंबा	-10.7411
▁ensure	-10.7411
▁सर्विस	-10.7411
▁ब्राउन	-10.7411
▁Cuba	-10.7411
low	-10.7411
▁नीतियों	-10.7412
▁Argentina	-10.7412
▁$3	-10.7413
▁nợ	-10.7413
▁Lanka	-10.7413
▁भाई	-10.7414
शिप	-10.7414
▁gấu	-10.7415
▁ट्राम	-10.7415
▁highest	-10.7416
▁lận	-10.7416
फुटबॉल	-10.7416
▁Over	-10.7416
▁bề	-10.7417
▁buy	-10.7418
▁cap	-10.7421
▁रॉयल	-10.7421
र्श	-10.7422
▁मौका	-10.7423
▁दिवस	-10.7424
▁Wi	-10.7425
▁introduced	-10.7425
▁धर्म	-10.7427
▁Mohammed	-10.7429
िए	-10.7429
▁प्रतिरोध	-10.743
▁developed	-10.7431
▁tell	-10.7436
ीकृत	-10.7437
▁kín	-10.7439
▁ngũ	-10.7439
▁मेयर	-10.7445
▁details	-10.7449
ड़ी	-10.7449
▁बरा	-10.745
▁Ag	-10.7451
▁फ्री	-10.7453
hy	-10.747
▁Democrats	-10.7477
▁जु	-10.7478
▁often	-10.7517
▁5,	-10.7521
▁individuals	-10.7522
êu	-10.7524
▁एच	-10.7527
lie	-10.7531
सर	-10.7538
▁đố	-10.7547
35	-10.7549
▁मेडिक	-10.755
MD	-10.7557
▁newspaper	-10.7558
ट्स	-10.7559
▁passenger	-10.7559
▁phiế	-10.7567
▁Prince	-10.7577
▁असर	-10.7577
नर	-10.758
▁Indonesian	-10.7581
▁o	-10.7581
ử	-10.759
▁41	-10.7601
▁rules	-10.7602
▁viê	-10.7606
वाई	-10.7608
▁रिपोर्टर	-10.7613
▁छात्र	-10.7616
उस	-10.7618
400	-10.7622
▁perform	-10.7622
▁Is	-10.763
▁स्टे	-10.763
▁प्रोत्साह	-10.7634
▁पि	-10.7645
▁1984	-10.7648
▁Great	-10.7648
▁Major	-10.7648
▁controversial	-10.7648
▁convicted	-10.7648
▁proposal	-10.7648
▁rượu	-10.7648
▁supply	-10.7648
▁तथ्य	-10.7648
▁थॉमस	-10.7648
▁धोखाधड़ी	-10.7648
▁वाणिज्य	-10.7648
▁विपरीत	-10.7648
▁सामाजिक	-10.7648
▁हॉवर्ड	-10.7648
▁1988	-10.7648
▁Pennsylvania	-10.7648
▁फ्लाइट	-10.7648
▁सीज़न	-10.7648
▁approved	-10.7648
▁avoid	-10.7648
▁अफ्रीकी	-10.7648
▁property	-10.7649
▁मोहम्मद	-10.7649
▁Italy	-10.7649
▁admitted	-10.7649
रिए	-10.7649
▁Gillard	-10.7649
▁music	-10.7649
▁push	-10.7649
▁जैक्सन	-10.7649
▁वक्त	-10.765
▁बमबारी	-10.765
▁Region	-10.765
▁engage	-10.765
▁सलाहकार	-10.765
▁प्रारंभिक	-10.765
▁1994	-10.7651
▁नासा	-10.7651
▁स्टोर	-10.7652
▁इंजन	-10.7652
▁Rick	-10.7652
▁प्रबंधन	-10.7656
▁Scott	-10.7656
▁army	-10.7659
ेज़	-10.7661
▁store	-10.7662
▁प्रसिद्ध	-10.7662
▁क़ानून	-10.7665
▁shortly	-10.7665
▁built	-10.767
▁scientists	-10.767
ाक	-10.7674
As	-10.7674
▁customers	-10.7676
▁exist	-10.7679
▁sites	-10.7679
▁USA	-10.7679
वो	-10.7682
▁chô	-10.7684
▁भाषा	-10.7688
▁armed	-10.7697
मंडल	-10.7699
सम	-10.7706
▁बु	-10.7711
सु	-10.7713
▁training	-10.7714
▁hundreds	-10.7715
▁hold	-10.7726
▁मी	-10.7728
▁Bur	-10.774
state	-10.7743
▁comments	-10.775
elect	-10.775
98	-10.7752
06	-10.7757
ably	-10.7764
▁norther	-10.7766
800	-10.7776
nts	-10.7776
क्यू	-10.778
ipped	-10.7783
▁रेल	-10.7785
▁sta	-10.7789
▁charge	-10.7791
बंद	-10.7799
ures	-10.78
iểu	-10.7801
ata	-10.7802
▁पैस	-10.7811
▁देखी	-10.7818
▁लॉस	-10.7822
▁Vậ	-10.7825
ew	-10.7826
▁कोस्ट	-10.7826
cus	-10.7826
▁Tu	-10.783
▁बनी	-10.7833
▁56	-10.7836
SE	-10.7837
▁विस्फोटक	-10.784
स्की	-10.7845
▁dò	-10.7853
als	-10.7854
▁मानक	-10.7859
▁आतंकवाद	-10.7863
▁क्रू	-10.7865
▁Her	-10.7869
top	-10.7873
दो	-10.7883
▁drive	-10.7888
atter	-10.7888
▁नव	-10.7889
▁गतिविधि	-10.7892
upreme	-10.7892
▁Connecticut	-10.7892
▁Craig	-10.7892
▁Journal	-10.7892
▁Malaysia	-10.7892
▁Minnesota	-10.7892
▁Research	-10.7892
▁benefit	-10.7892
▁fraud	-10.7892
▁intelligence	-10.7892
▁lồ	-10.7892
▁ngừa	-10.7892
▁repair	-10.7892
▁tắt	-10.7892
▁छोटी	-10.7892
▁टक्कर	-10.7892
▁मछली	-10.7892
▁यूटीसी	-10.7892
▁राहत	-10.7892
▁विद्युत	-10.7892
▁साइंटोलॉज	-10.7892
▁स्टेडियम	-10.7892
▁FDA	-10.7892
▁kém	-10.7892
▁खाड़ी	-10.7892
▁रिसाव	-10.7892
▁self	-10.7892
▁Games	-10.7892
▁कर्मियों	-10.7892
▁निंदा	-10.7892
▁मार्टिन	-10.7892
▁सतह	-10.7892
▁सदन	-10.7892
▁वक्तव्य	-10.7892
▁Earlier	-10.7893
▁terrorism	-10.7893
▁शूट	-10.7893
▁Kenya	-10.7893
▁kind	-10.7893
▁performance	-10.7893
▁spill	-10.7893
▁टैक्स	-10.7893
▁trăng	-10.7893
▁चोरी	-10.7893
▁Massa	-10.7893
▁शोधकर्ताओं	-10.7894
▁नाटो	-10.7894
▁kỉ	-10.7895
▁ngươ	-10.7896
▁Human	-10.7897
▁blog	-10.7897
▁Ber	-10.7898
▁grant	-10.7899
▁पहन	-10.7899
▁2,000	-10.7904
wood	-10.7906
▁कक्षा	-10.7906
▁Ex	-10.7908
▁paid	-10.7909
▁स्टाफ	-10.7911
▁Commissioner	-10.7918
▁Corp	-10.792
ski	-10.7922
ama	-10.7925
uff	-10.7929
डा	-10.7929
▁lâm	-10.793
मस	-10.7934
tain	-10.7938
ैट	-10.7943
bird	-10.7946
▁65	-10.795
▁Par	-10.7956
▁पोर्ट	-10.7956
▁se	-10.7956
▁phun	-10.7963
▁aim	-10.7978
ich	-10.7979
▁हल	-10.7985
▁quit	-10.7989
▁vehicles	-10.8029
moved	-10.8034
▁रू	-10.804
Đó	-10.804
▁Mon	-10.8041
23	-10.8048
मु	-10.805
▁helicopter	-10.8052
▁girl	-10.8052
▁jobs	-10.8054
▁student	-10.8054
आप	-10.8056
▁Van	-10.8058
▁ऑ	-10.8059
▁terrorist	-10.8063
लेट	-10.8063
▁गिरा	-10.8064
▁हाइ	-10.8085
▁includes	-10.8088
▁मास	-10.809
▁bá	-10.8093
▁उपाय	-10.8094
रलैंड	-10.8094
▁250	-10.8094
▁ni	-10.8097
▁reporter	-10.8099
▁शब्द	-10.8106
▁अम	-10.8109
▁ऐ	-10.8115
▁bombing	-10.8118
ỡ	-10.8124
▁माइक	-10.8127
▁प्रथ	-10.8129
▁serve	-10.8131
▁साझा	-10.8131
हार	-10.8135
▁पेर	-10.8136
ज्ञात	-10.814
▁object	-10.8141
▁अफगान	-10.8142
॰	-10.8142
ास्पद	-10.8142
▁Affairs	-10.8142
▁Kyoto	-10.8142
▁Romney	-10.8142
▁Society	-10.8142
▁Square	-10.8142
▁Số	-10.8142
▁difference	-10.8142
▁opinion	-10.8142
▁presence	-10.8142
▁क्रेडिट	-10.8142
▁डिवाइस	-10.8142
▁द्वितीय	-10.8142
▁नॉर्थ	-10.8142
▁परिवहन	-10.8142
▁पृथ्वी	-10.8142
▁प्रोफेसर	-10.8142
▁विशिष्ट	-10.8142
▁HIV	-10.8142
▁jail	-10.8142
▁version	-10.8142
▁voting	-10.8142
▁minim	-10.8142
▁beginning	-10.8142
▁activity	-10.8142
▁mái	-10.8142
▁फ्रेंच	-10.8143
▁सूत्र	-10.8143
▁deput	-10.8143
▁gói	-10.8143
▁भवन	-10.8143
▁fair	-10.8144
▁nothing	-10.8144
▁बैर	-10.8144
▁flag	-10.8144
▁कॉपी	-10.8144
▁Rock	-10.8145
▁weekend	-10.8146
▁super	-10.8146
▁slow	-10.8147
▁Under	-10.8147
ão	-10.8147
ơi	-10.8149
▁arrived	-10.815
▁टॉम	-10.8153
▁extreme	-10.8154
बद्ध	-10.8157
▁व्या	-10.8157
▁आकार	-10.8159
▁funding	-10.816
▁निर्वाच	-10.8162
▁chìm	-10.8163
▁bad	-10.8164
▁editor	-10.8164
fre	-10.8167
▁prime	-10.8167
▁समर्थकों	-10.8169
▁performed	-10.817
▁शहरों	-10.8171
ूर	-10.8171
▁स्थानों	-10.8173
▁wear	-10.8176
▁2009.	-10.818
▁plant	-10.8182
▁चि	-10.8184
▁कराया	-10.8189
वाले	-10.819
4,000	-10.8204
▁products	-10.8205
साइड	-10.8207
ướng	-10.821
ăng	-10.8212
des	-10.8212
sự	-10.8212
len	-10.8236
▁winds	-10.8241
▁मृतक	-10.8242
▁Osa	-10.8243
turned	-10.8256
▁lí	-10.8262
ula	-10.8263
रिस	-10.8278
stone	-10.828
,500	-10.8281
▁वायु	-10.8281
ớ	-10.8289
gan	-10.8294
्ली	-10.8297
water	-10.8301
▁परिस्थितिय	-10.8305
हो	-10.8309
▁Paralympic	-10.8309
▁warning	-10.831
नियमित	-10.8313
ल्क	-10.8313
.5%	-10.8315
99	-10.8315
▁trươ	-10.833
▁costs	-10.8333
▁flights	-10.8333
Tro	-10.8335
▁Cor	-10.8336
▁advis	-10.8336
▁Hồ	-10.8337
लिस	-10.8339
हेल	-10.8349
ị	-10.8356
kar	-10.8359
वाण	-10.8364
▁गि	-10.8366
:15	-10.8367
ail	-10.8369
▁tê	-10.837
300	-10.8372
▁thing	-10.8373
▁Las	-10.8373
▁involv	-10.8373
▁complete	-10.8378
▁औसत	-10.8384
▁120	-10.8386
▁lư	-10.8387
hẩm	-10.8388
▁establish	-10.839
▁assist	-10.8391
ुसैन	-10.8397
▁Another	-10.8399
▁Hurricane	-10.8399
▁Kabul	-10.8399
▁agencies	-10.8399
▁emissions	-10.8399
▁hoại	-10.8399
▁khứ	-10.8399
▁professional	-10.8399
▁purpose	-10.8399
▁đẳng	-10.8399
▁अवरुद्ध	-10.8399
▁असमर्थ	-10.8399
▁उदाहरण	-10.8399
▁नौसेना	-10.8399
▁मंजूर	-10.8399
▁मस्जिद	-10.8399
▁विडियो	-10.8399
▁स्टॉक	-10.8399
▁FBI	-10.8399
▁मानसिक	-10.8399
▁करोड़	-10.8399
▁đựng	-10.8399
▁Rights	-10.8399
▁जंगल	-10.8399
▁मरम्मत	-10.8399
▁extend	-10.8399
▁exchange	-10.8399
▁religious	-10.8399
▁कमेटी	-10.8399
▁पढ़ा	-10.8399
▁commercial	-10.8399
▁southern	-10.8399
▁Labour	-10.8399
▁nhuận	-10.8399
▁Komar	-10.8399
▁kilometers	-10.84
▁thụ	-10.84
▁unknown	-10.84
▁Rio	-10.84
▁कॉलेज	-10.84
एसए	-10.84
▁फायर	-10.8401
▁श्रमिक	-10.8401
▁टेली	-10.8402
▁हॉल	-10.8404
▁pick	-10.8404
▁प्रसारण	-10.8404
▁Kinh	-10.8404
▁पाल	-10.8405
▁Downer	-10.8405
▁gun	-10.8407
▁ओंट	-10.8408
▁originally	-10.8408
pur	-10.8411
िनलैंड	-10.8411
▁इरादा	-10.8411
▁below	-10.8412
यात	-10.842
▁túi	-10.8421
▁khung	-10.8422
▁require	-10.8424
▁rather	-10.8427
▁Medic	-10.8428
hree	-10.8431
bel	-10.8435
▁प्रबंधक	-10.8439
▁Kim	-10.8444
▁bơi	-10.8445
ele	-10.8445
▁101	-10.8446
log	-10.8447
▁जोड़ा	-10.8451
▁आयोज	-10.8455
▁ऋण	-10.8459
▁डेल	-10.846
ral	-10.8461
▁Quan	-10.8465
▁làng	-10.8469
▁फोन	-10.8474
▁attempted	-10.848
▁अर्	-10.8483
run	-10.8484
58	-10.8485
लाने	-10.8487
▁कैल	-10.8495
380	-10.8496
get	-10.8497
▁whole	-10.8499
Tr	-10.85
▁opening	-10.8507
rick	-10.8508
▁port	-10.8511
पूर्वक	-10.8515
▁जहाजों	-10.8517
▁लेखक	-10.8519
▁99	-10.8521
cho	-10.8521
▁64	-10.8534
▁khoan	-10.856
लेकिन	-10.8561
▁किंग	-10.8562
▁घट	-10.8575
ोटा	-10.8579
रिम	-10.8583
▁जीन	-10.8589
có	-10.8591
47	-10.8596
▁doing	-10.8598
शि	-10.8599
▁planet	-10.861
▁Mô	-10.8613
घर	-10.8614
ỏ	-10.8626
▁साफ	-10.8631
▁जज	-10.8631
▁makes	-10.8633
ợ	-10.8633
▁speak	-10.8634
aki	-10.8635
hành	-10.8636
▁happen	-10.8636
▁affect	-10.8636
▁कैमर	-10.8636
▁प्ल	-10.8639
ैम	-10.864
bar	-10.8642
▁ध्व	-10.8646
ẹ	-10.8653
▁original	-10.8654
illa	-10.8655
▁secret	-10.8661
▁consum	-10.8661
▁shut	-10.8662
▁Alaska	-10.8662
▁Amazon	-10.8662
▁Attorney	-10.8662
▁Corporation	-10.8662
▁Croatia	-10.8662
▁Diego	-10.8662
▁Hospital	-10.8662
▁Mandela	-10.8662
▁Taipei	-10.8662
▁defense	-10.8662
▁purchase	-10.8662
▁scoring	-10.8662
▁आक्रमण	-10.8662
▁खतरनाक	-10.8662
▁गृह	-10.8662
▁डिग्री	-10.8662
▁रग्बी	-10.8662
▁लाइसेंस	-10.8662
▁विश्लेषण	-10.8662
▁संसाधन	-10.8662
▁समाधान	-10.8662
▁सीईओ	-10.8662
▁reform	-10.8662
▁everything	-10.8662
▁riding	-10.8662
▁nát	-10.8662
▁ngài	-10.8662
▁घातक	-10.8662
▁नतीज	-10.8662
▁समलैंगिक	-10.8662
▁regime	-10.8662
▁अभ्यास	-10.8662
▁stock	-10.8662
▁freedom	-10.8662
▁chairman	-10.8663
▁गतिविधियों	-10.8663
▁chào	-10.8663
▁Local	-10.8663
▁स्पेनिश	-10.8663
▁miners	-10.8663
▁mass	-10.8663
▁Kerry	-10.8663
▁स्पेन	-10.8664
kept	-10.8664
▁wish	-10.8664
▁drop	-10.8664
▁thánh	-10.8664
ola	-10.8664
▁Thiên	-10.8665
▁ग्लोबल	-10.8665
▁मंच	-10.8665
▁email	-10.8665
▁park	-10.8666
▁ngủ	-10.8667
▁आपको	-10.8667
▁शारी	-10.8668
▁não	-10.8668
▁Massachusetts	-10.867
▁पेशेवर	-10.8672
▁पुल	-10.8672
▁sập	-10.8674
▁Verizon	-10.8674
▁mon	-10.8675
मेन	-10.8678
▁needs	-10.8679
kin	-10.8682
वेन	-10.8683
▁शिक्षक	-10.8686
28	-10.8688
▁Today	-10.8689
▁suspected	-10.8693
▁calls	-10.8693
▁contacted	-10.8694
▁Gray	-10.8698
▁Bulls	-10.8699
▁worth	-10.8699
▁quake	-10.87
▁heart	-10.8701
चलता	-10.8702
▁नियम	-10.8704
व्य	-10.871
▁Khu	-10.8712
▁स्क्	-10.8712
▁रीड	-10.872
pin	-10.8722
▁nhắn	-10.8723
िच	-10.8725
▁dollars	-10.8725
▁Mal	-10.873
र्च	-10.8733
▁returned	-10.8734
▁Steven	-10.8736
▁नील	-10.8741
▁remaining	-10.8742
▁receiv	-10.8744
िना	-10.8748
▁जेट	-10.8749
▁वैल	-10.8751
▁Andre	-10.8753
ंगा	-10.8759
ảo	-10.8768
▁helped	-10.8782
▁sure	-10.8789
press	-10.8796
▁houses	-10.8803
▁6,	-10.8806
▁ब्राय	-10.8807
फ़ा	-10.8814
▁गहर	-10.8829
You	-10.883
▁victim	-10.8843
▁sport	-10.8847
▁Cas	-10.8849
▁Pri	-10.886
▁डाय	-10.8873
▁let	-10.8874
▁rates	-10.8878
▁एलि	-10.8883
▁भरी	-10.8884
▁आसान	-10.8888
टिव	-10.889
डन	-10.8894
▁kiê	-10.8895
▁tests	-10.8895
विच	-10.8901
▁फ्र	-10.8902
▁2010.	-10.8902
▁usual	-10.8906
▁gián	-10.8912
▁आयु	-10.8919
▁dispute	-10.8919
ारी	-10.8922
è	-10.8924
-7	-10.8927
च्छ	-10.8927
▁witness	-10.8929
33	-10.8929
▁Atlanta	-10.8932
▁UEFA	-10.8932
▁natural	-10.8932
▁टोरंटो	-10.8932
▁तनाव	-10.8932
▁दूतावास	-10.8932
▁मुलाकात	-10.8932
▁यद्यपि	-10.8932
▁विरुद्ध	-10.8932
▁Cross	-10.8932
▁welcome	-10.8932
▁गांव	-10.8932
▁टुकड़	-10.8932
▁बिल्डिंग	-10.8932
▁Airbus	-10.8932
▁Airlines	-10.8932
▁Davis	-10.8932
▁सॉफ़्टवेयर	-10.8932
▁above	-10.8932
▁फ्लू	-10.8932
▁संबोध	-10.8932
▁Julia	-10.8932
▁सूडान	-10.8932
▁orbit	-10.8932
▁Championship	-10.8932
▁ép	-10.8932
वाहक	-10.8932
▁शिकार	-10.8932
▁Sony	-10.8933
ः	-10.8933
▁wait	-10.8933
▁शटल	-10.8934
▁Big	-10.8934
▁प्रीमियर	-10.8934
▁यूएन	-10.8935
▁चैंपियन	-10.8935
▁worst	-10.8935
▁प्रौद्योगिकी	-10.8935
▁rác	-10.8935
▁Myers	-10.8936
▁evacuated	-10.8936
▁यूरोपियन	-10.8937
ैस	-10.8937
▁CIA	-10.8937
▁रंग	-10.8938
▁Lake	-10.8938
▁actually	-10.8938
▁इंच	-10.8939
▁सुनाई	-10.894
▁Gary	-10.8942
▁viễn	-10.8942
▁surface	-10.8942
▁mời	-10.8942
For	-10.8944
▁रहना	-10.8945
▁mental	-10.8946
▁विलियम्स	-10.8948
▁माप	-10.8949
▁vịnh	-10.895
▁100,000	-10.895
22	-10.8953
▁Cook	-10.8955
▁hô	-10.8958
▁developing	-10.8958
▁net	-10.8958
▁ट्रैक	-10.896
dis	-10.897
▁arms	-10.898
90	-10.8983
▁suffering	-10.8984
▁die	-10.8984
▁images	-10.8988
▁बैक	-10.8993
▁figures	-10.9
63	-10.9003
▁rắc	-10.9008
ामी	-10.9011
▁ski	-10.9014
▁cảng	-10.9014
▁via	-10.9015
▁हट	-10.9019
▁अंकों	-10.9037
llegedly	-10.9049
यु	-10.9062
rus	-10.9066
uồng	-10.9068
▁seconds	-10.9072
▁सुना	-10.9077
▁terms	-10.9079
बंध	-10.909
▁incidents	-10.9101
But	-10.9108
▁Olympics	-10.9114
ord	-10.9116
दिन	-10.912
▁चाल	-10.9132
▁(20	-10.9142
eva	-10.9146
▁environment	-10.9157
amb	-10.9159
▁You	-10.9161
▁kí	-10.9163
ưa	-10.9165
urged	-10.917
ियाँ	-10.9172
▁governments	-10.9191
lies	-10.9191
hẹn	-10.92
▁उपस्थित	-10.9203
▁योग्य	-10.9204
▁1960	-10.921
▁Bucharest	-10.921
▁Chavez	-10.921
▁Club	-10.921
▁Defence	-10.921
▁Family	-10.921
▁Governor	-10.921
▁McDonald	-10.921
▁Sheehan	-10.921
▁Uganda	-10.921
▁advance	-10.921
▁defence	-10.921
▁equipment	-10.921
▁hiếm	-10.921
▁opportunity	-10.921
▁đẹp	-10.921
▁एसोसिएट	-10.921
▁ऑस्ट्रेलियन	-10.921
▁जख्म	-10.921
▁पुराने	-10.921
▁फ़िलिस्तीन	-10.921
▁महासचिव	-10.921
▁रणनीति	-10.921
▁सिद्धांत	-10.921
▁1993	-10.921
▁Earth	-10.921
▁album	-10.921
▁status	-10.921
▁summer	-10.921
▁Centre	-10.921
▁यहूदी	-10.921
▁विकीन्यूज	-10.921
▁Boston	-10.921
▁referr	-10.921
▁firm	-10.921
▁ongoing	-10.921
▁quý	-10.921
▁moment	-10.921
▁Patrick	-10.921
▁Bongo	-10.921
▁Abbas	-10.9211
▁compete	-10.9211
▁Guard	-10.9211
▁route	-10.9211
ization	-10.9211
▁नंबर	-10.9211
▁khơi	-10.9211
▁ballot	-10.9211
▁डैन	-10.9212
▁outbreak	-10.9212
▁पट्ट	-10.9212
▁चाइन	-10.9212
▁Home	-10.9212
▁Leone	-10.9213
▁तबाह	-10.9213
▁पशु	-10.9214
▁धूम्रपान	-10.9214
ईसी	-10.9215
▁Helen	-10.9215
▁Miller	-10.9216
▁tị	-10.9217
▁researchers	-10.9217
▁partner	-10.9217
▁giàu	-10.9219
▁trộm	-10.9219
▁gold	-10.9222
▁rejected	-10.9224
▁Bali	-10.9226
▁रॉक	-10.9226
▁मुकाबला	-10.9226
▁*	-10.9229
एच	-10.9233
style	-10.9233
▁aware	-10.9236
▁seeking	-10.9238
▁ख़	-10.9238
टेक	-10.9239
▁Brad	-10.9239
▁đốt	-10.9242
▁holding	-10.9242
▁discussion	-10.9244
▁:"	-10.9249
▁Mor	-10.9256
▁Mas	-10.9257
▁experts	-10.9264
▁बॉल	-10.9265
▁Bell	-10.9266
erous	-10.9269
▁targeted	-10.9273
▁63	-10.9276
▁समझौता	-10.9278
stood	-10.9279
▁landing	-10.928
▁एकत्र	-10.9281
▁claiming	-10.9282
▁seek	-10.9284
ायर	-10.9286
▁लेना	-10.9288
▁हिट	-10.9291
▁programme	-10.9292
▁standing	-10.9293
रिया	-10.9296
▁Ian	-10.9297
▁toll	-10.9298
▁फि	-10.9301
▁FC	-10.9301
▁हा	-10.9303
▁tuâ	-10.9304
बै	-10.9309
▁Cự	-10.9313
▁सड़कों	-10.9317
▁Mari	-10.9328
hak	-10.933
IR	-10.9332
▁भेजे	-10.9336
▁सेमी	-10.9347
न्न	-10.9348
▁माफ	-10.935
▁Ge	-10.9354
▁59	-10.9373
ụ	-10.9383
aving	-10.9386
▁hoan	-10.9395
▁Va	-10.9397
▁Col	-10.9398
▁hopes	-10.9399
ants	-10.9406
▁location	-10.9406
▁representative	-10.9406
▁waters	-10.9408
▁Hol	-10.941
रत	-10.942
▁कट	-10.942
पन	-10.9421
▁Bria	-10.9421
▁66	-10.9422
fire	-10.9427
iếp	-10.9442
▁Quản	-10.9448
ssa	-10.9449
▁produce	-10.945
ification	-10.9456
ress	-10.9457
lim	-10.9463
promised	-10.9465
dom	-10.9468
▁approach	-10.9469
▁रास्त	-10.9471
ữ	-10.9474
िनो	-10.9474
hay	-10.948
ỹ	-10.9485
▁associat	-10.9489
ova	-10.9491
▁Administration	-10.9496
▁Jerusalem	-10.9496
▁Myanmar	-10.9496
▁Organization	-10.9496
▁bridge	-10.9496
▁club	-10.9496
▁collision	-10.9496
▁lẫn	-10.9496
▁mountain	-10.9496
▁possibility	-10.9496
▁uranium	-10.9496
▁खुफिया	-10.9496
▁गिरफ़्तार	-10.9496
▁ग्रामीण	-10.9496
▁भोजन	-10.9496
▁साझेदार	-10.9496
▁स्ट्रीट	-10.9496
▁Civil	-10.9496
▁Finland	-10.9496
▁Hindu	-10.9496
▁display	-10.9496
▁fifth	-10.9496
▁session	-10.9496
▁personnel	-10.9496
▁दिशा	-10.9496
▁moving	-10.9496
▁राजकुमार	-10.9496
▁danger	-10.9496
▁क्वींसलैंड	-10.9496
▁Condol	-10.9496
▁पलट	-10.9496
▁dangerous	-10.9496
▁Intel	-10.9496
▁उपग्रह	-10.9497
▁रयान	-10.9497
▁wave	-10.9497
▁phức	-10.9498
▁रॉस	-10.9498
गणना	-10.9498
▁Thị	-10.9498
▁गुप्त	-10.9498
▁governor	-10.9498
▁influence	-10.9499
▁Mul	-10.95
▁voice	-10.95
▁fast	-10.9502
iểm	-10.9502
▁cities	-10.9503
▁Inter	-10.9503
▁normal	-10.9506
▁हस्त	-10.9506
▁page	-10.9508
▁संपादक	-10.9508
racy	-10.9513
▁Rose	-10.952
▁ready	-10.9523
▁remove	-10.9526
▁जाहिर	-10.9527
▁पाई	-10.9529
ोड	-10.9549
▁EC	-10.9549
▁born	-10.9552
▁chặng	-10.9554
ौल	-10.9555
▁Cal	-10.9556
▁By	-10.9556
▁जिम	-10.9559
टिंग	-10.9562
▁landed	-10.9563
stan	-10.9564
ied	-10.9567
एंगे	-10.957
▁हद	-10.9572
ूली	-10.9572
▁एफ़	-10.9573
▁72	-10.9577
▁probabl	-10.9584
▁Yu	-10.9596
▁IP	-10.9603
Điề	-10.9603
▁Sol	-10.9605
▁suspects	-10.9612
▁मोर	-10.9622
▁री	-10.9624
▁कैप	-10.9631
▁Pho	-10.9632
iền	-10.9634
▁एज	-10.9648
óc	-10.965
▁III	-10.9657
▁ग्रेट	-10.967
air	-10.967
लोग	-10.9673
▁मृत	-10.9674
▁documents	-10.9675
shed	-10.9678
स्टोन	-10.9684
▁điê	-10.9686
भाल	-10.9688
पश्चिम	-10.9688
lam	-10.9688
5%	-10.9691
▁challenge	-10.9694
ative	-10.9696
पत्र	-10.9696
▁device	-10.97
bri	-10.9702
▁Đị	-10.971
▁फो	-10.9717
▁नोट	-10.9718
▁Er	-10.9722
▁लड़ाक	-10.9725
PA	-10.9727
▁develop	-10.9732
▁watch	-10.9735
▁bombs	-10.9741
ज्	-10.9746
▁Of	-10.9759
▁भल	-10.9763
▁चिंत	-10.9764
▁chữ	-10.9782
▁मारी	-10.9784
▁बह	-10.9785
ctive	-10.9787
▁तस्वीर	-10.9787
राधिक	-10.979
▁Alonso	-10.979
▁Belarus	-10.979
▁Gandhi	-10.979
▁Saakashvili	-10.979
▁Schumacher	-10.979
▁Ukraine	-10.979
▁Vancouver	-10.979
▁Waziristan	-10.979
▁capacity	-10.979
▁chồng	-10.979
▁doubt	-10.979
▁hurricane	-10.979
▁hụt	-10.979
▁primary	-10.979
▁relief	-10.979
▁अत्य	-10.979
▁अनुमोद	-10.979
▁इकट्ठ	-10.979
▁इवेंट	-10.979
▁गणराज्य	-10.979
▁झूठ	-10.979
▁ताइपे	-10.979
▁परीक्षा	-10.979
▁प्रेरित	-10.979
▁बिंदु	-10.979
▁बिल्कुल	-10.979
▁मंदिर	-10.979
▁लेबनान	-10.979
▁स्थापना	-10.979
▁ẩn	-10.979
▁Armenia	-10.979
▁Celtic	-10.979
▁Haggis	-10.979
▁Summer	-10.979
▁exact	-10.979
▁twenty	-10.979
▁मेजबान	-10.979
▁NHL	-10.979
▁जताई	-10.979
▁Bosnia	-10.979
▁दावों	-10.979
▁प्रकट	-10.979
▁मैककेन	-10.979
▁वस्तु	-10.979
▁टेलीविज़न	-10.979
▁example	-10.979
▁लियोन	-10.979
▁kilometres	-10.979
▁Walsh	-10.979
▁threatened	-10.979
▁अंग्रेजी	-10.979
▁भावना	-10.979
▁Margar	-10.979
▁बंदूकधार	-10.979
▁Asian	-10.979
▁Feli	-10.979
▁रिचर्ड	-10.979
▁ब्लेयर	-10.979
▁मैदान	-10.979
▁छोटा	-10.9791
▁dị	-10.9791
▁story	-10.9791
mouth	-10.9791
कायदा	-10.9792
▁Xã	-10.9792
▁अकेल	-10.9793
▁Bren	-10.9794
क्वायर	-10.9794
▁đoan	-10.9794
▁Chile	-10.9796
▁captured	-10.9796
▁san	-10.9796
▁sổ	-10.9797
▁बगद	-10.9797
▁dismissed	-10.9799
▁अधिकतम	-10.9799
▁ngã	-10.9799
▁dã	-10.98
▁लहर	-10.9801
▁vé	-10.9802
▁collapsed	-10.9802
▁कवर	-10.9806
▁खिलाफ़	-10.9806
▁Ed	-10.9806
▁Hall	-10.9809
▁attempts	-10.9809
▁"...	-10.9811
▁raise	-10.9815
fo	-10.9816
Con	-10.9817
▁sold	-10.9817
▁रास्ता	-10.9818
बेन	-10.9821
▁tỏa	-10.9821
▁feature	-10.9826
▁निकलने	-10.9828
▁झंड	-10.9839
युक्त	-10.9839
▁तीसरा	-10.984
▁विशेषज्ञों	-10.984
▁Young	-10.9842
bound	-10.9846
mont	-10.9848
▁wall	-10.9854
▁AT	-10.9858
टेड	-10.9858
▁Mary	-10.9861
▁standards	-10.9861
प्स	-10.9865
▁promote	-10.9868
ềm	-10.9871
ock	-10.9879
▁Dell	-10.9881
ius	-10.9884
▁कारक	-10.9885
▁raid	-10.9886
▁आता	-10.9886
sure	-10.9888
▁5,000	-10.989
मत	-10.9891
tia	-10.9893
▁warnings	-10.9894
▁रखत	-10.9897
pping	-10.9898
▁size	-10.9903
्ता	-10.9908
aking	-10.9914
xin	-10.9919
▁गिल	-10.9925
▁मू	-10.993
▁friends	-10.993
ole	-10.9937
▁par	-10.9938
▁ट्रे	-10.9939
▁Syrian	-10.994
round	-10.9943
गोल	-10.9945
▁fine	-10.9949
To	-10.9962
ैल	-10.9966
owned	-10.9968
▁विस्	-10.9968
not	-10.9969
▁अस्वीकार	-10.9973
▁केंद्रों	-10.9975
▁van	-10.9977
▁Sinc	-10.9985
▁del	-10.9987
ुट	-10.9988
ẽ	-10.9988
General	-10.9991
đã	-10.9991
▁Bu	-11.0001
▁missile	-11.0003
▁practice	-11.0003
▁street	-11.0003
opposed	-11.0004
190	-11.001
हू	-11.0019
istic	-11.0021
▁विमानों	-11.0028
moud	-11.0034
▁lines	-11.0036
▁attend	-11.0038
▁प्रदर्श	-11.004
▁खुश	-11.0047
term	-11.0051
▁संबंधों	-11.0052
▁certain	-11.0054
▁रिपब्लिक	-11.0058
▁observ	-11.0064
▁khô	-11.0067
व्यक्तियों	-11.0075
▁trô	-11.0078
▁investigate	-11.008
▁collapse	-11.0081
▁Clark	-11.0082
▁Frank	-11.009
▁वर्	-11.009
▁favour	-11.0092
▁बंदूक	-11.0093
▁Constitution	-11.0093
▁Defense	-11.0093
▁Judge	-11.0093
▁Matthew	-11.0093
▁Rwanda	-11.0093
▁Slovenia	-11.0093
▁controversy	-11.0093
▁monitor	-11.0093
▁society	-11.0093
▁sạch	-11.0093
▁tặng	-11.0093
▁इंस्टीट्यूट	-11.0093
▁प्रार्थना	-11.0093
▁भागीदारी	-11.0093
▁मजदूर	-11.0093
▁महामारी	-11.0093
▁राजदूत	-11.0093
▁शिकागो	-11.0093
▁1975	-11.0093
▁Member	-11.0093
▁condemn	-11.0093
▁rủi	-11.0093
▁Iowa	-11.0093
▁निर्भर	-11.0093
▁Michel	-11.0093
▁shock	-11.0093
▁डिजाइन	-11.0093
▁planning	-11.0093
▁reduction	-11.0093
▁SpaceX	-11.0093
▁हाफ	-11.0093
▁घाट	-11.0093
▁फेंक	-11.0094
▁worldwide	-11.0094
▁फिजी	-11.0094
burg	-11.0094
▁रैली	-11.0094
▁जूरी	-11.0094
▁ट्यू	-11.0094
▁detect	-11.0095
▁Taylor	-11.0095
▁alert	-11.0095
▁chuyền	-11.0095
▁क्रूज	-11.0096
▁मैरी	-11.0097
▁मक	-11.0098
▁concluded	-11.0098
▁particularly	-11.0101
▁Montenegro	-11.0101
▁prisoners	-11.0101
▁Law	-11.0101
▁vơ	-11.0102
40,000	-11.0102
▁completely	-11.0104
▁lọc	-11.0106
aimed	-11.0107
▁1.5	-11.0108
▁एफ	-11.0108
▁treated	-11.0108
▁protection	-11.0109
▁sentenced	-11.011
▁77	-11.0113
▁trapped	-11.0114
▁cast	-11.0115
▁Sá	-11.0117
▁mai	-11.0132
▁thầu	-11.0133
▁बदलने	-11.0133
▁carrier	-11.0138
▁दर्जन	-11.0138
▁fans	-11.0139
▁73	-11.0139
▁बहाल	-11.014
ज़र	-11.0142
hí	-11.0142
भार	-11.0142
▁बि	-11.0149
पीए	-11.0151
ुअल	-11.0169
▁Cuố	-11.0175
▁मारने	-11.0179
ọi	-11.018
-10	-11.0196
▁Maria	-11.0198
▁initial	-11.0198
▁ओल	-11.02
position	-11.0204
▁Tay	-11.0218
▁red	-11.0222
▁टिम	-11.0222
▁đồn	-11.0224
▁Cu	-11.0237
▁निपटन	-11.0244
▁झु	-11.0249
pol	-11.0255
तो	-11.0261
▁follow	-11.0262
anda	-11.0266
▁गिरफ्तारी	-11.0273
सिन	-11.0275
ER	-11.0277
▁systems	-11.0278
मेट	-11.0284
▁Khan	-11.0284
प्ल	-11.0291
यर्स	-11.0298
rk	-11.0303
हाउस	-11.0304
eau	-11.0305
▁Democrat	-11.0314
्श	-11.0317
ेक्ट	-11.0321
▁हाव	-11.0338
▁हु	-11.0345
▁tiê	-11.0346
▁believes	-11.0346
गार	-11.0357
▁कॉन	-11.0362
▁constitution	-11.037
लवी	-11.0371
▁confirm	-11.0378
▁delay	-11.0384
▁trú	-11.0387
mate	-11.0393
▁प्राथमिक	-11.0399
▁संवाददाता	-11.0402
▁electric	-11.0404
गठन	-11.0405
ville	-11.0405
नैतिक	-11.0405
▁Charles	-11.0405
Bạn	-11.0405
▁Cambridge	-11.0405
▁Canberra	-11.0405
▁Sarkozy	-11.0405
▁Tokyo	-11.0405
▁chụp	-11.0405
▁drink	-11.0405
▁hứng	-11.0405
▁multi	-11.0405
▁survey	-11.0405
▁vaccine	-11.0405
▁written	-11.0405
▁xoay	-11.0405
▁अखबार	-11.0405
▁आत्महत्या	-11.0405
▁इजराइल	-11.0405
▁तैनात	-11.0405
▁पाठ्यक्रम	-11.0405
▁प्रशंसक	-11.0405
▁ब्राजील	-11.0405
▁ICE	-11.0405
▁Jeff	-11.0405
▁black	-11.0405
▁chảy	-11.0405
▁draft	-11.0405
▁facing	-11.0405
▁resources	-11.0405
▁भरोसा	-11.0405
▁Wikimedia	-11.0405
▁brief	-11.0405
▁कौन	-11.0405
▁Alamo	-11.0405
▁Four	-11.0405
▁contest	-11.0405
▁गरीब	-11.0405
▁easi	-11.0405
▁Carolina	-11.0406
▁Preston	-11.0406
▁ब्लैक	-11.0406
▁winning	-11.0406
▁मुख्यालय	-11.0406
▁Eastern	-11.0406
▁metres	-11.0406
▁Revolution	-11.0406
▁पेड़	-11.0407
▁Xanh	-11.0407
▁nhũng	-11.0407
▁leadership	-11.0407
▁góc	-11.0407
▁Fire	-11.0408
▁trùng	-11.0408
▁thuê	-11.0409
▁đới	-11.041
▁linh	-11.0411
▁thoả	-11.0411
▁टाइ	-11.0412
▁Saudi	-11.0413
▁suspended	-11.0413
▁march	-11.0414
▁bế	-11.0415
▁connection	-11.0416
▁बुनियाद	-11.0417
▁fishing	-11.0419
▁सच	-11.042
▁संस्थान	-11.042
▁लाया	-11.042
▁नजर	-11.0422
▁intended	-11.0425
▁seriously	-11.0426
▁देत	-11.0431
$8	-11.0433
▁बिन	-11.0434
▁Lordi	-11.0436
▁speaking	-11.0439
▁wage	-11.0439
▁निर्मित	-11.044
▁concerned	-11.0443
sex	-11.0444
▁Ball	-11.0445
spect	-11.0445
संगत	-11.0446
▁अमेरिकन	-11.0447
▁PM	-11.0448
▁blocked	-11.045
काश	-11.045
▁टेप	-11.0451
▁कब्जे	-11.0454
-16	-11.0455
▁ब्लू	-11.0461
रूम	-11.0462
▁पु	-11.0463
▁Edwards	-11.0464
▁54	-11.0467
▁उत्पादों	-11.0468
▁wants	-11.0469
▁gay	-11.0474
▁polls	-11.0479
थन	-11.048
▁अप्र	-11.0485
43	-11.0486
▁दिला	-11.049
▁thiệp	-11.0491
SP	-11.0491
iết	-11.0494
▁फ़्ल	-11.0502
▁चुन	-11.0502
▁नियुक्त	-11.0505
▁92	-11.0507
▁Pas	-11.0507
cher	-11.0508
▁Paralympics	-11.0516
मंड	-11.0518
▁terrorists	-11.0519
âm	-11.0532
new	-11.0535
▁cars	-11.0544
▁Muslims	-11.0565
▁संगठनों	-11.0568
▁विकि	-11.0569
ense	-11.0569
▁Ku	-11.0577
षण	-11.0579
फ़्ट	-11.0581
▁Web	-11.059
▁Border	-11.0594
▁स्कूलों	-11.0596
▁Rob	-11.0598
▁tan	-11.0598
ल्ला	-11.0607
▁chim	-11.0609
▁Hong	-11.0618
▁Wo	-11.0618
▁drivers	-11.0621
▁Tin	-11.0624
▁पहल	-11.0624
▁लेन	-11.0631
▁ran	-11.0634
▁800	-11.0636
▁hundred	-11.0639
▁thousand	-11.0639
▁soldier	-11.064
अब	-11.064
right	-11.0649
▁मैट	-11.0649
्रेस	-11.0652
▁chứ	-11.0659
uyền	-11.0683
▁command	-11.0686
▁सांसद	-11.0692
▁Min	-11.0697
▁pain	-11.0697
▁numbers	-11.0698
▁diplomat	-11.0698
▁build	-11.07
▁destroy	-11.0702
▁धा	-11.0702
▁collect	-11.0706
▁पहुंचे	-11.0714
▁bạc	-11.0718
▁finding	-11.0719
▁withdraw	-11.072
▁पुत	-11.0723
▁continues	-11.0725
gợi	-11.0726
▁तत्काल	-11.0727
▁Egypt	-11.0727
▁champion	-11.0727
▁Detroit	-11.0728
▁Glasgow	-11.0728
▁Nicola	-11.0728
▁Olmert	-11.0728
▁Premier	-11.0728
▁ceremony	-11.0728
▁facility	-11.0728
▁fifteen	-11.0728
▁license	-11.0728
▁mosque	-11.0728
▁spokeswoman	-11.0728
▁submarine	-11.0728
▁tournament	-11.0728
▁trouble	-11.0728
▁đĩa	-11.0728
▁आश्चर्य	-11.0728
▁क्वार्टर	-11.0728
▁दुर्व्यवहार	-11.0728
▁पर्यवेक्षक	-11.0728
▁प्रत्यक्ष	-11.0728
▁फ़ाइनल	-11.0728
▁फाउंडेशन	-11.0728
▁साक्ष्य	-11.0728
▁Airways	-11.0728
▁Ocean	-11.0728
▁dozen	-11.0728
▁semi	-11.0728
▁copyright	-11.0728
▁stopped	-11.0728
▁एजेंसिय	-11.0728
▁तस्कर	-11.0728
▁पॉइंट	-11.0728
▁महासागर	-11.0728
▁multiple	-11.0728
▁committed	-11.0728
▁सौंप	-11.0728
▁पैकेज	-11.0728
▁Spain	-11.0728
▁division	-11.0729
▁Trưởng	-11.0729
▁हिंद	-11.0729
▁विद्रोहियों	-11.073
▁खास	-11.0732
▁सीटें	-11.0732
▁आत्म	-11.0733
awa	-11.0735
▁blow	-11.0735
▁Carol	-11.0735
▁lở	-11.0736
▁सीजन	-11.0737
úp	-11.0738
▁túy	-11.0738
▁spending	-11.0738
▁चुना	-11.074
▁factor	-11.074
▁थाई	-11.0741
शायर	-11.0742
▁treaty	-11.0742
▁देकर	-11.0742
▁produced	-11.0742
▁completed	-11.0744
▁जितन	-11.0746
cia	-11.0746
▁rally	-11.0747
▁Pra	-11.0749
ăm	-11.075
▁prepared	-11.075
▁एट	-11.0755
▁68	-11.0756
▁निकालने	-11.0757
▁पड़ोसी	-11.0758
▁Representatives	-11.0762
▁प्रथा	-11.0766
arch	-11.077
▁लिंक	-11.0771
▁contained	-11.0771
▁couple	-11.0776
▁explosives	-11.0777
▁फ़ोन	-11.0777
▁bê	-11.078
▁खान	-11.0781
▁स्रोतों	-11.0784
▁En	-11.0786
▁Form	-11.0788
cker	-11.0789
▁टॉ	-11.0791
▁बिग	-11.0791
bre	-11.0796
▁भरने	-11.0805
वाय	-11.0807
▁बुला	-11.0812
▁provid	-11.0812
▁cells	-11.0815
▁phà	-11.0818
ươ	-11.082
▁Thi	-11.0828
▁ट्रा	-11.0838
▁कॉन्फ	-11.0839
कूद	-11.084
▁trip	-11.0846
▁Tour	-11.0855
▁ability	-11.0855
ंसा	-11.0857
▁evening	-11.086
▁वै	-11.086
▁(5	-11.086
स्को	-11.0874
qua	-11.0878
▁रु	-11.0883
यम	-11.0885
vert	-11.0887
ural	-11.0895
▁surge	-11.0903
òng	-11.0915
स्थान	-11.0917
▁reporting	-11.0919
$2	-11.0921
▁Wall	-11.0926
इज़	-11.0947
बहुत	-11.096
ology	-11.096
▁टेर	-11.097
út	-11.0975
▁स्थिर	-11.0977
▁85	-11.098
▁वें	-11.0983
▁simpl	-11.0988
▁cell	-11.099
▁झ	-11.0998
▁lỗ	-11.1004
▁वॉल	-11.1005
rdo	-11.101
▁चली	-11.1011
▁फ़्रांस	-11.1012
यां	-11.1015
▁mean	-11.1019
▁des	-11.1019
▁दू	-11.1022
डोर	-11.1023
3%	-11.1024
▁समर्थक	-11.1025
▁acts	-11.1026
▁रुक	-11.103
▁commission	-11.1034
room	-11.1037
▁carry	-11.1038
▁user	-11.104
▁विलियम	-11.1043
▁thê	-11.1043
▁हों	-11.1046
▁determine	-11.1048
▁lọ	-11.1049
▁700	-11.105
▁achieve	-11.1053
▁फुट	-11.1054
▁Kurd	-11.1061
29	-11.1061
regular	-11.1061
फ़ुटबॉल	-11.1061
▁Athens	-11.1061
▁Brampton	-11.1061
▁Crown	-11.1061
▁Energy	-11.1061
▁Follow	-11.1061
▁Gruzia	-11.1061
▁Liverpool	-11.1061
▁Medvedev	-11.1061
▁Michigan	-11.1061
▁Munich	-11.1061
▁Musharraf	-11.1061
▁Netherlands	-11.1061
▁Oxford	-11.1061
▁Sunshine	-11.1061
▁Swiss	-11.1061
▁Zelaya	-11.1061
▁chốt	-11.1061
▁cậy	-11.1061
▁prosecutor	-11.1061
▁studies	-11.1061
▁thuẫn	-11.1061
▁tiếc	-11.1061
▁torture	-11.1061
▁Đồng	-11.1061
▁đạp	-11.1061
▁ऐतिहासिक	-11.1061
▁कैबिन	-11.1061
▁क्लार्क	-11.1061
▁जिम्बाब्वे	-11.1061
▁प्रकोप	-11.1061
▁प्रक्षेप	-11.1061
▁1981	-11.1061
▁1992	-11.1061
▁Queen	-11.1061
▁पहाड़	-11.1061
▁राउंड	-11.1061
▁वितरण	-11.1061
▁सौदे	-11.1061
▁debris	-11.1061
▁अग्निशामक	-11.1061
▁शराब	-11.1061
▁Moore	-11.1061
▁lãi	-11.1061
▁विनाश	-11.1061
मोबाइल	-11.1061
▁नौकरी	-11.1061
▁technical	-11.1061
▁Lewis	-11.1061
▁Navy	-11.1061
▁सांता	-11.1061
▁Costa	-11.1061
▁mát	-11.1061
▁गीत	-11.1062
▁Joseph	-11.1062
▁Louis	-11.1062
▁Operation	-11.1062
▁Vịnh	-11.1062
▁बंधक	-11.1062
▁खेत	-11.1062
▁अभियोग	-11.1062
▁Gulf	-11.1062
▁sector	-11.1062
wealth	-11.1063
▁पड़ेगा	-11.1063
स्फ	-11.1063
▁banned	-11.1063
▁dưỡng	-11.1064
▁Glen	-11.1064
▁nhánh	-11.1064
▁स्थानांतर	-11.1064
▁commitment	-11.1065
▁प्रतिबद्धता	-11.1065
▁Southern	-11.1065
▁independence	-11.1065
▁tĩnh	-11.1066
▁बैट	-11.1066
▁dội	-11.1066
▁Rập	-11.1067
▁जिला	-11.1067
▁संपादन	-11.1067
▁harm	-11.1067
▁phúc	-11.1068
▁lầm	-11.1069
▁खनिक	-11.1069
कैलिफ़ोर्निया	-11.107
▁दीवार	-11.107
▁ngư	-11.107
▁detained	-11.1071
▁क्रो	-11.1072
▁पोप	-11.1072
▁cắp	-11.1072
▁daughter	-11.1074
▁चलाया	-11.1075
▁informed	-11.1076
▁works	-11.1078
everal	-11.1079
▁खुले	-11.108
▁विकी	-11.108
▁records	-11.1081
▁type	-11.1082
ूद	-11.1083
▁बेटे	-11.1087
▁trống	-11.1088
▁कैमरा	-11.1095
▁मतदाता	-11.1096
▁एंटी	-11.11
97	-11.1102
▁patients	-11.1106
▁उड़	-11.1106
▁add	-11.1107
▁officially	-11.1108
वर्ती	-11.1109
▁पर्यटक	-11.1117
col	-11.1123
")	-11.1125
▁Guy	-11.1127
▁dog	-11.1128
bn	-11.1131
uần	-11.1131
▁महान	-11.1136
▁videos	-11.1139
▁Nine	-11.1141
लिया	-11.1152
़ी	-11.1154
▁गर्मी	-11.1162
rey	-11.1164
ब्रिज	-11.1171
▁Korean	-11.1171
▁Doug	-11.1171
▁गलती	-11.1172
उन	-11.1175
08	-11.1175
và	-11.1183
▁fully	-11.1186
▁Art	-11.1191
▁west	-11.1199
range	-11.1199
▁Ron	-11.12
▁कॉक	-11.12
थल	-11.1201
▁Alan	-11.1202
▁reasons	-11.1202
gate	-11.1207
▁nhạ	-11.1212
▁CD	-11.1216
▁सरकारों	-11.1221
▁चे	-11.1223
▁kill	-11.123
▁Pan	-11.123
▁views	-11.1232
▁चाह	-11.1235
▁mayor	-11.1248
▁breach	-11.1258
▁Động	-11.1262
▁lay	-11.1283
टू	-11.1291
ago	-11.1292
▁Palestinians	-11.1294
▁taxi	-11.13
ability	-11.1301
जुक	-11.1302
Đảng	-11.1305
▁fo	-11.1305
▁Đó	-11.1306
▁£1	-11.1307
▁cuts	-11.1309
Khi	-11.1311
Việ	-11.1313
▁active	-11.1318
rập	-11.1318
51	-11.132
▁Kar	-11.132
tty	-11.1325
▁पॉ	-11.1326
áp	-11.1328
▁रोमन	-11.1332
▁sail	-11.1334
▁PC	-11.1339
And	-11.1339
▁ऊंचा	-11.134
▁wor	-11.1361
▁inch	-11.1364
▁nề	-11.1366
▁माल	-11.1367
▁पीछ	-11.1373
▁obtain	-11.138
▁Bro	-11.1382
▁farm	-11.1384
▁संस्था	-11.1391
▁संदर्भ	-11.1393
▁escape	-11.1393
RO	-11.1403
▁Angel	-11.1403
▁implement	-11.1404
ाधिकार	-11.1405
▁text	-11.1406
वसायि	-11.1406
्रत्यक्षदर्शियों	-11.1406
▁Ashley	-11.1406
▁Blount	-11.1406
▁Brisbane	-11.1406
▁Dennis	-11.1406
▁Meanwhile	-11.1406
▁Papua	-11.1406
▁Rugby	-11.1406
▁Science	-11.1406
▁Wellington	-11.1406
▁chép	-11.1406
▁detention	-11.1406
▁frequent	-11.1406
▁negotiations	-11.1406
▁possibly	-11.1406
▁thạch	-11.1406
▁wrote	-11.1406
▁अधिवक्ता	-11.1406
▁इंजीनियर	-11.1406
▁इंतजा	-11.1406
▁उपभोक्ता	-11.1406
▁कंट्रोल	-11.1406
▁ज़िम्मेदार	-11.1406
▁टूर्ना	-11.1406
▁नजदीक	-11.1406
▁निरीक्षण	-11.1406
▁पंद्रह	-11.1406
▁मुक़दम	-11.1406
▁विश्लेषक	-11.1406
▁हस्तक्षेप	-11.1406
▁1982	-11.1406
▁AOL	-11.1406
▁Labor	-11.1406
▁bọn	-11.1406
▁expand	-11.1406
▁print	-11.1406
▁निष्पक्ष	-11.1406
▁€1	-11.1406
▁दुकान	-11.1406
▁photo	-11.1406
▁brain	-11.1406
▁sound	-11.1406
▁zone	-11.1406
▁सिंह	-11.1406
▁Water	-11.1406
▁ग्रैंड	-11.1406
▁western	-11.1407
ploy	-11.1407
▁Leader	-11.1407
▁हादस	-11.1407
▁option	-11.1407
▁stole	-11.1407
▁असामान्य	-11.1407
▁giận	-11.1408
▁एबीसी	-11.1408
▁बांध	-11.1408
▁lift	-11.1408
▁appearance	-11.1408
▁consist	-11.1409
Assad	-11.1409
▁Spring	-11.141
ửa	-11.141
▁उठाया	-11.141
▁स्विस	-11.141
▁decline	-11.1411
▁hurt	-11.1412
ụng	-11.1414
▁रखना	-11.1415
चारिक	-11.1415
▁ल्यू	-11.1416
▁intention	-11.1416
▁माँग	-11.1417
▁kia	-11.1419
▁शिया	-11.1419
क्शन	-11.142
▁2003.	-11.1421
▁trúc	-11.1421
▁गुना	-11.1422
▁जमा	-11.1424
थवा	-11.1426
▁predicted	-11.1427
स्टील	-11.1427
▁Ant	-11.1432
oli	-11.1433
▁language	-11.1433
▁67	-11.1434
▁attended	-11.1436
Và	-11.1437
▁thôn	-11.1437
▁$6	-11.1438
▁बनाना	-11.1438
नेट	-11.144
▁संवैधानिक	-11.1441
▁बोर	-11.1441
▁विद	-11.1442
▁cable	-11.1446
▁फ्रे	-11.1446
▁Nat	-11.1447
▁केबल	-11.1448
▁टन	-11.1449
efore	-11.145
▁बाई	-11.145
सीडी	-11.1452
eath	-11.1457
आज	-11.1461
▁यहाँ	-11.1464
▁माइन	-11.1464
▁spi	-11.1475
▁सहयोगी	-11.1478
मानवीय	-11.1481
▁डेन	-11.1491
▁आस्ट्रेलिया	-11.1492
▁ठहरा	-11.1496
ांतर	-11.1499
▁features	-11.1512
mod	-11.1519
▁Carl	-11.1526
▁दिल	-11.1531
▁दर्शात	-11.1531
▁मार्	-11.1534
uit	-11.1536
▁दान	-11.1538
▁एम्ब	-11.1538
▁करार	-11.154
हान	-11.1541
क्टर	-11.1541
▁lô	-11.1555
▁onto	-11.1557
▁ring	-11.1558
ूस	-11.1559
▁tốn	-11.1559
▁Kong	-11.157
FIA	-11.1572
44	-11.1574
▁owners	-11.1575
सद	-11.1576
ीफा	-11.1578
▁tape	-11.159
bed	-11.1594
52	-11.1597
▁हेन	-11.16
▁पैसे	-11.16
शो	-11.1604
▁Jay	-11.1605
▁Lin	-11.1605
▁निक	-11.1608
ंडो	-11.161
कॉम	-11.1617
रोन	-11.1619
dua	-11.1622
5,000	-11.1624
▁product	-11.1636
ुरा	-11.164
▁इस्तीफ	-11.166
trong	-11.1665
point	-11.1665
▁Chen	-11.1666
आईए	-11.167
▁figure	-11.1674
▁relative	-11.1674
more	-11.1678
▁pla	-11.1678
▁नर	-11.1678
▁लाल	-11.168
▁remov	-11.1684
▁love	-11.1684
No	-11.1686
ave	-11.1687
▁पेपर	-11.1688
सागर	-11.1688
▁उठ	-11.1693
▁Sta	-11.1706
ाकू	-11.1714
▁im	-11.1717
light	-11.1718
▁बहु	-11.1719
▁dam	-11.172
▁(12	-11.1721
▁Toà	-11.1722
citing	-11.1722
▁कुर	-11.1725
▁प्रजातिय	-11.1729
▁जीव	-11.1731
▁कार्ल	-11.1734
istan	-11.1741
▁बाध	-11.1741
▁đón	-11.1752
▁whil	-11.1753
▁particular	-11.1754
▁immediate	-11.1754
ूंगा	-11.1755
▁खेला	-11.1758
मूह	-11.1761
▁आवाज	-11.1761
▁संक्रम	-11.1762
▁smoke	-11.1762
▁Abdullah	-11.1763
▁Adelaide	-11.1763
▁Deputy	-11.1763
▁Eritrea	-11.1763
▁Ethiopia	-11.1763
▁Hawaii	-11.1763
▁Kentucky	-11.1763
▁Madhavan	-11.1763
▁McHale	-11.1763
▁Oklahoma	-11.1763
▁OpenOffice	-11.1763
▁Quebec	-11.1763
▁Rumsfeld	-11.1763
▁Thaksin	-11.1763
▁beyond	-11.1763
▁bậc	-11.1763
▁cloud	-11.1763
▁experiment	-11.1763
▁forecast	-11.1763
▁split	-11.1763
▁territory	-11.1763
▁अर्जेंटीना	-11.1763
▁बंदरगाह	-11.1763
▁भूतपूर्व	-11.1763
▁मुसलमान	-11.1763
▁सैंटोरम	-11.1763
▁Forbes	-11.1763
▁injury	-11.1763
▁thoái	-11.1763
▁उत्साह	-11.1763
▁कप्तान	-11.1763
▁मान्यता	-11.1763
▁Black	-11.1763
▁Channel	-11.1763
▁Clara	-11.1763
▁vững	-11.1763
▁गोपनीय	-11.1763
▁Gabon	-11.1763
▁double	-11.1763
▁dày	-11.1763
▁सटीक	-11.1763
▁pledge	-11.1763
▁strain	-11.1763
▁wrong	-11.1763
मुफ्त	-11.1763
▁मेजर	-11.1763
▁unusual	-11.1763
▁begun	-11.1763
▁भड़क	-11.1763
▁मैक्के	-11.1763
▁ढह	-11.1763
▁river	-11.1763
▁दलील	-11.1763
▁application	-11.1763
▁साइम	-11.1763
▁जर्नल	-11.1763
▁Town	-11.1763
▁resistance	-11.1763
▁Kelly	-11.1764
▁Cedar	-11.1764
▁basis	-11.1764
▁championship	-11.1764
▁ट्रैफ	-11.1764
▁एंड्रयू	-11.1764
▁फ्लोरिडा	-11.1764
▁अवार्ड	-11.1764
▁नामांकन	-11.1764
▁STS	-11.1764
खंडन	-11.1765
▁Nature	-11.1765
▁पोलैंड	-11.1765
▁fellow	-11.1765
▁investment	-11.1765
▁hostage	-11.1766
▁Interior	-11.1766
▁management	-11.1766
▁बुलाया	-11.1766
aco	-11.1766
▁हालात	-11.1767
▁yên	-11.1767
▁शरण	-11.1767
▁fallen	-11.1768
▁360	-11.1769
▁Road	-11.1769
▁Six	-11.177
▁70%	-11.1772
▁setting	-11.1772
12	-11.1774
▁package	-11.1774
▁मिलाकर	-11.1776
▁đâu	-11.1777
▁माह	-11.1778
▁specific	-11.1778
▁Allen	-11.1779
▁Sinn	-11.1779
▁फंड	-11.1779
▁Yankees	-11.1781
▁मिलकर	-11.1782
▁belong	-11.1783
▁recovered	-11.1786
▁50%	-11.1786
दम	-11.1789
▁organisation	-11.1789
▁विश्वसनीय	-11.1792
▁78	-11.1792
oC	-11.1792
▁Live	-11.1793
▁उठाए	-11.1794
▁interviews	-11.1796
ider	-11.1801
▁vâ	-11.1806
▁moon	-11.1807
▁pop	-11.1808
▁accepted	-11.1809
▁लगाई	-11.181
▁goals	-11.1811
▁limited	-11.1811
▁1%	-11.1811
इंट	-11.1814
▁रोड	-11.1815
▁आंकड़े	-11.1818
▁एब	-11.1818
▁khoán	-11.1823
▁questioned	-11.1823
▁आर्ट	-11.1824
▁फंस	-11.1828
▁scale	-11.1831
ांसी	-11.1831
95	-11.1832
दाताओं	-11.1833
ruyền	-11.1833
भाग	-11.1834
▁Abe	-11.1835
▁counts	-11.1841
ball	-11.1841
▁Ver	-11.1843
▁criticis	-11.1843
▁Bang	-11.1844
▁BP	-11.1844
▁sell	-11.1849
▁mph	-11.1852
45	-11.1858
rim	-11.1858
▁तंत्र	-11.1859
▁मुख	-11.1862
▁गाड़	-11.1863
AD	-11.1875
विपक्षी	-11.1887
had	-11.1887
▁Ms	-11.1888
▁भाल	-11.1893
▁फ़र	-11.1894
▁रै	-11.1908
▁Fort	-11.1911
▁hộp	-11.1921
▁chút	-11.1922
500,000	-11.1927
46	-11.1935
head	-11.1935
set	-11.1936
▁बतान	-11.1936
कुल	-11.1942
हां	-11.1949
▁hands	-11.1951
▁doesn	-11.1954
▁आं	-11.196
लीक	-11.1972
ark	-11.1972
▁फै	-11.1983
ब्यू	-11.1984
▁जानी	-11.1993
▁74	-11.2007
▁बाय	-11.2007
▁Greens	-11.202
▁hương	-11.2026
▁स्वा	-11.2028
▁दूसर	-11.2028
rian	-11.2031
final	-11.2032
▁भय	-11.204
▁पोत	-11.2043
▁$4	-11.2043
▁violation	-11.2044
▁Thờ	-11.2044
▁dollar	-11.2044
▁standard	-11.2046
▁स्वर्	-11.2047
दंड	-11.2052
▁गार	-11.2052
िवार	-11.2053
hua	-11.2057
▁Not	-11.206
ơn	-11.2063
ुम	-11.2069
▁वाटर	-11.2071
▁Niger	-11.2072
▁names	-11.2081
ंजाम	-11.2087
equ	-11.2089
▁चू	-11.2091
िद	-11.2092
▁जै	-11.2093
ordin	-11.2094
▁reveal	-11.2108
▁refus	-11.2108
▁gen	-11.2109
ट्ट	-11.2114
▁agree	-11.2116
▁secure	-11.2121
▁ngạc	-11.2124
▁Albert	-11.2125
▁fires	-11.2131
▁resign	-11.2132
evolution	-11.2132
ांकन	-11.2132
▁लैप	-11.2133
▁Ahmed	-11.2134
▁Jewish	-11.2134
▁Opposition	-11.2134
▁Salmond	-11.2134
▁advice	-11.2134
▁ambulance	-11.2134
▁exercise	-11.2134
▁headquarters	-11.2134
▁mistake	-11.2134
▁photograph	-11.2134
▁science	-11.2134
▁tấm	-11.2134
▁university	-11.2134
▁औद्योगिक	-11.2134
▁दिये	-11.2134
▁फ़रवरी	-11.2134
▁मेक्सिको	-11.2134
▁राजनयिक	-11.2134
▁शिविर	-11.2134
▁संयंत्र	-11.2134
▁सुप्रीम	-11.2134
▁1970	-11.2134
▁Serge	-11.2134
▁amendment	-11.2134
▁physical	-11.2134
▁sleep	-11.2134
▁सर्जरी	-11.2134
▁1989	-11.2134
▁church	-11.2134
▁ghé	-11.2134
▁खींच	-11.2134
▁Irish	-11.2134
▁भ्रष्टाचार	-11.2134
▁floor	-11.2134
▁relations	-11.2134
▁clean	-11.2134
▁कलाकार	-11.2134
▁ड्रग	-11.2134
▁Brook	-11.2134
▁पुनः	-11.2134
▁प्राधिकरण	-11.2134
▁माइक्रोसॉफ	-11.2134
▁adopt	-11.2134
▁निभा	-11.2134
▁hoạn	-11.2134
▁निर्वास	-11.2134
▁Jobs	-11.2134
▁Libertarian	-11.2134
▁stress	-11.2134
▁attract	-11.2135
▁khúc	-11.2135
▁कैंप	-11.2135
▁Graham	-11.2135
▁kim	-11.2135
▁नौकरिय	-11.2135
▁unlike	-11.2135
▁declaration	-11.2136
▁Bra	-11.2136
▁चक्क	-11.2136
▁hấp	-11.2136
▁Year	-11.2136
▁bags	-11.2136
▁replace	-11.2136
▁धारा	-11.2137
▁justice	-11.2137
▁औ	-11.2137
▁Robertson	-11.2138
▁आयुक्त	-11.2138
▁Poland	-11.2138
▁लीडर	-11.2138
▁Xtra	-11.2138
▁2014	-11.2138
▁मिश्र	-11.2139
▁reaction	-11.2139
▁shots	-11.2141
▁योग्यता	-11.2141
▁क्रे	-11.2142
▁dược	-11.2142
▁Alberta	-11.2143
▁पृष्ठ	-11.2143
▁पेंट	-11.2145
र्ता	-11.2145
▁thước	-11.2146
▁mệnh	-11.2146
▁chợ	-11.2146
bour	-11.2146
▁apparent	-11.2146
▁विफलता	-11.2147
▁मिड	-11.2147
▁nhả	-11.2148
▁लोक	-11.2148
▁gone	-11.2148
▁Honduras	-11.2149
▁nhượng	-11.2151
▁vắc	-11.2151
▁undergo	-11.2151
▁argued	-11.2153
▁replaced	-11.2153
▁समर्प	-11.2156
▁3-1	-11.2156
▁फ़ी	-11.2157
▁explained	-11.2158
▁requirement	-11.2158
▁hào	-11.2165
▁row	-11.2165
but	-11.2166
▁tật	-11.2167
▁agent	-11.2168
▁गोला	-11.217
▁ताल	-11.2171
पूर	-11.2171
ावास	-11.2172
▁लेते	-11.2174
▁डालने	-11.2175
▁बेटी	-11.2178
▁Cao	-11.2181
▁commander	-11.2182
▁विक्टोरिया	-11.2183
▁requested	-11.2184
▁Đào	-11.2186
▁जुड़ा	-11.2187
▁chúa	-11.2188
▁changed	-11.2195
▁Marine	-11.2197
▁737	-11.2201
CO	-11.2203
▁तेज़	-11.2204
▁डेली	-11.2207
▁num	-11.2208
▁mây	-11.2208
▁Moham	-11.2209
stian	-11.2212
▁सीख	-11.2212
▁award	-11.2217
▁Ten	-11.2221
▁हित	-11.2222
इट	-11.2223
▁पैट्र	-11.2225
▁fly	-11.2228
▁पड़े	-11.223
▁heat	-11.2233
▁ơn	-11.2239
▁kiể	-11.224
itation	-11.224
▁ऑल	-11.2241
▁follows	-11.2242
टर्स	-11.2242
▁खन	-11.2268
AW	-11.2278
▁Mann	-11.2291
प्ले	-11.2294
त्स	-11.2297
ाचार	-11.2302
▁राइट	-11.2304
िष्ट	-11.2305
losing	-11.2321
▁लू	-11.2322
▁Mil	-11.2327
▁कैन	-11.233
tein	-11.2331
▁Georgian	-11.2334
▁Má	-11.2341
▁(16	-11.2341
▁जोस	-11.2344
34	-11.2348
huyến	-11.2349
ota	-11.2355
wing	-11.2356
39	-11.236
▁सिन	-11.236
▁Joh	-11.2369
▁Cam	-11.2369
▁सम्	-11.2374
▁सक	-11.2383
itially	-11.2385
▁DC	-11.239
▁बैठ	-11.2394
bout	-11.2395
▁Sen	-11.2399
▁poll	-11.2402
▁mile	-11.2409
bank	-11.2416
आउट	-11.2416
▁promot	-11.2416
निर्माण	-11.2416
(	-11.2417
▁vessel	-11.2428
▁civilian	-11.2431
▁shop	-11.2431
east	-11.2432
▁बढ़ोत	-11.2433
leo	-11.2435
▁पव	-11.2435
▁Bor	-11.2441
▁18-	-11.2441
▁confident	-11.2444
▁कम्प	-11.2445
mini	-11.2454
▁वैध	-11.2458
▁Somali	-11.2462
▁walk	-11.2464
▁coup	-11.2466
बेल	-11.2467
▁bomber	-11.2467
là	-11.2469
▁bơ	-11.2471
▁Jon	-11.2472
▁flow	-11.2475
▁एकल	-11.2483
▁fail	-11.2489
राए	-11.2494
người	-11.2498
▁ब्रि	-11.2504
pparently	-11.2505
▁बदले	-11.2506
ंत्रिक	-11.2507
▁Work	-11.2516
rofessor	-11.2516
लमैन	-11.2517
▁कार्यकर्ता	-11.2518
▁दर्द	-11.2518
▁proceed	-11.2518
▁birth	-11.2518
junction	-11.2518
▁Chelsea	-11.2518
▁Djibouti	-11.2518
▁Estonia	-11.2518
▁Garuda	-11.2518
▁Gonzales	-11.2518
▁Gonzalez	-11.2518
▁Montreal	-11.2518
▁Mugabe	-11.2518
▁Schaper	-11.2518
▁Special	-11.2518
▁Stewart	-11.2518
▁Trident	-11.2518
▁Vestas	-11.2518
▁Yesterday	-11.2518
▁audience	-11.2518
▁distribution	-11.2518
▁kèm	-11.2518
▁marriage	-11.2518
▁opponent	-11.2518
▁prosecution	-11.2518
▁rival	-11.2518
▁teenager	-11.2518
▁wheel	-11.2518
▁उद्धृत	-11.2518
▁जनसंख्या	-11.2518
▁जासूस	-11.2518
▁ट्विटर	-11.2518
▁डिस्कवर	-11.2518
▁दृश्य	-11.2518
▁निम्न	-11.2518
▁पब्लिक	-11.2518
▁पीपुल	-11.2518
▁प्रशंसा	-11.2518
▁प्रावधान	-11.2518
▁बॉर्डर	-11.2518
▁ब्राज़ील	-11.2518
▁संरचना	-11.2518
▁सर्वोच्च	-11.2518
▁Alzheimer	-11.2518
▁Donald	-11.2518
▁GDP	-11.2518
▁blaze	-11.2518
▁blue	-11.2518
▁ब्यूरो	-11.2518
▁HTC	-11.2518
▁lãm	-11.2518
▁animal	-11.2518
▁flash	-11.2518
▁rãi	-11.2518
▁Show	-11.2518
▁widespread	-11.2518
▁प्लास्ट	-11.2518
▁बॉब	-11.2518
▁Bryan	-11.2518
▁नाइजीरिया	-11.2518
परिचालन	-11.2518
▁motion	-11.2518
▁continuing	-11.2518
▁मैनचेस्टर	-11.2518
▁फिलिप	-11.2518
▁कामयाब	-11.2518
▁Batey	-11.2518
▁nghênh	-11.2518
▁Jonath	-11.2519
▁firefighters	-11.2519
▁फेडर	-11.2519
▁richter	-11.2519
▁domestic	-11.2519
धीरे	-11.2519
▁assistance	-11.2519
▁Maryland	-11.2519
▁Barker	-11.2519
▁जस्टि	-11.2519
▁अग्निश	-11.252
▁Point	-11.252
▁पेरिस	-11.252
▁everyone	-11.252
▁runway	-11.252
▁true	-11.2521
▁फ़ाइल	-11.2521
▁giục	-11.2521
▁Rica	-11.2521
▁Harry	-11.2521
▁Rome	-11.2522
▁नज़र	-11.2523
▁Bethe	-11.2523
▁alone	-11.2523
▁Milan	-11.2524
▁Gmail	-11.2524
िएशन	-11.2524
▁seat	-11.2524
▁Jess	-11.2525
▁counter	-11.2527
▁xương	-11.2527
▁Gore	-11.2527
▁Dave	-11.2528
▁Earl	-11.2528
ीति	-11.2528
▁450	-11.2531
▁businesses	-11.2531
▁Thompson	-11.2532
▁radar	-11.2532
▁नाइट	-11.2533
नेक	-11.2533
▁Bỉ	-11.2533
एरा	-11.2534
▁घूम	-11.2535
▁Award	-11.2536
▁pulled	-11.2537
▁भरा	-11.2537
▁2-1	-11.254
▁170	-11.2541
▁Yo	-11.2542
▁strip	-11.2544
▁AFP	-11.2545
lastic	-11.2545
▁बिता	-11.2547
▁Indiana	-11.2548
▁20,000	-11.2549
▁adding	-11.255
▁manufacturer	-11.2552
▁फंसे	-11.2556
▁reduced	-11.2558
▁Ford	-11.256
▁khói	-11.2561
ancy	-11.2563
erial	-11.2564
non	-11.2564
▁marked	-11.2566
▁छठ	-11.2568
5.000	-11.2576
▁अंग	-11.2576
like	-11.2577
▁मुद्दा	-11.258
प्प	-11.2587
▁words	-11.2587
▁ED	-11.2592
▁ऊंच	-11.2593
▁Mur	-11.2598
▁mù	-11.2606
▁Now	-11.2606
ena	-11.2607
▁lose	-11.2609
▁स्थायी	-11.2614
▁वकीलों	-11.2615
▁Carlo	-11.2618
▁streets	-11.2634
▁माम	-11.2638
साम	-11.2639
▁एंड्र	-11.2641
शिक	-11.2643
▁surviv	-11.2649
▁Zu	-11.265
▁कब	-11.265
▁mandate	-11.2651
MA	-11.2653
kov	-11.2655
▁बचे	-11.2659
िज़	-11.2661
▁Quả	-11.2663
घात	-11.2668
ternal	-11.2668
66	-11.2676
▁मिस्ट	-11.2678
जिस	-11.2681
▁फ़्र	-11.2683
work	-11.2691
▁कपड़	-11.2697
ेह	-11.2703
▁फोर	-11.2705
▁हुईं	-11.2712
▁(8	-11.2718
द्र	-11.2723
▁नय	-11.2728
डेन	-11.2735
▁अर	-11.2738
ाइज	-11.2742
▁ships	-11.2743
usan	-11.2746
▁खोल	-11.2754
▁चाहत	-11.2759
▁thô	-11.2766
▁pha	-11.2774
ंटी	-11.2778
▁Americans	-11.2778
▁chiê	-11.2781
▁जॉनस	-11.2784
्को	-11.28
ॉक्स	-11.2801
▁fund	-11.2801
▁शै	-11.281
95%	-11.2814
पोर्ट	-11.2815
house	-11.2816
बोर्ड	-11.2818
▁tro	-11.2819
▁घटा	-11.282
azi	-11.2821
box	-11.2821
rắc	-11.2828
▁employee	-11.2829
lly	-11.284
▁Sport	-11.2841
श्री	-11.2859
दाद	-11.2867
धन	-11.2873
▁quê	-11.2873
▁Cá	-11.2888
ठा	-11.2892
▁explain	-11.2892
▁introduc	-11.2892
ुर्	-11.2893
इंग	-11.2898
▁62	-11.2902
▁connect	-11.2904
CC	-11.2907
▁राजनीति	-11.2909
▁Barr	-11.2914
▁deep	-11.2915
मुदाय	-11.2915
▁टिप्पणिय	-11.2917
▁फ्रैंक	-11.2918
▁Academy	-11.2918
▁Bahrain	-11.2918
▁Bulgaria	-11.2918
▁Cameron	-11.2918
▁Conference	-11.2918
▁Emergenc	-11.2918
▁FARC	-11.2918
▁Fulham	-11.2918
▁Organisation	-11.2918
▁Ossetia	-11.2918
▁Switzerland	-11.2918
▁Wisconsin	-11.2918
▁advertising	-11.2918
▁alcohol	-11.2918
▁except	-11.2918
▁immun	-11.2918
▁insulin	-11.2918
▁khuẩn	-11.2918
▁reflect	-11.2918
▁solution	-11.2918
▁teachers	-11.2918
▁wickets	-11.2918
▁writing	-11.2918
▁अनिवार्य	-11.2918
▁आक्रामक	-11.2918
▁एथलीट	-11.2918
▁क्रिश्चियन	-11.2918
▁निरंतर	-11.2918
▁नौसैनिक	-11.2918
▁परामर्श	-11.2918
▁प्रतिद्वंद्वी	-11.2918
▁स्ट्राइक	-11.2918
▁IDF	-11.2918
▁Voice	-11.2918
▁bullet	-11.2918
▁chemical	-11.2918
▁conclusion	-11.2918
▁correct	-11.2918
▁invasion	-11.2918
▁shuttle	-11.2918
▁छुट्ट	-11.2918
परिवर्तित	-11.2918
▁eleven	-11.2918
▁BST	-11.2918
▁NSW	-11.2918
▁बैग	-11.2918
▁Alinghi	-11.2918
▁CBS	-11.2918
▁therefore	-11.2918
▁Eurovision	-11.2918
▁लोकतंत्र	-11.2918
▁function	-11.2918
▁अनुरूप	-11.2918
▁criticized	-11.2918
▁तैराक	-11.2918
▁captain	-11.2919
▁vua	-11.2919
▁अल्बर्ट	-11.2919
▁corruption	-11.2919
▁Brother	-11.2919
▁survivors	-11.2919
▁basic	-11.2919
▁एजेंट	-11.2919
▁ब्रांड	-11.2919
▁mining	-11.2919
▁घाव	-11.2919
▁निकास	-11.292
▁बॉक्स	-11.292
▁exploded	-11.292
▁एलेक्स	-11.292
▁professor	-11.292
▁coverage	-11.292
▁Prix	-11.292
ोनाल्ड	-11.2921
ograph	-11.2921
▁Jason	-11.2921
▁लेंगे	-11.2921
▁अल्प	-11.2921
▁flee	-11.2922
▁मित्र	-11.2922
▁worse	-11.2923
फ़ील्ड	-11.2923
▁witnesses	-11.2923
▁lẻ	-11.2923
▁yard	-11.2924
मोर	-11.2924
▁महिलाएं	-11.2924
▁bè	-11.2925
परवाह	-11.2926
▁withdrawal	-11.2928
▁दोबार	-11.2928
▁बजाए	-11.2929
▁चिकित्सक	-11.2929
▁meters	-11.293
▁baby	-11.2932
▁overall	-11.2934
▁surrounding	-11.2935
▁Hunter	-11.2935
sẽ	-11.2936
▁Fein	-11.2936
▁Ze	-11.2936
▁tough	-11.2937
▁सामान	-11.2938
▁शर्तों	-11.2938
▁mê	-11.2938
▁sixth	-11.2939
▁जब्त	-11.2944
▁डिज	-11.2945
▁बाधा	-11.2948
▁vice	-11.2949
▁relati	-11.2949
▁affairs	-11.295
ेन्स	-11.2953
▁hưu	-11.2954
▁range	-11.2955
▁Clarke	-11.2955
▁Down	-11.2956
▁ven	-11.2956
▁portion	-11.2957
▁creation	-11.2957
▁Pope	-11.2968
▁decades	-11.2968
▁covered	-11.2973
▁thank	-11.2974
▁communications	-11.2975
▁doctors	-11.2975
▁हार्ड	-11.2977
ेन्ट	-11.2978
▁temperatures	-11.2979
ंजा	-11.2982
दाम	-11.2989
▁81	-11.2994
ण्ड	-11.2996
▁बीस	-11.2999
नु	-11.3
म्बर	-11.3008
शाही	-11.301
▁सका	-11.3014
बॉन	-11.3023
ào	-11.3024
▁Fri	-11.3024
don	-11.3028
▁Bow	-11.3029
जागर	-11.3031
▁तीसरी	-11.3033
▁factors	-11.3033
▁practices	-11.3039
▁formed	-11.3039
स्का	-11.3039
▁दें	-11.3041
ालय	-11.3042
▁representatives	-11.3046
▁लिन	-11.3047
▁takes	-11.3051
फॉर्म	-11.3053
▁recording	-11.3056
▁135	-11.3059
▁पड़ी	-11.3063
maker	-11.3064
▁bombings	-11.3065
Thậ	-11.3065
जेल	-11.3079
न्ह	-11.3083
ette	-11.3087
▁sales	-11.3089
▁172	-11.3091
ज़ीर	-11.3099
स्तर	-11.31
▁hop	-11.311
किन	-11.3114
▁notice	-11.3114
▁note	-11.3128
हल	-11.3135
ữa	-11.3146
ियस	-11.3149
िब	-11.3152
▁छत	-11.3155
▁प्रतिस्थाप	-11.3157
▁thang	-11.3169
▁माद	-11.3174
▁drugs	-11.3181
▁count	-11.3186
▁दर्शा	-11.3187
lia	-11.319
itter	-11.3191
▁माय	-11.3192
▁waste	-11.3193
mous	-11.3198
▁organizations	-11.32
▁reserve	-11.3211
appropriate	-11.3217
▁ताकत	-11.3219
▁offices	-11.3219
ऊद	-11.3222
▁देखे	-11.323
EST	-11.3231
▁hoà	-11.3232
WHO	-11.3232
र्टन	-11.3233
oàn	-11.3238
स्थायी	-11.3241
▁Roger	-11.3244
▁intens	-11.3248
बर्न	-11.3248
▁sụ	-11.3248
▁positions	-11.325
चाल	-11.3252
▁pm	-11.3256
किसी	-11.3257
▁एंट	-11.3258
▁आव	-11.326
ुओं	-11.3264
▁founded	-11.327
41	-11.3281
▁sides	-11.3284
▁करवा	-11.3285
▁Rah	-11.3285
▁recover	-11.3286
▁भरे	-11.3292
ट्रा	-11.33
▁organis	-11.3305
▁understand	-11.3306
hống	-11.3313
óm	-11.3317
nesty	-11.3321
▁participate	-11.3322
▁bear	-11.3322
Don	-11.3323
▁cạn	-11.3326
▁sàn	-11.3327
ज्ञा	-11.3329
▁tool	-11.3333
श्न	-11.3334
▁Jean	-11.3334
▁kị	-11.3334
▁Edinburgh	-11.3335
Zawahiri	-11.3335
▁Abkhazia	-11.3335
▁Auckland	-11.3335
▁Bangkok	-11.3335
▁Caledonia	-11.3335
▁College	-11.3335
▁Colorado	-11.3335
▁Croydon	-11.3335
▁Elmwood	-11.3335
▁Everton	-11.3335
▁Greek	-11.3335
▁Hamilton	-11.3335
▁Hezbollah	-11.3335
▁Hollywood	-11.3335
▁Hughes	-11.3335
▁Jordan	-11.3335
▁Kazemi	-11.3335
▁Oregon	-11.3335
▁Renault	-11.3335
▁Television	-11.3335
▁Trinidad	-11.3335
▁Vladim	-11.3335
▁anniversary	-11.3335
▁bottom	-11.3335
▁cẩn	-11.3335
▁gallon	-11.3335
▁humanitarian	-11.3335
▁involvement	-11.3335
▁kiệm	-11.3335
▁nature	-11.3335
▁neighbour	-11.3335
▁nomination	-11.3335
▁politics	-11.3335
▁positive	-11.3335
▁premier	-11.3335
▁privacy	-11.3335
▁temple	-11.3335
▁unclear	-11.3335
▁एक्सचेंज	-11.3335
▁बेरोजगार	-11.3335
▁माउंट	-11.3335
▁यूक्रेन	-11.3335
▁लाइव	-11.3335
▁वापिस	-11.3335
▁सर्बिया	-11.3335
▁साइन्टोलॉज	-11.3335
▁Falcon	-11.3335
▁HBO	-11.3335
▁blood	-11.3335
▁sponsor	-11.3335
▁supposed	-11.3335
▁đèn	-11.3335
▁कर्नल	-11.3335
▁क्रांति	-11.3335
▁Herald	-11.3335
▁Jacob	-11.3335
▁Langham	-11.3335
▁analyst	-11.3335
▁employer	-11.3335
▁चौक	-11.3335
▁Warren	-11.3335
▁infection	-11.3335
▁पैनल	-11.3335
▁ब्या	-11.3335
▁Henry	-11.3335
▁ट्रांसपोर्ट	-11.3335
▁robot	-11.3335
हिंसक	-11.3335
▁कोशिका	-11.3335
▁Sky	-11.3335
▁industrial	-11.3335
▁बोइंग	-11.3335
OPP	-11.3335
▁Shiite	-11.3336
▁सफाई	-11.3336
▁सोमालिया	-11.3336
▁sitting	-11.3336
▁bowl	-11.3336
▁कवरेज	-11.3336
▁लादेन	-11.3336
▁surgery	-11.3336
▁Seven	-11.3336
▁consistent	-11.3336
▁पढ़न	-11.3336
▁सिविल	-11.3336
▁Thailand	-11.3336
▁grand	-11.3336
,600	-11.3337
uja	-11.3337
▁Mora	-11.3337
▁Java	-11.3337
▁आयरिश	-11.3337
▁Là	-11.3337
▁Province	-11.3337
▁Rico	-11.3337
▁section	-11.3337
▁हिस्सेदार	-11.3337
▁xỉ	-11.3337
▁authority	-11.3338
▁hoá	-11.3338
▁liền	-11.3338
▁bớt	-11.3338
▁rổ	-11.3338
▁súc	-11.3339
▁Plat	-11.3339
▁राइस	-11.3339
▁Jones	-11.334
▁संवाददाताओं	-11.334
▁पावर	-11.334
▁dỡ	-11.3341
▁आवास	-11.3341
▁इंग	-11.3341
▁न्यूनत	-11.3342
▁Out	-11.3342
▁1-0	-11.3343
▁cứng	-11.3343
▁सहयोगियों	-11.3343
▁सद्	-11.3343
▁Terry	-11.3344
▁điển	-11.3344
▁धारणा	-11.3346
▁बैरल	-11.3346
▁vê	-11.3346
▁tóc	-11.3348
▁कैरियर	-11.3348
▁बताई	-11.3349
▁encourage	-11.3349
tric	-11.3349
▁visa	-11.335
▁बढ़ाया	-11.335
aval	-11.3352
▁Station	-11.3354
▁CSIRO	-11.3355
▁Fall	-11.3355
▁mơ	-11.3358
▁संस्क	-11.3358
▁ब्लॉग	-11.3359
▁growing	-11.3362
▁Gate	-11.3364
▁larger	-11.3364
▁Quyế	-11.3368
▁स्वरूप	-11.3368
▁intend	-11.337
▁delayed	-11.337
▁signal	-11.337
▁hãm	-11.3372
▁coal	-11.3374
▁vương	-11.3375
▁पहुंचाने	-11.3375
हुआ	-11.3375
▁प्रि	-11.3376
▁Jazeera	-11.3377
▁विद्रोही	-11.3379
▁शीर्षक	-11.338
▁कृत्य	-11.338
izing	-11.338
▁अली	-11.3381
▁बारह	-11.3382
úc	-11.3383
▁AU	-11.3386
▁falling	-11.3394
▁पहने	-11.3395
्विन	-11.3395
▁exit	-11.3397
▁चूक	-11.3397
ज़ोन	-11.3398
erry	-11.34
▁1000	-11.3403
ैनिक	-11.3409
▁highly	-11.3409
▁bid	-11.3412
▁हाथों	-11.3418
▁That	-11.3423
▁वुड	-11.3427
ोत्तर	-11.3428
ended	-11.3428
▁metal	-11.3428
▁स्थलों	-11.3434
▁advisor	-11.3438
▁घंटा	-11.344
wal	-11.3443
Z	-11.3447
राज	-11.3452
▁mar	-11.3457
▁Mel	-11.3459
▁paying	-11.3462
▁रखी	-11.3463
▁devices	-11.3464
▁locations	-11.3468
▁सर्व	-11.3469
▁bánh	-11.3471
hiệt	-11.3477
aked	-11.3482
jam	-11.3486
put	-11.3491
एमडी	-11.3499
गहराई	-11.3502
साल	-11.3505
▁già	-11.3508
wide	-11.3515
▁40%	-11.3517
न्यू	-11.3517
▁इन्	-11.3524
▁3.5	-11.3533
▁पिच	-11.3536
▁forest	-11.3537
▁जेस	-11.3555
▁दब	-11.3565
▁forum	-11.3572
▁explosions	-11.3582
hật	-11.3591
▁Laur	-11.3597
▁đồi	-11.3604
▁Như	-11.3605
लेक्स	-11.3607
शिन	-11.362
pple	-11.3624
हाई	-11.3627
▁organiz	-11.363
▁touris	-11.3631
▁MS	-11.3643
rowing	-11.3649
िट्ज	-11.3651
▁ऑपरेट	-11.3654
▁couldn	-11.3659
▁đu	-11.3663
तंत्र	-11.3666
जैसे	-11.3668
body	-11.3668
ít	-11.3671
एयर	-11.3675
▁procedure	-11.3679
▁jet	-11.368
▁militant	-11.3681
▁पड़ता	-11.3682
▁AI	-11.3691
▁image	-11.3694
पुर	-11.371
ीदा	-11.3721
▁Base	-11.3723
16	-11.3723
uthorities	-11.3723
▁परेशान	-11.3724
▁biê	-11.3725
▁घटक	-11.3729
27	-11.373
पूल	-11.3735
▁हफ्त	-11.3735
▁फिलिस्तीन	-11.3737
जात	-11.3738
▁shoot	-11.3742
▁restrict	-11.3743
▁predict	-11.3744
बीसी	-11.3744
▁86	-11.3759
▁पुन	-11.376
itan	-11.3765
▁pursu	-11.3768
▁लेक	-11.3769
▁Gawker	-11.377
▁Control	-11.377
▁Development	-11.377
▁Frankfurt	-11.377
▁Louisiana	-11.377
▁McClellan	-11.377
▁Shankbone	-11.377
▁Territory	-11.377
▁Zidane	-11.377
▁absolute	-11.377
▁analysis	-11.377
▁barrel	-11.377
▁chuột	-11.377
▁combined	-11.377
▁custody	-11.377
▁destination	-11.377
▁happy	-11.377
▁institution	-11.377
▁maxim	-11.377
▁method	-11.377
▁museum	-11.377
▁pirates	-11.377
▁surprise	-11.377
▁suspension	-11.377
▁twelve	-11.377
▁आलोचक	-11.377
▁एल्बम	-11.377
▁गुणवत्ता	-11.377
▁ग्यारह	-11.377
▁ग्रीष्म	-11.377
▁डिप्टी	-11.377
▁दिग्गज	-11.377
▁पुरानी	-11.377
▁पुर्तगाल	-11.377
▁पूर्वानुमान	-11.377
▁प्रोजेक्ट	-11.377
▁फ्रांसिस्को	-11.377
▁बफ़ेलो	-11.377
▁बरामद	-11.377
▁बाज़ार	-11.377
▁संकल्प	-11.377
▁समर्थित	-11.377
▁सॉफ्टवेयर	-11.377
पारंपरिक	-11.377
▁1962	-11.377
▁1978	-11.377
▁Lehman	-11.377
▁famous	-11.377
▁miệng	-11.377
▁अटकल	-11.377
▁अनुचित	-11.377
▁तारीख	-11.377
▁निष्कास	-11.377
serving	-11.377
▁Guinea	-11.377
▁charity	-11.377
▁crack	-11.377
▁jump	-11.377
▁तिमाह	-11.377
▁फ़िल्म	-11.377
▁combat	-11.377
▁depend	-11.377
▁league	-11.377
▁कैसिनी	-11.377
▁easy	-11.377
▁illness	-11.377
▁ngựa	-11.377
▁मंदी	-11.377
▁शिख	-11.377
▁नॉर्वे	-11.377
▁समेत	-11.377
▁Điển	-11.377
▁solar	-11.377
▁ईराक	-11.377
▁resume	-11.377
▁दिल्ली	-11.377
▁Bureau	-11.377
▁गंवा	-11.377
▁दुख	-11.377
▁संयोज	-11.377
▁huge	-11.377
▁जनमत	-11.377
▁सूचीबद्ध	-11.377
▁माइक्रो	-11.377
USGS	-11.377
ॉन्ग	-11.377
▁scientific	-11.3771
▁debt	-11.3771
▁ट्रांस	-11.3771
▁giếng	-11.3771
▁trưa	-11.3771
▁strengthen	-11.3771
▁electricity	-11.3771
▁नाराज	-11.3772
▁rough	-11.3773
▁Forest	-11.3773
▁मिलेगी	-11.3774
▁rẻ	-11.3774
▁टेस्ट	-11.3774
▁sữa	-11.3774
▁McG	-11.3774
▁path	-11.3774
▁roll	-11.3774
270	-11.3775
limina	-11.3775
ưỡng	-11.3776
▁3-0	-11.3776
▁inches	-11.3776
▁देगी	-11.3778
▁संस्थापक	-11.3781
▁earned	-11.3784
▁Trá	-11.3785
▁Lam	-11.3786
▁túc	-11.3787
ैंक	-11.379
▁2.000	-11.379
▁कैरोलिन	-11.3792
▁ग्रीन्स	-11.3793
▁रॉय	-11.3799
▁30%	-11.3799
▁awarded	-11.3801
▁obtained	-11.3803
▁brand	-11.3804
▁सम्मानित	-11.3805
▁350	-11.3808
▁OS	-11.3809
▁आतंकी	-11.3809
▁डब्ल्यूएचओ	-11.3809
▁88	-11.3812
▁rebels	-11.3816
▁सांसदों	-11.3819
▁विशेषता	-11.382
▁चाहे	-11.3822
▁Linux	-11.3823
▁websites	-11.3824
▁reading	-11.3824
6,000	-11.3829
भर	-11.383
▁चीत	-11.383
▁violent	-11.3831
▁fled	-11.3833
▁शब्दों	-11.3834
▁उपायों	-11.3834
▁addressed	-11.3838
▁160	-11.3839
▁bail	-11.3841
ccus	-11.3841
▁thôi	-11.3843
▁राजा	-11.3849
▁quyê	-11.3852
▁detainees	-11.3852
▁जाकर	-11.3859
huyết	-11.386
▁अर्ज	-11.3861
▁पेट	-11.3863
चार	-11.3864
▁fighters	-11.3865
▁Sports	-11.3869
▁मोटर	-11.3875
▁ministers	-11.3875
पड़ताल	-11.3878
very	-11.3878
▁box	-11.388
▁उड़ा	-11.3885
▁Uy	-11.3885
▁lú	-11.3886
▁resolve	-11.3893
dar	-11.3896
▁warm	-11.391
▁इश	-11.3915
▁71	-11.3915
west	-11.3919
ause	-11.392
▁girls	-11.393
▁tặc	-11.3932
ाउट	-11.3937
here	-11.3939
ảng	-11.3943
▁Luậ	-11.3944
▁जू	-11.3951
▁decisions	-11.3952
▁pilots	-11.3954
▁boys	-11.3958
मार्केट	-11.397
▁fears	-11.3975
ưới	-11.3976
▁वान	-11.3986
▁MPs	-11.3991
▁तार	-11.3992
actor	-11.3992
▁एस्	-11.3998
▁दम	-11.4014
▁khoá	-11.4024
हेड	-11.4027
▁Islands	-11.4032
▁threats	-11.4035
▁roads	-11.4038
हुड	-11.4046
ích	-11.4047
65	-11.4055
▁कुक	-11.4056
▁Mill	-11.4058
▁चार्ट	-11.4061
▁सारा	-11.4069
▁estimates	-11.4077
▁फट	-11.4077
▁Đan	-11.4078
1.7	-11.4106
▁सोल	-11.4107
24	-11.4109
ानो	-11.4111
इता	-11.4112
सामा	-11.4113
टाइम	-11.4114
▁Republicans	-11.4114
▁fu	-11.4117
aver	-11.4121
फाइनल	-11.4122
Space	-11.4122
पालन	-11.4122
UTC	-11.4122
कुछ	-11.4123
power	-11.4123
giờ	-11.4123
▁छिपा	-11.4128
फोन	-11.4129
▁पैक	-11.4132
▁Common	-11.4134
▁expert	-11.4135
हु	-11.4154
लॉक	-11.416
▁fighter	-11.4162
देन	-11.4165
कोई	-11.4169
She	-11.4172
▁विद्यार्थ	-11.4179
ưởng	-11.4182
▁Sul	-11.4182
▁धमाक	-11.419
▁grow	-11.4192
▁मुकाबल	-11.4197
▁defeat	-11.4198
unk	-11.4199
▁ऑक्स	-11.4205
दू	-11.4206
▁title	-11.4211
▁Whit	-11.4212
enny	-11.4213
▁chăn	-11.4214
▁actual	-11.4215
valu	-11.4216
▁जला	-11.4216
मोंट	-11.4217
▁वाक	-11.4218
appointed	-11.4223
▁Mount	-11.4224
▁सावधान	-11.4224
ö	-11.4224
इलिनोइस	-11.4224
ग्रेड	-11.4224
दायित्व	-11.4224
▁Ahmadinejad	-11.4224
▁Algeria	-11.4224
▁Assembly	-11.4224
▁Beazley	-11.4224
▁Berwick	-11.4224
▁Calgary	-11.4224
▁Christmas	-11.4224
▁Kilmarnock	-11.4224
▁Peshawar	-11.4224
▁Qarase	-11.4224
▁Rooney	-11.4224
▁Swift	-11.4224
▁Yogyakarta	-11.4224
▁airplane	-11.4224
▁anonymous	-11.4224
▁casualties	-11.4224
▁closure	-11.4224
▁conservative	-11.4224
▁corporation	-11.4224
▁demonstration	-11.4224
▁destruction	-11.4224
▁picture	-11.4224
▁trigger	-11.4224
▁आश्व	-11.4224
▁एयरलाइंस	-11.4224
▁गोंजाले	-11.4224
▁चौदह	-11.4224
▁डायरेक्टर	-11.4224
▁तख्तापलट	-11.4224
▁तूफ़ान	-11.4224
▁दुरुपयोग	-11.4224
▁दृढ़	-11.4224
▁पैदल	-11.4224
▁प्राकृतिक	-11.4224
▁फायदा	-11.4224
▁मनोरंजन	-11.4224
▁मलेशिया	-11.4224
▁वर्जीनिया	-11.4224
▁सिंगापुर	-11.4224
▁सिएटल	-11.4224
▁Straw	-11.4224
▁cháu	-11.4224
▁corner	-11.4224
▁nghề	-11.4224
▁व्यस्त	-11.4224
▁Twenty	-11.4224
▁एंजेल	-11.4224
▁Football	-11.4224
▁cột	-11.4224
▁warrant	-11.4224
▁ग्रीस	-11.4224
▁Fox	-11.4224
▁Hotel	-11.4224
▁NBA	-11.4224
▁अंडर	-11.4224
▁सर्द	-11.4224
▁मशीन	-11.4224
▁prompt	-11.4224
▁भंडार	-11.4224
▁From	-11.4224
▁Juan	-11.4224
itamin	-11.4224
▁पार्टियों	-11.4224
▁apart	-11.4224
▁Saint	-11.4224
▁enforcement	-11.4224
▁honor	-11.4224
▁pipeline	-11.4224
▁fees	-11.4224
▁जूझ	-11.4224
▁interim	-11.4224
▁TVNZ	-11.4224
▁Morgan	-11.4224
▁फिलीपींस	-11.4224
▁रिसर्च	-11.4225
▁revenue	-11.4225
▁कारोबार	-11.4225
▁ब्रेक	-11.4225
▁provision	-11.4225
BMW	-11.4225
▁पेटेंट	-11.4225
▁मतपत्र	-11.4225
▁gunmen	-11.4225
▁Malik	-11.4225
▁halt	-11.4225
▁Bruce	-11.4225
▁vườn	-11.4225
▁आवंट	-11.4226
▁Aviation	-11.4226
▁Also	-11.4226
▁रखेंगे	-11.4226
▁अधिकृत	-11.4226
filled	-11.4226
▁ब्रदर	-11.4226
profit	-11.4227
▁सोलह	-11.4227
▁Palin	-11.4227
▁नही	-11.4227
▁(£	-11.4228
▁Franken	-11.4228
▁lạnh	-11.4229
▁Omar	-11.4229
▁Larr	-11.423
रूढ़	-11.423
▁Robin	-11.423
▁winter	-11.4231
▁mạch	-11.4231
▁Currently	-11.4231
▁Board	-11.4232
▁eye	-11.4232
▁argument	-11.4233
▁सेवाएं	-11.4233
▁sought	-11.4233
▁रूढ़िवादी	-11.4234
▁Eva	-11.4235
▁संपूर्ण	-11.4235
▁कॉमन	-11.4235
▁अगु	-11.4236
▁विभाजन	-11.4236
▁mentioned	-11.4237
▁टैंकर	-11.4237
▁discovery	-11.4237
▁बेट	-11.4237
▁लुई	-11.4238
▁weak	-11.4239
▁चेहरे	-11.424
▁lei	-11.424
hony	-11.424
▁Khal	-11.4241
▁जरूरी	-11.4242
▁Mail	-11.4243
▁safely	-11.4247
▁Mad	-11.425
▁Higgins	-11.4251
▁विवाह	-11.4251
ierre	-11.4251
▁quality	-11.4254
▁politicians	-11.4256
▁chọ	-11.4256
प्ति	-11.4257
न्त	-11.4258
▁polling	-11.4258
▁वैन	-11.4261
▁hòn	-11.4261
▁God	-11.4262
▁गंभीरता	-11.4264
गैरकानूनी	-11.4266
▁chain	-11.4266
▁76	-11.4266
▁attending	-11.4267
rung	-11.4268
▁टू	-11.4268
▁clearly	-11.4269
▁tanker	-11.4271
▁अफ़	-11.4279
▁Phe	-11.4281
लिप	-11.4282
कैसल	-11.4285
▁(11	-11.4287
▁मिलता	-11.4287
गिस	-11.4287
▁hospitals	-11.4288
डोन	-11.429
▁height	-11.4291
▁क्यो	-11.4291
▁finally	-11.4294
▁listed	-11.4298
▁हमलावरों	-11.43
▁Online	-11.4305
▁Nag	-11.4307
6.2	-11.4307
aro	-11.4309
▁आरोपी	-11.4311
▁Only	-11.4314
ask	-11.4317
▁900	-11.432
alys	-11.4324
▁trôi	-11.4326
rich	-11.4329
▁विरा	-11.433
▁vessels	-11.4332
▁EST	-11.4339
▁seiz	-11.4339
▁Greg	-11.4341
▁फ्लै	-11.4342
▁table	-11.4343
▁sad	-11.4356
▁दशकों	-11.4358
▁missiles	-11.4362
▁इमारतों	-11.4368
लेस	-11.4378
▁sports	-11.4379
▁स्टेन	-11.4389
▁holds	-11.4397
▁nor	-11.4399
किंग	-11.441
▁Services	-11.4417
mble	-11.4419
▁दस्त	-11.4421
न्ना	-11.4432
▁requests	-11.4439
▁touch	-11.4441
▁ब्रै	-11.4442
ọc	-11.4443
▁critic	-11.445
रवाना	-11.4454
Roy	-11.4462
▁189	-11.4463
So	-11.4463
under	-11.4468
▁Jos	-11.447
▁Ana	-11.4473
aka	-11.4475
▁leaves	-11.4477
ह्यू	-11.4484
देव	-11.4492
▁परिच	-11.4493
▁provinces	-11.4502
pper	-11.4504
गेट	-11.4514
76	-11.4514
ग्राहकों	-11.4519
▁Wil	-11.4521
▁IE	-11.4521
पोल	-11.4528
▁ब्रा	-11.4533
▁Bayer	-11.4534
ader	-11.4538
बर्ट	-11.454
▁Jose	-11.4543
▁Part	-11.4544
▁नियुक्ति	-11.4549
इनमें	-11.4558
▁character	-11.456
ME	-11.4572
▁measure	-11.4582
rob	-11.4589
▁वाट	-11.459
वु	-11.4595
टाउन	-11.4597
related	-11.4598
भूमि	-11.4598
Chính	-11.4599
half	-11.4599
उन्होंने	-11.4599
chúng	-11.4599
IA	-11.46
मेरे	-11.4601
gọn	-11.4608
विरोधी	-11.4611
▁detainee	-11.4611
वुड	-11.4611
▁Edward	-11.4611
▁प्रबंध	-11.4613
will	-11.4617
▁गुड	-11.4618
बेस्ट	-11.4626
urban	-11.4628
▁91	-11.464
▁240	-11.4641
ित्र	-11.4643
▁Thư	-11.4646
▁đâ	-11.4647
▁एक्ट	-11.4647
-20	-11.4648
▁Ob	-11.465
▁इक	-11.4657
▁पड़ोस	-11.4657
पेट	-11.4661
▁आध	-11.4669
रेना	-11.4673
स्टेज	-11.4676
▁Spe	-11.4677
▁अपेक्ष	-11.4678
्रें	-11.4678
▁टैंक	-11.4687
रॉ	-11.4697
▁विज्ञ	-11.4698
▁व्	-11.4698
▁Transport	-11.4699
▁कक्ष	-11.4699
▁Virgin	-11.4699
▁Euro	-11.4699
°	-11.47
र्वाधिक	-11.47
▁Authority	-11.47
▁Cleveland	-11.47
▁McLaren	-11.47
▁Record	-11.47
▁Stadium	-11.47
▁Tibet	-11.47
▁Village	-11.47
▁Watford	-11.47
▁Xinhua	-11.47
▁acquir	-11.47
▁cabinet	-11.47
▁celebrate	-11.47
▁celebrit	-11.47
▁confidence	-11.47
▁democracy	-11.47
▁demonstrate	-11.47
▁dramatic	-11.47
▁honour	-11.47
▁hẹp	-11.47
▁lậu	-11.47
▁mắn	-11.47
▁occupied	-11.47
▁religion	-11.47
▁sixteen	-11.47
▁smoking	-11.47
▁square	-11.47
▁structure	-11.47
▁telephone	-11.47
▁đoạt	-11.47
▁अकादमी	-11.47
▁कंजर्वेटिव	-11.47
▁जाएँगे	-11.47
▁नस्ल	-11.47
▁नियोक्ता	-11.47
▁प्रयोगशाला	-11.47
▁बेल्जियम	-11.47
▁मंत्रियों	-11.47
▁रिश्तेदार	-11.47
▁वर्षगांठ	-11.47
▁साइंस	-11.47
▁साजिश	-11.47
▁1961	-11.47
▁1974	-11.47
▁GNU	-11.47
▁ROV	-11.47
▁Valley	-11.47
▁fireworks	-11.47
▁husband	-11.47
▁margin	-11.47
▁narrow	-11.47
▁आनुव	-11.47
▁ठिकान	-11.47
▁पंज	-11.47
▁ब्लॉक	-11.47
▁McCart	-11.47
▁error	-11.47
▁gãy	-11.47
▁कैनेडी	-11.47
▁व्याख्या	-11.47
▁permit	-11.47
▁plead	-11.47
▁जाएंगी	-11.47
फ़ोर्ड	-11.47
▁tiger	-11.47
भौतिक	-11.47
▁Executive	-11.47
▁imposed	-11.47
▁कॉर्प	-11.47
▁riot	-11.4701
▁परिभाष	-11.4701
▁identity	-11.4701
▁convoy	-11.4701
▁ग्लास	-11.4701
▁nationwide	-11.4701
▁retire	-11.4701
▁Richter	-11.4701
फ़ोर्स	-11.4701
▁partnership	-11.4701
न्द्र	-11.4701
▁degrees	-11.4701
▁wreckage	-11.4701
▁रुचि	-11.4701
▁डेविस	-11.4701
▁roof	-11.4701
▁स्तन	-11.4701
▁प्रतीक्षा	-11.4702
▁थाईलैंड	-11.4702
▁प्रिंट	-11.4702
▁राइड	-11.4702
▁टायर	-11.4703
▁Final	-11.4703
▁arrival	-11.4703
▁1965	-11.4703
▁सख्त	-11.4703
▁cười	-11.4703
▁singer	-11.4703
▁hùng	-11.4703
▁Harper	-11.4703
▁travelling	-11.4703
▁आधा	-11.4703
▁नकारात्मक	-11.4703
▁किताब	-11.4703
र्किट	-11.4703
▁soạn	-11.4704
▁label	-11.4704
▁leu	-11.4704
▁संक्रमण	-11.4704
▁nhã	-11.4705
बूत	-11.4705
▁hối	-11.4705
▁Forum	-11.4705
▁उतन	-11.4706
Intelligence	-11.4706
▁sense	-11.4706
िफ्ट	-11.4707
▁Roman	-11.4707
▁Canadians	-11.4708
rên	-11.4708
▁कार्यकर्ताओं	-11.4709
▁Even	-11.4709
▁75%	-11.471
▁Market	-11.4711
▁110	-11.4711
▁फुल	-11.4712
▁restore	-11.4712
▁पहुंचाया	-11.4712
▁2020	-11.4713
▁steps	-11.4713
▁ngộ	-11.4713
▁Enceladus	-11.4713
!7	-11.4715
acti	-11.4715
▁12:00	-11.4715
▁पटर	-11.4716
ंकित	-11.4716
▁sustained	-11.4716
▁ambassador	-11.4718
▁model	-11.4719
बुक	-11.4719
▁Albania	-11.4719
▁Kông	-11.472
▁Laurent	-11.472
▁matches	-11.472
एफ़	-11.472
▁investigated	-11.4721
▁liều	-11.4721
▁Speaker	-11.4723
स्कोप	-11.4724
▁bone	-11.4724
▁Good	-11.4726
▁रोका	-11.4726
बिक	-11.4727
▁वारंट	-11.4727
▁peaceful	-11.473
▁survived	-11.4731
▁warming	-11.4731
▁walked	-11.4733
▁ग्राउंड	-11.4734
▁activists	-11.4734
▁Kam	-11.4734
▁बादल	-11.4734
▁determined	-11.4737
▁flying	-11.4737
▁Fair	-11.4738
▁terror	-11.4739
▁meaning	-11.4741
▁1500	-11.4743
▁Chữ	-11.4745
▁săn	-11.4751
▁constitutional	-11.4755
iếng	-11.4755
▁डाउन	-11.4756
▁टीमें	-11.4761
▁prayer	-11.4764
▁EDT	-11.4767
▁रेखा	-11.4771
▁रच	-11.4771
▁cúp	-11.4778
स्पे	-11.4781
▁आसानी	-11.4782
▁BA	-11.4784
▁पति	-11.4785
हीन	-11.4786
▁पैरा	-11.479
▁throw	-11.4791
6)	-11.4797
▁ड्राइवरों	-11.4797
ेरियन	-11.4803
▁prevented	-11.4804
▁बद	-11.4805
-11	-11.4807
▁bears	-11.4807
्टो	-11.4809
▁funds	-11.481
▁केन्या	-11.4818
▁Plan	-11.4819
▁सवारी	-11.4819
▁broken	-11.4823
▁tested	-11.4826
▁खुला	-11.4829
ượng	-11.4829
▁tụng	-11.483
oF	-11.4831
▁findings	-11.4836
▁sex	-11.4836
band	-11.4843
oid	-11.4849
▁hoang	-11.4856
▁kg	-11.4858
ague	-11.4861
प्रद	-11.4861
ल्डर	-11.4864
▁तह	-11.4866
▁आयोजक	-11.4871
▁Arabia	-11.4874
▁plants	-11.4876
▁Just	-11.4883
0-0	-11.4885
àng	-11.4889
▁चेन	-11.4895
▁चो	-11.4896
▁giant	-11.4901
▁swin	-11.4915
▁newly	-11.4927
▁articles	-11.4935
▁ईस्ट	-11.4943
▁risks	-11.4944
▁Gal	-11.4945
▁chances	-11.4948
Mar	-11.4957
▁परीक्षणों	-11.4961
▁Anti	-11.4961
▁Romanian	-11.4965
लोड	-11.4967
▁pit	-11.4973
▁Islam	-11.4976
UP	-11.4977
▁accounts	-11.498
ware	-11.4981
▁org	-11.4986
ouv	-11.4989
▁चेक	-11.4997
PR	-11.5004
▁लिखे	-11.5007
▁update	-11.503
▁judges	-11.5037
▁interests	-11.5048
प्राइम	-11.5052
▁कोशिशों	-11.506
vision	-11.5066
▁arm	-11.5075
▁पिक	-11.508
▁notes	-11.5088
36	-11.5089
विज्ञान	-11.5098
foot	-11.5099
ói	-11.5102
अंत	-11.5103
▁channel	-11.511
election	-11.5111
▁prepar	-11.5113
डार	-11.5115
bility	-11.5123
▁फ़ॉर	-11.5126
्योर	-11.5128
▁word	-11.513
पक्ष	-11.513
▁complaint	-11.5132
ेल्ड	-11.5135
▁लैं	-11.5138
बैक	-11.5149
▁treat	-11.5149
rất	-11.5149
▁मिर	-11.5151
विले	-11.5152
ossi	-11.5154
▁tank	-11.5155
list	-11.5157
टॉप	-11.5161
lee	-11.5162
▁PA	-11.5169
▁धर	-11.5173
भारी	-11.5174
▁reject	-11.5175
▁publish	-11.5175
ảm	-11.5178
▁आतंक	-11.5179
▁संशोध	-11.5185
▁$5	-11.5186
▁món	-11.5189
▁chư	-11.5191
▁विंड	-11.5193
पति	-11.5194
▁xế	-11.5195
,700	-11.5197
uốc	-11.5199
▁सोशल	-11.52
▁Champion	-11.52
▁Explor	-11.52
▁oblig	-11.52
profile	-11.52
Ư	-11.52
▁Abdul	-11.52
▁Arizona	-11.52
▁Bangladesh	-11.52
▁Barbara	-11.52
▁Bulldogs	-11.52
▁Convention	-11.52
▁Dallas	-11.52
▁Fawkes	-11.52
▁Katrina	-11.52
▁Lieberman	-11.52
▁Lincoln	-11.52
▁Milmine	-11.52
▁NASDAQ	-11.52
▁Paraguay	-11.52
▁Petraeus	-11.52
▁Philadelphia	-11.52
▁Statoil	-11.52
▁Telecom	-11.52
▁Telegraph	-11.52
▁Telstra	-11.52
▁Winnipeg	-11.52
▁acknowledg	-11.52
▁celebration	-11.52
▁cồn	-11.52
▁evacuation	-11.52
▁infrastructure	-11.52
▁judicia	-11.52
▁length	-11.52
▁magazine	-11.52
▁muộn	-11.52
▁ocean	-11.52
▁offensive	-11.52
▁referendum	-11.52
▁relationship	-11.52
▁respectively	-11.52
▁rugby	-11.52
▁rưỡi	-11.52
▁screen	-11.52
▁speculation	-11.52
▁struggle	-11.52
▁supplies	-11.52
▁testimony	-11.52
▁twice	-11.52
▁अस्तित्व	-11.52
▁आचरण	-11.52
▁इलेक्ट्रॉनिक	-11.52
▁एंजिल्स	-11.52
▁कठोर	-11.52
▁कनेक्टिकट	-11.52
▁कुर्द	-11.52
▁गूगल	-11.52
▁झटका	-11.52
▁डिवीजन	-11.52
▁दीर्घकाल	-11.52
▁पनडुब्बी	-11.52
▁पेनल्टी	-11.52
▁मनुष्य	-11.52
▁वातावरण	-11.52
▁व्हील	-11.52
▁श्रीलंका	-11.52
▁सीरीज़	-11.52
▁सेवानिवृत्त	-11.52
▁सैटेलाइट	-11.52
▁सोसाइटी	-11.52
▁Coleman	-11.52
▁Favre	-11.52
▁Gibbs	-11.52
▁Hudson	-11.52
▁Viacom	-11.52
▁Wolf	-11.52
▁kidnapped	-11.52
▁machine	-11.52
▁qualified	-11.52
▁ईसाई	-11.52
▁छूट	-11.52
▁मेट्रो	-11.52
▁Christoph	-11.52
▁पादरी	-11.52
▁मल्टी	-11.52
▁Arnold	-11.52
▁Dutch	-11.52
▁generation	-11.52
▁outcome	-11.52
▁bụi	-11.52
▁depth	-11.52
▁Utah	-11.52
▁pleas	-11.52
▁प्रोटोक	-11.52
▁Bashar	-11.52
▁plot	-11.52
▁greenhouse	-11.52
▁यातना	-11.52
stream	-11.52
▁Ottawa	-11.5201
▁Ivan	-11.5201
pplied	-11.5201
▁Hawk	-11.5201
EFF	-11.5201
▁Morning	-11.5201
▁क्रिकेट	-11.5201
▁Godwin	-11.5201
▁sister	-11.5201
▁Danny	-11.5201
▁possession	-11.5201
▁counsel	-11.5201
▁पाइपलाइन	-11.5201
▁Division	-11.5201
▁एयरपोर्ट	-11.5201
▁complex	-11.5201
▁Opera	-11.5201
▁punishment	-11.5201
▁Wilson	-11.5202
▁ऑटो	-11.5202
▁calm	-11.5202
▁marine	-11.5202
▁गुरू	-11.5202
▁प्रवर्त	-11.5202
▁नोटिस	-11.5202
▁chẽ	-11.5202
▁बाध्य	-11.5202
▁कुशल	-11.5202
▁मैक्सिको	-11.5202
▁debut	-11.5203
▁पत्रिका	-11.5203
▁footage	-11.5203
▁शार्क	-11.5203
▁रेयान	-11.5203
▁Week	-11.5203
▁replacement	-11.5204
▁Eric	-11.5204
▁subsequently	-11.5205
▁wire	-11.5206
▁powerful	-11.5206
▁pole	-11.5206
,200	-11.5206
▁अति	-11.5207
▁स्वीडन	-11.5208
▁khấu	-11.5208
▁gác	-11.5208
ॉफ	-11.5208
▁Commander	-11.5208
▁cỏ	-11.5209
▁मैनेजर	-11.5209
▁प्राथमिकता	-11.521
हाज	-11.521
▁chosen	-11.521
▁thiêu	-11.521
▁फोर्स	-11.5211
▁Đề	-11.5212
▁Nader	-11.5213
▁Dover	-11.5214
▁नगर	-11.5215
▁Timor	-11.5215
▁assistant	-11.5217
▁Global	-11.5218
▁escaped	-11.5219
▁छोड़कर	-11.522
Murray	-11.5221
▁8,000	-11.5222
▁95	-11.5222
physi	-11.5222
▁Gold	-11.5223
▁Goody	-11.5224
▁Gill	-11.5224
▁personally	-11.5225
▁chart	-11.5226
▁बच्चा	-11.5226
व्यवस्थ	-11.5229
▁Ott	-11.523
▁Tiger	-11.523
▁improvement	-11.523
▁यूएसए	-11.523
▁regulations	-11.5231
▁2.5	-11.5233
GP	-11.5233
बेर	-11.5234
▁pitch	-11.5234
▁79	-11.5235
▁walking	-11.5238
▁10.000	-11.5238
▁Manning	-11.5239
▁FO	-11.5239
▁observed	-11.5244
▁योजनाओं	-11.5244
▁insurgents	-11.5245
▁strongly	-11.5245
▁Peru	-11.5247
▁traditional	-11.5247
▁thọ	-11.5248
▁गायक	-11.5248
▁smaller	-11.525
▁सौर	-11.5251
▁xô	-11.5253
अस	-11.5257
▁producer	-11.5259
▁मरीज	-11.526
▁flown	-11.5262
श्र	-11.5264
▁ओव	-11.5268
ंकि	-11.5272
▁linked	-11.5273
wens	-11.5283
▁none	-11.5296
▁choice	-11.5296
▁मोड़	-11.5297
▁Fund	-11.5299
ges	-11.5299
▁कैदी	-11.5303
▁Rogers	-11.531
▁Biể	-11.5312
▁कर्ज	-11.5322
▁violations	-11.5324
पेक्ष	-11.5325
▁describe	-11.5328
▁passing	-11.5332
▁bombers	-11.5333
▁पकड़ा	-11.5334
hỉnh	-11.5335
▁dealt	-11.5338
▁testing	-11.5343
▁dogs	-11.5343
बारूद	-11.5345
▁लेता	-11.535
स्पर	-11.5352
ोनिया	-11.5355
ency	-11.536
▁rập	-11.5363
▁हॉक	-11.5368
▁Camp	-11.5368
▁आमंत्र	-11.5373
450	-11.5375
ipp	-11.5376
▁डार्	-11.5378
▁फोरम	-11.5379
ợt	-11.5385
▁squad	-11.539
▁newspapers	-11.5395
▁वर्क	-11.5399
▁चक	-11.54
▁तल	-11.54
स्ता	-11.5401
▁अपराधों	-11.5405
▁धीम	-11.5406
▁बोली	-11.5409
▁डेव	-11.5419
▁102	-11.5427
inch	-11.5429
▁1,5	-11.543
ncer	-11.5433
▁fines	-11.5433
▁निपट	-11.5435
▁ग्र	-11.544
▁वोटों	-11.5445
स्टेट	-11.5451
▁phổi	-11.5451
▁उल्	-11.5458
▁समझा	-11.546
▁ổ	-11.5475
▁Penn	-11.5481
▁Gro	-11.5494
▁xó	-11.5497
▁Rep	-11.551
▁shares	-11.5515
▁84	-11.5515
्रैश	-11.5528
goes	-11.5545
यूरेन	-11.5545
▁सरा	-11.5546
àn	-11.5548
▁गेट	-11.5585
hand	-11.5585
▁handle	-11.5588
elle	-11.56
hân	-11.5602
posi	-11.5604
▁घेर	-11.5609
olish	-11.5612
actic	-11.5614
erson	-11.5616
▁violate	-11.5622
आधारित	-11.5624
▁Bin	-11.5625
front	-11.5625
हालांकि	-11.5625
▁bó	-11.5626
họ	-11.5631
born	-11.5634
▁detail	-11.5637
▁weapon	-11.5638
▁पहुँचा	-11.5652
▁छविय	-11.5653
▁बच्च	-11.5663
raising	-11.5664
▁सोचत	-11.5673
dex	-11.5677
▁काउंट	-11.5682
ाल्टी	-11.5686
डिंग	-11.569
5000	-11.5699
▁pull	-11.5701
▁dọ	-11.5707
चक	-11.5711
▁Low	-11.5712
▁provinc	-11.5713
law	-11.5714
▁रोम	-11.5716
टीए	-11.5717
oạn	-11.5719
▁pack	-11.572
▁Environment	-11.5721
ecause	-11.5723
▁प्रतिबद्ध	-11.5724
degree	-11.5726
▁पाइप	-11.5726
▁निराशा	-11.5726
▁Stephani	-11.5727
NOAA	-11.5727
sensitive	-11.5727
एनएचएल	-11.5727
साचुसेट	-11.5727
Ứ	-11.5727
▁Agriculture	-11.5727
▁Atlantic	-11.5727
▁Beijing	-11.5727
▁Coalition	-11.5727
▁Darfur	-11.5727
▁Information	-11.5727
▁Jamaica	-11.5727
▁Moussaoui	-11.5727
▁Mạch	-11.5727
▁Prosecut	-11.5727
▁Rubens	-11.5727
▁Sunderland	-11.5727
▁Temple	-11.5727
▁Toyota	-11.5727
▁Wayne	-11.5727
▁Wireless	-11.5727
▁accompan	-11.5727
▁ammunition	-11.5727
▁behavior	-11.5727
▁deficit	-11.5727
▁facilities	-11.5727
▁inflation	-11.5727
▁kidney	-11.5727
▁knowledge	-11.5727
▁lặng	-11.5727
▁negative	-11.5727
▁stadium	-11.5727
▁tobacco	-11.5727
▁tẩy	-11.5727
▁अचानक	-11.5727
▁अटलांटा	-11.5727
▁अलेक्जेंड	-11.5727
▁आरंभ	-11.5727
▁एचआईवी	-11.5727
▁कॉर्पोरेशन	-11.5727
▁गंतव्य	-11.5727
▁गॉर्डन	-11.5727
▁ज्वालामुखी	-11.5727
▁त्रासदी	-11.5727
▁धन्यवाद	-11.5727
▁प्रदूषण	-11.5727
▁फीसदी	-11.5727
▁मस्तिष्क	-11.5727
▁याचिका	-11.5727
▁लक्षण	-11.5727
▁लेफ्टिनेंट	-11.5727
▁वियतनाम	-11.5727
▁सीएनएन	-11.5727
▁स्मारक	-11.5727
▁Delta	-11.5727
▁Filip	-11.5727
▁GBP	-11.5727
▁Peace	-11.5727
▁audio	-11.5727
▁neighbor	-11.5727
▁जॉब	-11.5727
▁निगम	-11.5727
आधुनिक	-11.5727
▁Hungary	-11.5727
▁Lynn	-11.5727
▁century	-11.5727
▁distance	-11.5727
▁नमून	-11.5727
▁बुझा	-11.5727
▁सुरंग	-11.5727
▁mobile	-11.5727
▁Tamil	-11.5727
▁congress	-11.5727
▁cuô	-11.5727
▁panel	-11.5727
▁Norman	-11.5727
▁occupation	-11.5727
▁अलगाववाद	-11.5727
▁काबुल	-11.5727
▁लिबर्टेरियन	-11.5727
▁ceasefire	-11.5727
▁infected	-11.5727
▁ACT	-11.5727
▁घुस	-11.5727
▁Vardi	-11.5727
▁truth	-11.5727
▁अमीर	-11.5727
▁Program	-11.5727
▁daily	-11.5727
▁निर्यात	-11.5727
▁else	-11.5727
▁Music	-11.5727
▁execution	-11.5727
▁Watt	-11.5728
▁शोषण	-11.5728
▁उत्तराधिकार	-11.5728
▁कंपनिया	-11.5728
▁export	-11.5728
लक्षित	-11.5728
▁वैक्स	-11.5728
▁प्रिंस	-11.5728
▁remember	-11.5728
▁specifically	-11.5728
▁ग्वा	-11.5728
▁दोगुन	-11.5728
▁Bret	-11.5728
▁ठंड	-11.5729
▁Transportation	-11.5729
▁रोजर	-11.5729
▁चयन	-11.5729
▁उच्चतम	-11.5729
▁ओपन	-11.5729
ंजलि	-11.5729
▁deny	-11.5729
▁teammate	-11.573
▁किसान	-11.573
▁कण	-11.573
▁Lý	-11.573
▁minority	-11.573
eaux	-11.573
▁highway	-11.573
▁properly	-11.5731
▁cargo	-11.5732
▁observers	-11.5732
▁stem	-11.5732
▁जानवर	-11.5732
▁guy	-11.5733
▁trễ	-11.5733
▁voters	-11.5733
▁khé	-11.5734
▁गोल्ड	-11.5734
▁लाइट	-11.5734
▁Later	-11.5734
▁शांतिपूर्ण	-11.5735
hêm	-11.5735
▁Food	-11.5735
▁बहन	-11.5737
▁someone	-11.5737
▁registered	-11.5739
▁rushed	-11.5739
ियत	-11.5739
▁1930	-11.574
▁ITV	-11.574
▁endors	-11.5741
▁mixed	-11.5742
▁डाउनर	-11.5742
सिव	-11.5742
▁nhiêu	-11.5742
▁ब्रैड	-11.5743
▁टूर	-11.5745
▁बध	-11.5745
पर्य	-11.5745
▁auto	-11.5746
लियन	-11.575
▁learned	-11.5752
कालिक	-11.5754
▁प्रत्याश	-11.5754
▁इंडि	-11.5754
▁recovery	-11.5755
▁county	-11.5755
cap	-11.5757
▁क्रूर	-11.5757
▁::	-11.5757
▁सैल	-11.576
▁प्रोत्साहन	-11.5761
▁बैठे	-11.5766
▁धमाके	-11.5767
▁Chúa	-11.5767
authorized	-11.5775
▁कर्मी	-11.5778
▁Plann	-11.5779
जीर	-11.5781
▁pieces	-11.5783
▁रहेगी	-11.5784
ाएगा	-11.5784
▁weight	-11.5784
▁10%	-11.5788
▁समाप्ति	-11.579
▁खाने	-11.5792
▁trees	-11.5793
▁जूलिय	-11.5796
▁Avi	-11.5798
$5	-11.5802
terior	-11.5804
▁deter	-11.5805
मूर्ति	-11.5805
ंडल	-11.5809
▁छवि	-11.5809
▁Trade	-11.5812
▁guards	-11.5813
▁complaints	-11.5823
drew	-11.5827
▁पोष	-11.5827
ऑ	-11.583
▁रोल	-11.5832
सीआईए	-11.5833
दु	-11.5836
▁genetic	-11.5836
▁jets	-11.5838
GN	-11.5839
▁publicly	-11.584
▁मेड	-11.5843
▁मांगने	-11.5844
ेरिट	-11.5847
-47	-11.5849
1.000	-11.585
▁engineer	-11.5855
▁rich	-11.586
uyện	-11.5862
▁recall	-11.5862
▁गुम	-11.5864
▁दिखात	-11.587
▁बर्न	-11.5872
▁dealing	-11.5876
ऑफ	-11.5877
वै	-11.5879
khan	-11.5882
▁बेथ	-11.5893
▁मैकग	-11.5902
िलियन	-11.5912
▁tha	-11.592
▁helicopters	-11.5922
वेज	-11.5925
pul	-11.5931
▁Princes	-11.5932
▁VI	-11.5942
▁boats	-11.5947
▁सम्म	-11.595
▁materials	-11.5962
जाद	-11.5974
SK	-11.5994
कसिन	-11.5996
▁pen	-11.6016
संस्कृति	-11.6017
▁रहें	-11.6034
ador	-11.6051
▁पीसी	-11.6052
▁ग्ल	-11.607
▁Der	-11.6072
▁Line	-11.6076
▁founder	-11.608
tropical	-11.6084
कॉन	-11.6094
▁Citi	-11.6102
etti	-11.6117
gged	-11.6118
▁बहा	-11.6119
▁$50	-11.612
▁$10	-11.6128
▁83	-11.613
वर्त	-11.6141
हना	-11.6154
▁Lai	-11.6167
▁मिट	-11.6169
▁बताए	-11.6171
▁पाठ	-11.6176
hắc	-11.6176
बॉल	-11.6178
737	-11.6179
scale	-11.6179
मीडिया	-11.618
Israel	-11.6181
▁Mario	-11.6184
प्रति	-11.6187
▁meant	-11.6188
▁फेर	-11.6194
▁Bru	-11.6195
टीवी	-11.6198
▁(80	-11.6203
▁Cooper	-11.6205
Sau	-11.6205
oral	-11.6218
obel	-11.6226
▁learn	-11.6227
▁tâ	-11.6228
▁handl	-11.623
egian	-11.6232
▁माने	-11.6233
▁recognize	-11.6234
▁Kat	-11.6242
▁निकोल	-11.6244
break	-11.6245
▁Qur	-11.6248
▁इराद	-11.6256
▁install	-11.6256
इंटेलिजें	-11.6264
▁ड्रा	-11.6264
▁विभाज	-11.6267
▁Liber	-11.6269
▁contribute	-11.6269
▁शांत	-11.627
▁chị	-11.627
ऐस	-11.6271
▁दंग	-11.6272
▁Command	-11.6273
▁नीदरलैंड	-11.6275
Intelligen	-11.6275
न्या	-11.6276
kat	-11.6278
inancial	-11.6281
▁import	-11.6281
▁Norw	-11.6282
▁green	-11.6282
▁fatal	-11.6282
रदार	-11.6282
/201	-11.6282
olocaust	-11.6282
▁2011/2012	-11.6282
▁Amtrak	-11.6282
▁Appenzell	-11.6282
▁Arkansas	-11.6282
▁Blitzer	-11.6282
▁Bristol	-11.6282
▁Captain	-11.6282
▁Copenhagen	-11.6282
▁Cricket	-11.6282
▁Deepwater	-11.6282
▁Delaware	-11.6282
▁Dublin	-11.6282
▁Erhard	-11.6282
▁Greece	-11.6282
▁Griffin	-11.6282
▁Hammond	-11.6282
▁Heritage	-11.6282
▁Hubbard	-11.6282
▁Indianapolis	-11.6282
▁Instead	-11.6282
▁Issawi	-11.6282
▁Jakarta	-11.6282
▁Kazaa	-11.6282
▁Krishna	-11.6282
▁Libby	-11.6282
▁Lieutenant	-11.6282
▁Litvinenko	-11.6282
▁Marvel	-11.6282
▁Moldova	-11.6282
▁Mumbai	-11.6282
▁Museum	-11.6282
▁NYSE	-11.6282
▁Netanyahu	-11.6282
▁Phoenix	-11.6282
▁Portugal	-11.6282
▁Quaero	-11.6282
▁Rescue	-11.6282
▁Survey	-11.6282
▁Tasmania	-11.6282
▁Thrashers	-11.6282
▁Trạm	-11.6282
▁Vietnam	-11.6282
▁accumulat	-11.6282
▁advantage	-11.6282
▁bronze	-11.6282
▁buried	-11.6282
▁college	-11.6282
▁communities	-11.6282
▁conviction	-11.6282
▁cricket	-11.6282
▁culture	-11.6282
▁definiti	-11.6282
▁detonated	-11.6282
▁disclose	-11.6282
▁download	-11.6282
▁finance	-11.6282
▁funeral	-11.6282
▁identify	-11.6282
▁immigrant	-11.6282
▁neighborhood	-11.6282
▁nầy	-11.6282
▁pandemic	-11.6282
▁participants	-11.6282
▁patrol	-11.6282
▁platform	-11.6282
▁refuge	-11.6282
▁republic	-11.6282
▁residence	-11.6282
▁stretch	-11.6282
▁xoáy	-11.6282
▁अफवाह	-11.6282
▁अब्बास	-11.6282
▁अल्पसंख्यक	-11.6282
▁अवलोकन	-11.6282
▁उद्घाट	-11.6282
▁उपाध्यक्ष	-11.6282
▁एक्सप्लोर	-11.6282
▁ऑडियो	-11.6282
▁क्रमशः	-11.6282
▁क्रोएशिया	-11.6282
▁खिड़किय	-11.6282
▁जबरदस्त	-11.6282
▁दाखिल	-11.6282
▁ध्रुव	-11.6282
▁बगैर	-11.6282
▁बर्बाद	-11.6282
▁बास्केटबॉल	-11.6282
▁मंजिल	-11.6282
▁श्रद्धा	-11.6282
▁सेंट्रल	-11.6282
▁हांगकांग	-11.6282
▁ấm	-11.6282
dvocate	-11.6282
▁1968	-11.6282
▁1972	-11.6282
▁1979	-11.6282
▁1985	-11.6282
▁1986	-11.6282
▁Bernard	-11.6282
▁Collins	-11.6282
▁Gabriel	-11.6282
▁Hassan	-11.6282
▁Houston	-11.6282
▁Movement	-11.6282
▁Shalit	-11.6282
▁Sunni	-11.6282
▁UNICEF	-11.6282
▁exhibit	-11.6282
▁hét	-11.6282
▁patent	-11.6282
▁remote	-11.6282
▁thép	-11.6282
▁अलास्का	-11.6282
▁कम्युनिस्ट	-11.6282
▁घृणा	-11.6282
▁ढूंढ	-11.6282
▁त्रुटि	-11.6282
▁फर्स्ट	-11.6282
▁फिनिश	-11.6282
▁बौद्ध	-11.6282
▁2013	-11.6282
▁Cindy	-11.6282
▁false	-11.6282
▁nhựa	-11.6282
▁windows	-11.6282
▁एयरबस	-11.6282
▁Healey	-11.6282
▁distinct	-11.6282
▁modern	-11.6282
▁क्यूबा	-11.6282
▁जमानत	-11.6282
▁Denver	-11.6282
▁baryon	-11.6282
▁vẹn	-11.6282
▁SNP	-11.6282
▁comply	-11.6282
▁अनुपस्थित	-11.6282
▁मार्शल	-11.6282
ॉइड	-11.6282
▁Nepal	-11.6282
▁vuông	-11.6282
▁Rodrig	-11.6282
▁NBC	-11.6282
▁डेवलप	-11.6282
cultural	-11.6282
▁प्रतियोग	-11.6282
▁sometimes	-11.6282
▁Farr	-11.6282
▁Brash	-11.6282
▁household	-11.6282
▁चमक	-11.6282
▁हेलेन	-11.6282
▁ज्ञान	-11.6282
▁dioxide	-11.6282
▁Russel	-11.6283
▁firing	-11.6283
▁चिल्ला	-11.6283
▁Ronald	-11.6283
▁southeast	-11.6283
▁element	-11.6283
▁Freedom	-11.6283
▁consent	-11.6283
▁तंब	-11.6283
▁कोयला	-11.6283
▁नियोज	-11.6283
▁mind	-11.6283
▁missed	-11.6283
Sabah	-11.6283
▁Women	-11.6283
▁प्रकृति	-11.6283
▁डाकु	-11.6283
▁Morris	-11.6283
▁emerge	-11.6283
▁परिसर	-11.6283
▁स्विट्ज	-11.6284
▁Sharon	-11.6284
▁hảo	-11.6284
▁payments	-11.6284
-133	-11.6284
▁Carey	-11.6284
कारात्मक	-11.6284
▁शैक्ष	-11.6284
▁Egyptian	-11.6284
▁Sweden	-11.6284
▁Goldman	-11.6284
▁Robson	-11.6284
▁असंभव	-11.6284
▁Guardian	-11.6284
▁रुख	-11.6284
olonel	-11.6285
▁अनिश्चित	-11.6285
▁फ़ायर	-11.6285
▁lưỡng	-11.6285
▁लॉर्ड	-11.6285
▁Marty	-11.6285
▁जूनियर	-11.6285
▁संवाद	-11.6285
▁चिली	-11.6286
▁MST	-11.6286
िताब	-11.6286
▁तस्वीरें	-11.6287
▁एयरवेज	-11.6287
▁स्पोर्ट्स	-11.6288
▁Kahn	-11.6288
▁यंग	-11.6288
▁sank	-11.6288
▁native	-11.6288
▁retain	-11.6288
▁Hans	-11.6288
▁Rosa	-11.6288
▁voi	-11.6288
▁वार्म	-11.6289
▁closing	-11.6289
▁Vị	-11.6289
▁Corus	-11.6289
▁guard	-11.6289
▁Xô	-11.6289
threaten	-11.629
Pink	-11.629
▁वैधता	-11.6291
▁टकराव	-11.6292
▁Shu	-11.6292
▁Steele	-11.6292
▁manner	-11.6292
▁सुविधाओं	-11.6293
डाउनलोड	-11.6294
▁task	-11.6295
▁मनो	-11.6295
▁Perth	-11.6295
▁सोनी	-11.6295
▁Peres	-11.6296
▁ऑफिस	-11.6296
temporar	-11.6296
▁अटलांटि	-11.6297
▁Azerbaijan	-11.6297
ablo	-11.6298
▁वजन	-11.6298
▁hunt	-11.6298
▁60%	-11.6299
▁भूख	-11.63
▁Communications	-11.63
▁Lula	-11.6301
▁Victory	-11.6303
▁colleagues	-11.6306
लेख	-11.6307
▁गेंदबाज	-11.631
▁200,000	-11.631
ज़ल	-11.631
▁investigators	-11.6311
▁एना	-11.6314
▁पूछे	-11.6315
▁औसतन	-11.6316
▁lốc	-11.6316
▁Barry	-11.6318
▁30,000	-11.6319
▁Pine	-11.632
▁ट्रेड	-11.6321
▁आती	-11.6323
dison	-11.6323
गण	-11.6325
▁ताज	-11.6326
ेंद्र	-11.6328
▁खोला	-11.6328
याँ	-11.6329
▁लगाना	-11.6329
▁lived	-11.6329
▁शैली	-11.6329
बीएम	-11.6331
▁wounds	-11.6332
▁phase	-11.6334
▁approached	-11.6334
▁watching	-11.6337
▁volunteers	-11.6337
▁परेशानी	-11.6341
$3	-11.6342
हिल	-11.6345
iscal	-11.6347
▁Jr	-11.6348
▁leaked	-11.6348
हर्स्ट	-11.6348
▁Have	-11.6349
▁HD	-11.6355
स्सा	-11.6355
ाशय	-11.6359
वेयर	-11.6359
▁Khá	-11.6361
र्गो	-11.6362
▁shore	-11.6363
▁busy	-11.6365
▁bách	-11.6366
▁टूल	-11.6367
▁खुशी	-11.6367
▁आईं	-11.6371
▁बर्ड	-11.6374
डिस्	-11.6374
▁Kath	-11.6381
▁हवाल	-11.6381
▁channels	-11.6384
टाइगर	-11.6385
▁Rod	-11.6386
मैथ	-11.6387
▁Commons	-11.6395
▁visiting	-11.6397
mount	-11.6397
eira	-11.6399
▁procedures	-11.64
▁Holy	-11.6401
▁इराक़	-11.6402
▁टाउन	-11.6406
▁simple	-11.6407
इसक	-11.641
▁shopp	-11.6413
▁submitt	-11.6418
▁tân	-11.6419
▁सिम	-11.6422
▁relatives	-11.6426
ऑप	-11.6431
▁प्रदर्शनकारी	-11.6434
▁सफ	-11.6435
▁acted	-11.6435
rude	-11.6437
▁Here	-11.6439
▁स्टेशनों	-11.6443
lets	-11.6449
▁suburb	-11.6454
▁जोसेफ	-11.6455
▁चोटों	-11.6458
▁challenges	-11.646
▁रेन	-11.646
▁hear	-11.6461
ब्लो	-11.6461
▁क्वा	-11.6463
▁Lion	-11.6466
▁मिलर	-11.6467
ज़ोर	-11.6476
▁रोस	-11.6477
▁पुलिसकर्म	-11.6478
▁chay	-11.6479
raj	-11.6485
▁क़	-11.6485
ेंको	-11.6489
operative	-11.6492
Neil	-11.6498
▁क्रि	-11.6511
▁रज	-11.6513
वादियों	-11.6519
▁पिट	-11.6522
▁5%	-11.6529
▁dán	-11.6538
▁राजस्	-11.6547
फेल	-11.655
▁कांस्	-11.6552
ंस्कृति	-11.6555
▁रायटर	-11.6555
sumption	-11.6557
▁Due	-11.6568
स्थिरता	-11.6574
हें	-11.6582
▁prove	-11.659
fri	-11.6603
ोमा	-11.6609
▁तीस	-11.6611
▁clip	-11.6629
fully	-11.6639
▁viế	-11.6641
hoảng	-11.6645
▁parliamentar	-11.6652
etary	-11.6664
hab	-11.6664
एनपी	-11.6679
eological	-11.67
▁आस्ट्रेलिय	-11.6724
▁Shin	-11.6727
ंछ	-11.674
selling	-11.6759
▁अमेरिक	-11.6762
known	-11.6767
guard	-11.6767
American	-11.6769
वास्तव	-11.6769
पिछल	-11.6769
नंद	-11.6769
của	-11.6769
भाष	-11.677
cott	-11.6771
राज्य	-11.6771
evic	-11.6778
Tuy	-11.6779
दोष	-11.6779
▁temperature	-11.6781
▁explosive	-11.6781
▁resident	-11.6781
ाइब	-11.6782
वाटर	-11.6782
▁swim	-11.6785
▁रीस	-11.6785
book	-11.6787
र्दे	-11.6792
▁Kal	-11.6802
्राउन	-11.6805
▁पूछ	-11.6809
▁nộ	-11.6813
▁Victor	-11.6814
▁manufacture	-11.6819
▁निवास	-11.6823
place	-11.6825
ग्राफ	-11.6834
▁मलब	-11.684
▁inform	-11.6843
▁capture	-11.6858
merge	-11.6861
▁Current	-11.6861
▁micro	-11.6867
▁punish	-11.6869
▁wreck	-11.6869
▁opposi	-11.687
ndustrial	-11.687
रफ्तार	-11.687
▁wiki	-11.687
▁आर्मेनिया	-11.687
ACLU	-11.687
compliance	-11.687
oslav	-11.687
sufficient	-11.687
क्राफ्ट	-11.687
जानबूझकर	-11.687
डिस्ट्रिक्ट	-11.687
दुर्भाग्य	-11.687
▁Cabinet	-11.687
▁Catholic	-11.687
▁Chairman	-11.687
▁Children	-11.687
▁Fixya	-11.687
▁Further	-11.687
▁Helmand	-11.687
▁Horizon	-11.687
▁Inquiry	-11.687
▁Janeiro	-11.687
▁Mendoza	-11.687
▁Nạn	-11.687
▁Orleans	-11.687
▁Paisley	-11.687
▁Shanghai	-11.687
▁Tobago	-11.687
▁Vodafone	-11.687
▁alternative	-11.687
▁cattle	-11.687
▁competing	-11.687
▁competitor	-11.687
▁currency	-11.687
▁cắm	-11.687
▁deceased	-11.687
▁dốc	-11.687
▁elsewhere	-11.687
▁embassy	-11.687
▁guarantee	-11.687
▁holiday	-11.687
▁nominee	-11.687
▁participation	-11.687
▁pollution	-11.687
▁pregnancy	-11.687
▁summit	-11.687
▁suspicious	-11.687
▁thirteen	-11.687
▁tomorrow	-11.687
▁đắn	-11.687
▁अंतर्गत	-11.687
▁अनुकूल	-11.687
▁एडमिनिस्ट्रेशन	-11.687
▁कर्तव्य	-11.687
▁क्वालीफा	-11.687
▁डिएगो	-11.687
▁तेरह	-11.687
▁दृष्टि	-11.687
▁पंक्ति	-11.687
▁पचास	-11.687
▁प्रशांत	-11.687
▁बेलारूस	-11.687
▁भेदभाव	-11.687
▁मंडेला	-11.687
▁मछुआर	-11.687
▁म्यूजियम	-11.687
▁श्रेय	-11.687
▁समग्र	-11.687
▁साइकिल	-11.687
▁सिफारिश	-11.687
▁स्टैंड	-11.687
▁स्नातक	-11.687
▁स्लोवेनिया	-11.687
▁हताहत	-11.687
▁€2	-11.687
Mercedes	-11.687
▁Answers	-11.687
▁Mehdi	-11.687
▁Sharks	-11.687
▁Strait	-11.687
▁fifty	-11.687
▁fourteen	-11.687
▁overseas	-11.687
▁perfect	-11.687
▁permanent	-11.687
▁poison	-11.687
▁quét	-11.687
▁storage	-11.687
▁thirty	-11.687
▁अधीन	-11.687
▁गिनती	-11.687
▁चक्रवात	-11.687
▁परंपरा	-11.687
▁बीजिंग	-11.687
▁ETA	-11.687
▁concert	-11.687
▁entitle	-11.687
▁आइलैंड	-11.687
▁टिकट	-11.687
▁DNA	-11.687
▁Metro	-11.687
▁client	-11.687
▁exceed	-11.687
▁freight	-11.687
▁Design	-11.687
▁Power	-11.687
▁म्यूनि	-11.687
▁lãng	-11.687
▁झील	-11.687
▁royal	-11.687
▁diesel	-11.6871
▁remarks	-11.6871
▁aviation	-11.6871
▁broad	-11.6871
▁pump	-11.6871
▁reverse	-11.6871
▁empty	-11.6871
▁मॉडल	-11.6871
▁कैंपबेल	-11.6871
▁राजमार्ग	-11.6871
इबेरिया	-11.6871
▁रॉब	-11.6871
▁शेरिफ	-11.6871
▁Formula	-11.6871
▁loans	-11.6871
▁northeast	-11.6871
▁Grant	-11.6871
▁Racing	-11.6871
▁युग	-11.6871
लापरवाही	-11.6871
▁José	-11.6871
▁restrictions	-11.6871
▁सेंसर	-11.6871
▁assert	-11.6871
▁दफन	-11.6871
▁मास्को	-11.6872
▁फोटो	-11.6872
▁Ltd	-11.6872
▁contribution	-11.6872
▁इकाई	-11.6872
▁तुम	-11.6872
▁स्वीकृत	-11.6872
▁समाप	-11.6872
▁insult	-11.6872
▁feed	-11.6872
▁स्वस्थ	-11.6872
venture	-11.6873
▁xăng	-11.6873
▁लुइस	-11.6873
▁पीटरसन	-11.6873
▁playoff	-11.6873
▁resignation	-11.6873
▁DUP	-11.6873
▁शादी	-11.6874
▁आखिरकार	-11.6874
▁CAFTA	-11.6874
▁Hugo	-11.6874
▁deadline	-11.6875
▁memorial	-11.6875
▁MSN	-11.6875
▁settlement	-11.6876
▁प्रदेश	-11.6876
ineteen	-11.6876
▁औप	-11.6877
▁Motor	-11.6877
▁nhầm	-11.6877
▁पॉप	-11.6877
ौस	-11.6877
▁रुड	-11.6878
▁वैसे	-11.6878
▁recommendation	-11.6878
▁Peterson	-11.6878
▁यूनिट	-11.6878
▁बाग	-11.6879
▁vỏ	-11.6879
▁रियो	-11.688
▁nghiệt	-11.6881
▁छापा	-11.6884
▁अपमान	-11.6884
wake	-11.6884
▁निचले	-11.6884
▁deeply	-11.6884
खाव	-11.6885
▁सूट	-11.6885
▁duck	-11.6886
▁deem	-11.6888
▁दरवाजे	-11.6889
▁certainly	-11.6889
▁खोलने	-11.6891
▁Tribune	-11.6893
▁lăn	-11.6893
▁संदर्भित	-11.6893
▁करूंगा	-11.6895
$30	-11.6895
▁पेज	-11.6896
▁fined	-11.6896
▁चलाए	-11.6898
▁लेगा	-11.6898
▁त्याग	-11.6899
▁ठो	-11.69
▁बढ़कर	-11.69
जैविक	-11.69
▁बनाकर	-11.69
▁plaintiffs	-11.6901
▁Oil	-11.6901
▁15,000	-11.6901
▁lệch	-11.6905
▁चुरा	-11.6906
▁restricted	-11.6907
▁significantly	-11.6908
▁69	-11.6908
▁Five	-11.691
▁आयात	-11.6912
▁generally	-11.6912
▁निलंबन	-11.6912
▁sort	-11.6913
▁निकोलस	-11.6913
▁खुली	-11.6914
▁vow	-11.6914
▁लूट	-11.6915
MO	-11.6916
▁चढ़	-11.6917
ớt	-11.6923
▁Mining	-11.6925
▁code	-11.6925
ओएल	-11.6926
▁प्रजाति	-11.6928
▁rescued	-11.6928
▁विद्यार्थी	-11.693
▁बर्फ़	-11.6931
▁सील	-11.6937
▁sharing	-11.6938
▁लंब	-11.694
▁Chad	-11.694
ideo	-11.6942
▁5.9	-11.6944
▁चीफ	-11.695
logist	-11.6952
▁represented	-11.6953
▁Officer	-11.6958
▁वॉक	-11.6961
hìn	-11.6965
▁rig	-11.6966
▁Shia	-11.6971
▁sole	-11.6972
▁जानता	-11.6978
▁कैम्प	-11.6979
▁सिन्	-11.6979
▁enforc	-11.6982
खड़ा	-11.7001
▁घेरा	-11.7006
ella	-11.701
▁बहर	-11.702
▁Vice	-11.7027
2.8	-11.7027
MoD	-11.7033
दवे	-11.7035
▁इन्हे	-11.7042
▁होली	-11.7044
▁trộ	-11.7045
▁प्रवास	-11.7045
ude	-11.7063
uyến	-11.7064
▁routine	-11.7067
SL	-11.7069
.4%	-11.707
9,000	-11.7104
rapi	-11.7107
▁fan	-11.7108
िटल	-11.7111
ुंग	-11.7155
uiz	-11.716
▁bô	-11.7167
▁बरत	-11.7169
▁tall	-11.7178
▁donor	-11.7181
व्यू	-11.7188
arlie	-11.719
wall	-11.7195
▁1.3	-11.7203
▁Rove	-11.7221
posed	-11.7243
▁prob	-11.7243
▁transfer	-11.725
▁140	-11.7251
नील	-11.7262
बेस	-11.7294
▁गोर	-11.7296
▁निम	-11.7297
▁नाज	-11.73
▁Rail	-11.7301
▁thề	-11.732
made	-11.7321
opol	-11.7327
bbi	-11.7327
वासियों	-11.733
कानूनी	-11.7336
EUR	-11.7346
▁7.2	-11.735
orge	-11.7359
IP	-11.7368
ý	-11.7377
▁Boe	-11.7378
Online	-11.7392
डाउन	-11.7393
संचार	-11.7393
गंभीर	-11.7394
क्या	-11.7394
ngày	-11.7395
named	-11.7396
विचार	-11.7396
high	-11.7397
▁कमांड	-11.7398
▁खुल	-11.7398
▁communication	-11.7406
▁doctor	-11.7406
विरा	-11.7406
PO	-11.7408
▁ब्रु	-11.7408
▁parent	-11.7409
डान	-11.741
▁पर्यट	-11.741
▁Bull	-11.741
▁बोलत	-11.7413
national	-11.7414
▁citizen	-11.7418
hour	-11.742
▁ओब	-11.7424
▁Khả	-11.7427
▁sit	-11.7429
▁1.0	-11.743
month	-11.7431
▁Lord	-11.7444
found	-11.7446
▁क्रा	-11.7453
50.000	-11.7453
▁खरीदन	-11.7464
▁complain	-11.7468
▁निराश	-11.7468
▁डील	-11.7474
सरकार	-11.7477
▁fish	-11.7481
▁Steel	-11.7485
जिन	-11.7485
▁mạc	-11.7486
▁commit	-11.7488
▁govern	-11.7488
▁श्रम	-11.7489
▁माँ	-11.7491
eem	-11.7493
▁injuri	-11.7494
▁स्वेच्छा	-11.7495
नाटकीय	-11.7495
सेक्रेटरी	-11.7495
▁Arsenal	-11.7495
▁Bainimarama	-11.7495
▁Bathurst	-11.7495
▁Beerbohm	-11.7495
▁Bridge	-11.7495
▁Broadcast	-11.7495
▁Brussels	-11.7495
▁Custom	-11.7495
▁Dmitr	-11.7495
▁Falkirk	-11.7495
▁Frelimo	-11.7495
▁Gbagbo	-11.7495
▁Generations	-11.7495
▁Heathrow	-11.7495
▁Honolulu	-11.7495
▁Ibrahim	-11.7495
▁Kurnaz	-11.7495
▁Kuwait	-11.7495
▁MSNBC	-11.7495
▁Madagascar	-11.7495
▁Mahajan	-11.7495
▁Management	-11.7495
▁Mirror	-11.7495
▁Missouri	-11.7495
▁Mubarak	-11.7495
▁Newcastle	-11.7495
▁Niagara	-11.7495
▁Nuclear	-11.7495
▁Olympia	-11.7495
▁Parenthood	-11.7495
▁Popov	-11.7495
▁Reserve	-11.7495
▁Safarov	-11.7495
▁Schwarzenegger	-11.7495
▁Sgrena	-11.7495
▁Sumatra	-11.7495
▁Uruguay	-11.7495
▁agriculture	-11.7495
▁apologize	-11.7495
▁breast	-11.7495
▁circumstances	-11.7495
▁conversation	-11.7495
▁decrease	-11.7495
▁enjoy	-11.7495
▁expell	-11.7495
▁extension	-11.7495
▁fossil	-11.7495
▁hormone	-11.7495
▁imprisonment	-11.7495
▁instrument	-11.7495
▁operator	-11.7495
▁peacekeeping	-11.7495
▁prize	-11.7495
▁prohibit	-11.7495
▁referee	-11.7495
▁scheme	-11.7495
▁symptoms	-11.7495
▁white	-11.7495
▁đấy	-11.7495
▁अवशेष	-11.7495
▁आवेदन	-11.7495
▁कमिश्नर	-11.7495
▁कल्पना	-11.7495
▁गश्त	-11.7495
▁चट्टान	-11.7495
▁चार्ल्स	-11.7495
▁चेतावनिय	-11.7495
▁ज़्यादा	-11.7495
▁टोक्यो	-11.7495
▁दिमाग	-11.7495
▁दिलचस्प	-11.7495
▁निवेदन	-11.7495
▁पेट्रोल	-11.7495
▁प्रतिरक्षा	-11.7495
▁फ़ोटो	-11.7495
▁माइग्रे	-11.7495
▁मुशर्रफ	-11.7495
▁स्वयंसेवक	-11.7495
▁हृदय	-11.7495
▁Austin	-11.7495
▁Brawn	-11.7495
▁Kerala	-11.7495
▁Namibia	-11.7495
▁Plame	-11.7495
▁Product	-11.7495
▁asylum	-11.7495
▁convention	-11.7495
▁deployed	-11.7495
▁essential	-11.7495
▁excessive	-11.7495
▁prominen	-11.7495
▁qualification	-11.7495
▁recruit	-11.7495
▁ticket	-11.7495
▁videotape	-11.7495
▁आपत्ति	-11.7495
▁उन्होने	-11.7495
▁प्यार	-11.7495
▁बिशप	-11.7495
▁Giêng	-11.7495
▁Hydro	-11.7495
▁Mohammad	-11.7495
▁Witness	-11.7495
▁myelin	-11.7495
▁अभिनेता	-11.7495
▁चुनौतिय	-11.7495
santorum	-11.7495
▁Dubai	-11.7495
▁Lundy	-11.7495
▁Nelson	-11.7495
▁duties	-11.7495
▁milk	-11.7495
▁silver	-11.7495
▁ultimately	-11.7495
▁Rhys	-11.7495
▁priest	-11.7495
▁IAG	-11.7495
▁Rumani	-11.7495
▁novel	-11.7495
▁polar	-11.7495
▁अन्वेष	-11.7495
▁अफ़्रीक	-11.7495
▁Antony	-11.7495
▁बुद्धि	-11.7495
महापौर	-11.7496
Eleven	-11.7496
▁गर्व	-11.7496
▁domain	-11.7496
▁ngòi	-11.7496
▁Belgrade	-11.7496
▁chày	-11.7496
lateral	-11.7496
निष्	-11.7496
▁लैपटॉप	-11.7496
▁Santos	-11.7496
▁earth	-11.7496
▁Frontier	-11.7496
▁लैब	-11.7496
▁शेयरधारक	-11.7496
▁Thatcher	-11.7496
▁अपमानजनक	-11.7496
▁Newsom	-11.7496
▁sky	-11.7496
▁oxygen	-11.7496
▁Delp	-11.7496
▁Biden	-11.7496
▁threatening	-11.7496
▁शीत	-11.7496
▁Osman	-11.7496
▁उलट	-11.7496
▁Interpol	-11.7496
▁Lille	-11.7496
▁extensive	-11.7496
cular	-11.7496
▁McNeil	-11.7496
▁काफिल	-11.7496
▁रसायन	-11.7496
▁ऑयल	-11.7496
▁Kumar	-11.7496
▁peak	-11.7496
▁importance	-11.7496
OAS	-11.7496
िंघ	-11.7496
▁Ailen	-11.7496
▁Hopper	-11.7496
mph	-11.7497
▁Highway	-11.7497
▁शाखा	-11.7497
▁Salt	-11.7497
▁Webber	-11.7497
▁adult	-11.7497
▁rising	-11.7497
▁फर्नांडो	-11.7497
▁Ballard	-11.7497
▁इन्कार	-11.7497
▁basketball	-11.7497
▁सौदा	-11.7497
▁लैस	-11.7497
▁electora	-11.7497
▁टेलर	-11.7498
▁149	-11.7498
ọa	-11.7498
▁lui	-11.7498
भेद	-11.7498
▁तत्कालीन	-11.7498
▁Adamov	-11.7498
▁Erie	-11.7498
▁rẽ	-11.7498
▁होंगी	-11.7498
ghệ	-11.7499
▁Diaz	-11.7499
▁Wright	-11.7499
▁rescuers	-11.7499
▁दुखद	-11.7499
ampton	-11.75
▁thám	-11.75
lace	-11.75
▁सैंड	-11.75
▁Viper	-11.75
▁जटिलता	-11.75
▁लाइफ	-11.75
▁WMD	-11.75
▁duty	-11.75
▁Blatt	-11.7501
▁Latin	-11.7501
▁ngợi	-11.7501
▁पीएम	-11.7501
▁Button	-11.7501
▁Hyde	-11.7501
▁ड्यू	-11.7501
▁मिनिस	-11.7501
चिह्न	-11.7502
▁हाफ़	-11.7502
▁racing	-11.7502
▁Environmental	-11.7502
▁slight	-11.7503
क्चर	-11.7503
▁Kaka	-11.7503
iberties	-11.7503
▁शावेज	-11.7503
हाल	-11.7503
ullah	-11.7504
▁बाउ	-11.7504
▁Roll	-11.7505
▁challeng	-11.7505
▁huynh	-11.7505
▁Maine	-11.7506
▁Yard	-11.7506
▁Indie	-11.7506
▁एमपी	-11.7506
▁listen	-11.7507
एग	-11.7507
▁Islanders	-11.7507
▁mode	-11.7507
▁hitting	-11.7507
▁6:30	-11.751
▁Corte	-11.751
▁55%	-11.7511
▁रिले	-11.7512
▁ट्राई	-11.7513
▁Phả	-11.7513
▁Wild	-11.7513
Pedro	-11.7514
ेटिक	-11.7514
▁पाते	-11.7515
▁Lope	-11.7515
▁lự	-11.7515
▁Election	-11.7515
▁Snowy	-11.7515
एफओ	-11.7516
▁डच	-11.7517
▁secured	-11.7518
▁Fred	-11.7519
▁load	-11.752
जल्दबाजी	-11.7521
▁preparation	-11.7525
▁100.000	-11.7525
▁entirely	-11.7526
▁measured	-11.7526
▁डाइ	-11.7526
क्रिया	-11.7528
▁alarm	-11.7529
▁achieved	-11.7531
▁athletes	-11.7534
▁Giuliani	-11.7534
▁निपटान	-11.7535
▁dispos	-11.7535
▁Brit	-11.7536
liability	-11.7536
kina	-11.7536
▁dub	-11.7537
▁understanding	-11.7541
वती	-11.7544
▁Bella	-11.7545
▁commissioner	-11.7548
▁grain	-11.7549
▁08:	-11.755
▁Kate	-11.7552
▁Áo	-11.7553
▁Isle	-11.7555
▁4%	-11.7556
RD	-11.7558
▁125	-11.7558
▁जोन्स	-11.7561
▁स्प्रिंग	-11.7568
▁Gap	-11.7568
▁experienced	-11.7569
▁quên	-11.7573
▁Sale	-11.7577
▁concerning	-11.758
Who	-11.7582
▁offering	-11.7585
▁पापु	-11.7585
▁चलाई	-11.7586
wimming	-11.7587
▁Shau	-11.759
▁Key	-11.759
▁डीसी	-11.7591
मिल्टन	-11.7595
▁hàm	-11.7598
▁trơ	-11.7602
र्ध	-11.7603
▁Silv	-11.7603
lew	-11.7609
▁khiếp	-11.7622
▁ग्रि	-11.763
▁Aid	-11.7638
▁सिंड	-11.7644
याद	-11.7646
▁thở	-11.7648
एमआई	-11.7649
nami	-11.7649
gôn	-11.7652
▁nô	-11.7658
▁कैरि	-11.7662
Every	-11.7662
▁कोस्टा	-11.7664
▁argue	-11.7678
ological	-11.769
duca	-11.7697
▁विक्ट	-11.7697
ट्रॉ	-11.7699
▁गुल	-11.7702
unda	-11.7702
▁sô	-11.772
पुट	-11.7723
▁परिस्थिति	-11.7732
▁मौक	-11.7741
हाईट	-11.7742
सेक्स	-11.7746
▁छापे	-11.7749
है	-11.7757
गार्ड	-11.7767
▁जोड़त	-11.7774
▁hate	-11.7777
riple	-11.7778
रहित	-11.7779
cio	-11.778
ntil	-11.779
etersen	-11.7794
rts	-11.7799
▁गिला	-11.7812
▁sat	-11.7813
▁आयो	-11.7822
zak	-11.7824
र्डन	-11.7834
▁Thá	-11.7839
क्वि	-11.7841
▁Pac	-11.7857
ट्रे	-11.7868
ेरियो	-11.7872
▁समझत	-11.7874
▁rank	-11.7901
▁जुर	-11.7904
ंबर	-11.7908
▁Justin	-11.791
▁पैट	-11.793
▁Petr	-11.7934
▁5.3	-11.7934
ASA	-11.7936
▁डोमे	-11.7936
▁वायर	-11.7941
▁describ	-11.7951
▁alleg	-11.7952
bee	-11.7966
▁nàn	-11.7967
dinh	-11.8028
have	-11.8034
लामो	-11.8041
Silva	-11.8056
standing	-11.8058
view	-11.8059
▁Coli	-11.8059
मध्य	-11.806
सुरक्षित	-11.806
अमेरिकी	-11.8061
लगभग	-11.8061
युद्ध	-11.8061
Whil	-11.8062
▁7.0	-11.8065
life	-11.8069
armed	-11.807
स्टर्न	-11.8072
▁patient	-11.8072
▁हेल्	-11.8075
▁troop	-11.8075
करार	-11.8079
ùa	-11.8085
▁विद्रोह	-11.8087
▁कृत्	-11.8089
माइन	-11.8096
Anh	-11.8103
till	-11.8106
▁Lind	-11.8119
वस्था	-11.812
▁reduc	-11.8125
रूप	-11.8127
बैंक	-11.8129
▁surround	-11.8134
चेत	-11.8137
▁spirit	-11.8137
that	-11.8143
▁enable	-11.8143
▁Franc	-11.8146
▁journal	-11.8148
▁conclude	-11.8149
▁custom	-11.815
ection	-11.8151
▁Mexic	-11.8151
mperial	-11.8152
पंथी	-11.8153
▁एडवर्ड	-11.8155
ampaign	-11.8158
▁राजनेता	-11.8158
cientists	-11.8159
▁strength	-11.8159
ुशल	-11.8159
▁शोधकर्ता	-11.816
produc	-11.816
▁admit	-11.8161
▁चिड़िया	-11.8162
NSBIH	-11.8162
Progressive	-11.8162
ंतानामो	-11.8162
मोंटेनेग्रो	-11.8162
लिवरपूल	-11.8162
▁Austria	-11.8162
▁Azeri	-11.8162
▁Barrichello	-11.8162
▁Berenstain	-11.8162
▁Bloomberg	-11.8162
▁Elizabeth	-11.8162
▁Entertainment	-11.8162
▁Federation	-11.8162
▁Finnish	-11.8162
▁Floyd	-11.8162
▁Foxconn	-11.8162
▁Independent	-11.8162
▁Mehsud	-11.8162
▁Museveni	-11.8162
▁Rebecca	-11.8162
▁Shuttle	-11.8162
▁System	-11.8162
▁Technology	-11.8162
▁Thousand	-11.8162
▁approval	-11.8162
▁background	-11.8162
▁biếm	-11.8162
▁collided	-11.8162
▁compound	-11.8162
▁eligible	-11.8162
▁ethnic	-11.8162
▁existence	-11.8162
▁expansion	-11.8162
▁explanation	-11.8162
▁giấc	-11.8162
▁grenade	-11.8162
▁heavily	-11.8162
▁impossible	-11.8162
▁medication	-11.8162
▁neither	-11.8162
▁otherwise	-11.8162
▁reference	-11.8162
▁satisf	-11.8162
▁separatist	-11.8162
▁shadow	-11.8162
▁tunnel	-11.8162
▁underground	-11.8162
▁अनदेख	-11.8162
▁अपडेट	-11.8162
▁इंसुलिन	-11.8162
▁उन्नत	-11.8162
▁एथेंस	-11.8162
▁ओहियो	-11.8162
▁कच्च	-11.8162
▁कन्वेंशन	-11.8162
▁कैनबरा	-11.8162
▁क्यूबेक	-11.8162
▁गाँव	-11.8162
▁चंद्रमा	-11.8162
▁चैरिटी	-11.8162
▁तिब्बत	-11.8162
▁नाबालिग	-11.8162
▁न्यूक्लियर	-11.8162
▁प्रतिस्पर्धी	-11.8162
▁बोस्निया	-11.8162
▁मशहूर	-11.8162
▁मसौद	-11.8162
▁महत्त्व	-11.8162
▁मिशिगन	-11.8162
▁मिशेल	-11.8162
▁म्यांमार	-11.8162
▁रवांडा	-11.8162
▁रिजर्व	-11.8162
▁रोजगार	-11.8162
▁विविध	-11.8162
▁वेनेज़ुएला	-11.8162
▁वेलिंगटन	-11.8162
▁शंघाई	-11.8162
▁संवेदनशील	-11.8162
▁सनशाइन	-11.8162
▁सूचकांक	-11.8162
▁हार्मोन	-11.8162
▁1967	-11.8162
▁1969	-11.8162
▁Petersburg	-11.8162
▁RAF	-11.8162
▁boost	-11.8162
▁bọt	-11.8162
▁dẹp	-11.8162
▁fresh	-11.8162
▁giềng	-11.8162
▁middle	-11.8162
▁seventeen	-11.8162
▁switch	-11.8162
▁tragedy	-11.8162
▁tribute	-11.8162
▁worried	-11.8162
▁उपनगर	-11.8162
▁गांधी	-11.8162
▁तब्दील	-11.8162
▁यकीन	-11.8162
▁शीघ्र	-11.8162
▁संवेदना	-11.8162
▁Hakim	-11.8162
▁Jihad	-11.8162
▁PNG	-11.8162
▁repeatedly	-11.8162
▁sample	-11.8162
▁smuggl	-11.8162
▁straight	-11.8162
▁wild	-11.8162
▁कोंडोलीज	-11.8162
▁चैम्पियन	-11.8162
▁प्लांट	-11.8162
▁Shore	-11.8162
▁Turner	-11.8162
▁caution	-11.8162
▁Living	-11.8162
▁Oval	-11.8162
▁hydro	-11.8162
▁बिखर	-11.8162
▁Order	-11.8162
▁agenda	-11.8162
▁succeed	-11.8162
र्ब्स	-11.8162
▁burst	-11.8162
▁fence	-11.8162
▁atmosphere	-11.8162
▁dedicat	-11.8162
▁Angola	-11.8162
▁सरकोज	-11.8162
▁filing	-11.8162
▁shift	-11.8162
▁Old	-11.8162
▁भिड़ंत	-11.8162
▁वर्जिन	-11.8162
▁फर्म	-11.8162
▁console	-11.8162
▁अधिग्रह	-11.8162
▁Change	-11.8162
▁convinc	-11.8162
▁अमरीक	-11.8162
▁व्हि	-11.8162
▁व्हेल	-11.8162
▁fatalities	-11.8162
▁flames	-11.8163
▁northwest	-11.8163
▁संग्रहालय	-11.8163
▁proceedings	-11.8163
▁इरान	-11.8163
▁उपराष्ट्रपति	-11.8163
limate	-11.8163
▁Derby	-11.8163
▁Vua	-11.8163
▁Bomb	-11.8163
▁दोहरा	-11.8163
▁loang	-11.8163
▁स्त्रिय	-11.8163
ेसबुक	-11.8163
▁mũi	-11.8163
▁एजेंड	-11.8163
▁tonnes	-11.8163
▁changing	-11.8163
बॉय	-11.8164
हरिकेन	-11.8164
▁निकाय	-11.8164
▁शूम	-11.8164
▁Ellis	-11.8164
▁Metropolitan	-11.8164
▁trading	-11.8164
▁क्लास	-11.8164
▁giơ	-11.8164
▁झेल	-11.8164
▁ग्लेन	-11.8164
▁जुटा	-11.8165
▁Venu	-11.8165
▁tension	-11.8165
hèo	-11.8165
▁desire	-11.8165
▁1927	-11.8165
▁regardless	-11.8166
▁1966	-11.8166
▁पात्र	-11.8166
▁एप्प	-11.8166
▁prefer	-11.8166
▁Walter	-11.8166
▁777	-11.8167
▁खून	-11.8167
▁hija	-11.8167
▁stick	-11.8167
▁Alliance	-11.8167
▁ईयर	-11.8167
▁Workers	-11.8167
▁pair	-11.8167
▁turnout	-11.8168
न्तु	-11.8168
▁पराज	-11.8169
▁अन्ना	-11.8169
▁सुनाया	-11.8169
▁thuỷ	-11.8169
▁Abb	-11.8169
▁शर्ट	-11.8169
▁ईयू	-11.8169
▁चीज़	-11.817
▁dark	-11.817
▁Monte	-11.817
▁911	-11.8172
▁सत्रह	-11.8172
▁अल्ब	-11.8172
uge	-11.8172
▁गिराया	-11.8173
▁stable	-11.8173
एसडब्ल्यू	-11.8173
▁अलर्ट	-11.8174
▁ऑर	-11.8175
▁dời	-11.8175
▁spar	-11.8176
▁Viên	-11.8177
▁इलाका	-11.8177
▁association	-11.8177
▁xuân	-11.8178
▁लेबल	-11.8178
▁कैरी	-11.8179
▁Jami	-11.8179
▁Albu	-11.818
▁specialist	-11.818
▁chê	-11.8181
▁qualifying	-11.8181
▁shareholder	-11.8181
▁पुत्र	-11.8182
▁421	-11.8182
▁bạch	-11.8182
▁मिलती	-11.8182
▁participated	-11.8183
▁alive	-11.8184
▁सर्वर	-11.8184
▁सूख	-11.8184
▁35%	-11.8184
इंटेलिजेंस	-11.8186
▁scar	-11.8186
▁anger	-11.8191
▁आजीव	-11.8191
▁Bác	-11.8194
▁क्रूज़	-11.8194
▁Action	-11.8195
▁disputed	-11.8195
▁learning	-11.8197
▁dối	-11.8197
▁móng	-11.8198
▁टीका	-11.8198
▁186	-11.8199
▁younger	-11.8203
▁समानता	-11.8203
श्ले	-11.8204
▁Tế	-11.8204
▁illegally	-11.8205
▁mì	-11.8205
▁मनाने	-11.8206
▁Light	-11.8209
▁counted	-11.8209
▁Sub	-11.8211
▁148	-11.8212
▁1800	-11.8215
▁प्रकाशन	-11.8216
▁Timo	-11.8218
▁6%	-11.8219
ĩnh	-11.8222
▁शीह	-11.8223
▁watched	-11.8224
▁155	-11.8231
▁gene	-11.8232
▁चुप	-11.8233
▁DM	-11.8238
RESA	-11.824
▁hiê	-11.8243
▁chair	-11.8244
डीपी	-11.8245
▁माफ़	-11.8245
▁आते	-11.8248
▁बनाता	-11.8249
▁रिच	-11.8252
्रांसीसी	-11.8262
▁खेलना	-11.8263
आय	-11.8267
echnologies	-11.828
rice	-11.829
anuel	-11.8296
▁चिप	-11.8309
gram	-11.8323
ाइमर	-11.8358
ग्राम	-11.8368
योंग	-11.8375
char	-11.8376
अस्पष्ट	-11.8379
:40	-11.8391
▁Read	-11.8395
▁पैड	-11.8397
▁समर	-11.8399
▁मूर	-11.8409
▁Chap	-11.8422
▁killer	-11.8426
Com	-11.843
▁चु	-11.8431
▁रूड	-11.8438
हितों	-11.8439
आरसी	-11.8444
▁कैपिट	-11.845
▁करनेवाल	-11.8467
hud	-11.847
IO	-11.848
▁प्रोग्राम	-11.8485
avin	-11.8491
▁फल	-11.8506
डिले	-11.8522
▁बोग	-11.8523
ख्त	-11.8541
Jo	-11.8547
▁lb	-11.8547
▁ड्रॉ	-11.8558
▁फ़िज	-11.8565
▁featur	-11.8569
अल	-11.8578
फ़री	-11.8581
▁Jacqu	-11.8581
ैच	-11.8607
▁Had	-11.8633
proved	-11.8641
▁finalist	-11.8641
▁दाग	-11.8657
guel	-11.8664
▁पील	-11.8674
चार्ज	-11.8689
▁Gul	-11.8692
▁cooperati	-11.8709
ाउड	-11.873
्बो	-11.8742
▁कैम्	-11.8751
6.000	-11.8754
▁$7	-11.8769
intend	-11.8773
League	-11.8774
सुरक्षा	-11.8775
मुक्त	-11.8775
रेखा	-11.8775
shore	-11.8776
▁टीक	-11.8776
ईरान	-11.8777
मीटर	-11.878
फ़ोन	-11.8781
जनरल	-11.8781
That	-11.8783
▁एमएस	-11.8785
पीट	-11.8787
▁decade	-11.8788
EU	-11.8788
मुख	-11.8789
hoàn	-11.8789
700,000	-11.8791
▁experienc	-11.8795
2007	-11.8795
▁tree	-11.8798
went	-11.8806
UN	-11.8812
▁tú	-11.8813
कभी	-11.8814
▁nhâ	-11.8836
▁lờ	-11.884
▁phú	-11.884
इराक	-11.8841
यार्ड	-11.8844
▁accord	-11.8849
लिस्ट	-11.8853
▁अध्या	-11.8853
▁Count	-11.8854
▁Snow	-11.8856
▁शर्त	-11.8857
▁Lauren	-11.8859
▁declin	-11.8866
▁Elect	-11.8869
▁स्पोर्ट	-11.8871
oogle	-11.8875
▁Farm	-11.8875
▁Univers	-11.8875
courage	-11.8876
▁regret	-11.8876
ü	-11.8876
साइक्ल	-11.8876
▁AEY	-11.8876
▁Amsterdam	-11.8876
▁Beirut	-11.8876
▁Corneau	-11.8876
▁Critchfield	-11.8876
▁Hollweg	-11.8876
▁Mahameed	-11.8876
▁Nevada	-11.8876
▁Pentagon	-11.8876
▁Qantas	-11.8876
▁Salvador	-11.8876
▁Selamat	-11.8876
▁Soviet	-11.8876
▁column	-11.8876
▁competitive	-11.8876
▁senator	-11.8876
▁बर्खास्त	-11.8876
▁मुंह	-11.8876
▁विधाय	-11.8876
PlanetOut	-11.8876
Zarqawi	-11.8876
laughter	-11.8876
swept	-11.8876
yphoon	-11.8876
थॉम्पसन	-11.8876
होलोकास्ट	-11.8876
▁AAIB	-11.8876
▁Arafat	-11.8876
▁Broncos	-11.8876
▁Calderon	-11.8876
▁Capitol	-11.8876
▁Caribbean	-11.8876
▁Catherine	-11.8876
▁Century	-11.8876
▁Comanche	-11.8876
▁Consumer	-11.8876
▁Crossrail	-11.8876
▁Damascus	-11.8876
▁Diveroli	-11.8876
▁Elliot	-11.8876
▁Grishin	-11.8876
▁Industry	-11.8876
▁Jeremy	-11.8876
▁Kandahar	-11.8876
▁Kormor	-11.8876
▁Lavorel	-11.8876
▁Lufthansa	-11.8876
▁Military	-11.8876
▁Mukherjee	-11.8876
▁Māori	-11.8876
▁Mạng	-11.8876
▁Newsweek	-11.8876
▁Schulman	-11.8876
▁Scientologist	-11.8876
▁Second	-11.8876
▁Weather	-11.8876
▁Wygle	-11.8876
▁[...]	-11.8876
▁accusations	-11.8876
▁coincide	-11.8876
▁component	-11.8876
▁cyclone	-11.8876
▁definitely	-11.8876
▁delegation	-11.8876
▁disagree	-11.8876
▁emotional	-11.8876
▁extremist	-11.8876
▁graffiti	-11.8876
▁ignored	-11.8876
▁indictment	-11.8876
▁infringement	-11.8876
▁laptop	-11.8876
▁ngặt	-11.8876
▁occasion	-11.8876
▁penalties	-11.8876
▁petrol	-11.8876
▁phenomenon	-11.8876
▁poverty	-11.8876
▁principal	-11.8876
▁recession	-11.8876
▁recognise	-11.8876
▁refinery	-11.8876
▁resort	-11.8876
▁restaurant	-11.8876
▁silence	-11.8876
▁techniques	-11.8876
▁tiệc	-11.8876
▁veteran	-11.8876
▁इंडियाना	-11.8876
▁दुर्लभ	-11.8876
▁पैरालंपिक	-11.8876
▁पौध	-11.8876
▁प्रतिशोध	-11.8876
▁प्रत्यक्षदर्शी	-11.8876
▁प्रत्यर्प	-11.8876
▁प्रायद्वीप	-11.8876
▁प्रायोजित	-11.8876
▁ब्रिगेड	-11.8876
▁मेलबोर्न	-11.8876
▁रिफाइनर	-11.8876
▁लिमिटेड	-11.8876
▁वैंकूवर	-11.8876
▁संतुष्ट	-11.8876
▁सोवियत	-11.8876
ब्दी	-11.8876
▁Couture	-11.8876
▁Fuji	-11.8876
▁Harmony	-11.8876
▁Hilton	-11.8876
▁Karzai	-11.8876
▁Nicole	-11.8876
▁Serena	-11.8876
▁belief	-11.8876
▁concrete	-11.8876
▁diverted	-11.8876
▁innocent	-11.8876
▁spray	-11.8876
▁trillion	-11.8876
▁vọt	-11.8876
▁कनेक्शन	-11.8876
▁निरस्त	-11.8876
▁बोस्टन	-11.8876
▁मैथ्यू	-11.8876
▁हल्के	-11.8876
▁Gilani	-11.8876
▁लपट	-11.8876
▁हकदार	-11.8876
▁Disney	-11.8876
▁Fatah	-11.8876
▁Horta	-11.8876
▁Magic	-11.8876
▁Oyler	-11.8876
▁converted	-11.8876
▁टेक्नोलॉजी	-11.8876
▁Heuga	-11.8876
▁Siberia	-11.8876
▁Stakes	-11.8876
▁guest	-11.8876
▁navy	-11.8876
▁प्राइमरी	-11.8876
▁फ़ाल्क	-11.8876
▁Travis	-11.8876
▁digit	-11.8876
▁खतरों	-11.8876
▁Miami	-11.8876
▁गहन	-11.8876
▁जिंदग	-11.8876
Badware	-11.8876
▁rifle	-11.8876
▁Field	-11.8876
▁Android	-11.8876
▁hostile	-11.8876
▁उत्सव	-11.8876
▁Idol	-11.8876
▁बहिष्कार	-11.8876
▁pool	-11.8876
▁वित्तपोष	-11.8877
▁radical	-11.8877
▁Cairo	-11.8877
▁catch	-11.8877
ymond	-11.8877
▁चिह्नित	-11.8877
▁निषेधा	-11.8877
▁Nhất	-11.8877
▁बुखारेस्ट	-11.8877
▁Exchange	-11.8877
▁अफ़गानिस्तान	-11.8877
▁pills	-11.8877
▁सिल्व	-11.8877
▁छेड़	-11.8877
Secret	-11.8877
WFP	-11.8877
▁Luong	-11.8877
▁Tylo	-11.8877
▁ओलम्पिक	-11.8877
▁birthday	-11.8877
▁hunger	-11.8877
▁मतभेद	-11.8877
▁डिफ़ें	-11.8877
▁डेनमार्क	-11.8877
CPJ	-11.8877
▁फ़्रीड	-11.8877
▁अरबपति	-11.8877
▁Norway	-11.8877
entry	-11.8877
▁डैनियल	-11.8877
▁सिंगल	-11.8877
▁legitimate	-11.8877
▁cancel	-11.8877
▁spy	-11.8877
▁वाल्श	-11.8878
▁Globalive	-11.8878
▁रैंक	-11.8878
▁clinic	-11.8878
▁ethic	-11.8878
▁Jeanna	-11.8878
▁Hamlin	-11.8878
▁Morsi	-11.8878
▁Valer	-11.8878
▁highlight	-11.8878
▁थिए	-11.8878
▁Domini	-11.8879
▁Emil	-11.8879
▁Vector	-11.8879
▁anybody	-11.8879
▁Winner	-11.8879
▁Carter	-11.8879
▁घिर	-11.888
▁Goss	-11.8881
▁Richardson	-11.8881
▁विरासत	-11.8881
▁Communist	-11.8881
▁प्रहार	-11.8881
▁चूह	-11.8882
▁SED	-11.8882
▁ngưỡng	-11.8882
▁Suva	-11.8882
▁crude	-11.8882
▁reality	-11.8882
empt	-11.8882
▁Giới	-11.8883
▁campus	-11.8883
▁Heim	-11.8883
▁दरार	-11.8883
सायन	-11.8884
मार्केटिंग	-11.8884
▁तत्व	-11.8885
▁amid	-11.8885
▁माध	-11.8885
▁ढांचे	-11.8886
▁pornography	-11.8886
▁747	-11.8886
▁moral	-11.8886
▁Panda	-11.8886
बाजी	-11.8887
न्ध	-11.8887
▁loud	-11.8888
▁मैस	-11.8888
▁स्टीफन	-11.8889
▁recommended	-11.8889
▁Sauber	-11.8889
ंसोल	-11.8891
▁एलेन	-11.8891
▁MTV	-11.8892
▁12:30	-11.8892
▁Christin	-11.8892
▁400,000	-11.8892
▁gien	-11.8892
▁đếm	-11.8893
्रैग	-11.8893
▁abandoned	-11.8893
▁buses	-11.8894
▁मसल	-11.8894
▁Luis	-11.8894
cient	-11.8895
▁मरीन	-11.8895
▁ISP	-11.8896
बीआई	-11.8896
▁rose	-11.8897
▁edition	-11.8897
▁10:30	-11.8899
▁Dick	-11.89
▁2050	-11.89
▁quen	-11.8901
▁Jens	-11.8901
▁establishment	-11.8902
▁सक्रियता	-11.8904
▁बैल	-11.8904
▁Come	-11.8904
▁अल्ज	-11.8906
▁mổ	-11.8907
▁मारिया	-11.891
▁installed	-11.8911
▁प्रक्रियाओं	-11.8911
▁मिलते	-11.8914
▁डिया	-11.8917
▁prepare	-11.8918
▁1,3	-11.8919
▁सरल	-11.8922
▁100%	-11.8922
▁Dean	-11.8925
▁एरिक	-11.8926
▁airliner	-11.8929
▁sight	-11.8931
▁IV	-11.8932
▁insist	-11.8932
चेयर	-11.8934
▁बचावकर्म	-11.8934
▁defendant	-11.8934
▁बाड़	-11.8936
▁रिंग	-11.8936
▁स्थितियों	-11.8945
▁उग्रवाद	-11.8948
▁ज़रूरत	-11.8952
मॉन्ट	-11.8952
▁SU	-11.8953
▁paint	-11.8953
change	-11.8957
मुच	-11.8957
▁direction	-11.8974
tahs	-11.8977
▁पोलो	-11.8979
▁tries	-11.8985
▁originat	-11.8999
▁ब्रो	-11.9006
मिली	-11.9011
▁89	-11.9012
▁हिम	-11.9014
ज़मी	-11.903
▁छिप	-11.9033
▁ड्रे	-11.9033
omo	-11.9039
ivity	-11.904
▁लाए	-11.9052
lsh	-11.9054
▁Luk	-11.9065
▁बार्क	-11.9073
▁1.2	-11.9081
▁ऑपरेटर	-11.9088
▁गुट	-11.9099
गाज़ा	-11.9109
टवेयर	-11.9111
alph	-11.9132
▁1.6	-11.9148
agan	-11.915
▁Josef	-11.9154
▁tơ	-11.9154
▁transferr	-11.9166
▁अप्रत्य	-11.9167
ranking	-11.9175
▁टि	-11.9179
▁टॉक	-11.9187
rone	-11.9201
ेल्टा	-11.9202
▁dust	-11.9206
cade	-11.9214
▁वायरल	-11.9229
▁1.8	-11.9234
ट्ज़	-11.9245
isation	-11.9249
विली	-11.9266
धारक	-11.9268
ाणु	-11.9271
▁Phú	-11.9285
TE	-11.9288
डेल	-11.9293
द्दे	-11.9306
▁manual	-11.9329
▁Jaya	-11.9343
▁बीमा	-11.9346
ớc	-11.9354
▁लोकत	-11.9374
▁शेल	-11.9408
शियन	-11.9415
▁hole	-11.9416
▁historic	-11.9417
▁2:4	-11.9457
.600	-11.9464
वीक	-11.947
पार	-11.9511
▁क्लार	-11.9514
▁chán	-11.9531
about	-11.9534
▁ग्रो	-11.9537
member	-11.9541
worth	-11.9543
लिख	-11.9543
विश्वास	-11.9543
दूसरे	-11.9544
कनाडा	-11.9544
EDT	-11.9544
third	-11.9544
Iraq	-11.9544
बदल	-11.9545
लिंक	-11.9545
अनु	-11.9545
राशि	-11.9547
after	-11.9548
NZ	-11.9548
some	-11.9553
फ़ॉर्म	-11.9554
▁comfort	-11.9561
▁customer	-11.9567
वर्क	-11.9569
link	-11.9574
रोधी	-11.9578
प्रेस	-11.958
▁विधि	-11.9583
बर्ड	-11.9583
▁nhiê	-11.9586
बेल्ट	-11.9588
▁चढ़ा	-11.9588
▁फार्म	-11.9591
▁निर्द	-11.9593
▁discover	-11.9597
FC	-11.96
▁डु	-11.9603
▁lươ	-11.9604
60,000	-11.9608
▁lò	-11.9614
▁sustain	-11.9619
▁earn	-11.9622
▁write	-11.9629
▁प्रतिष्ठा	-11.963
▁पैसिफ	-11.9631
▁examine	-11.9635
▁चरम	-11.9636
▁assess	-11.9638
▁मैनेज	-11.9638
▁जटिल	-11.964
▁प्रारंभ	-11.964
नुसार	-11.9641
▁legislati	-11.9643
▁अग्नि	-11.9643
पूर्ति	-11.9643
▁आराम	-11.9644
▁differ	-11.9644
▁brow	-11.9645
▁oxy	-11.9645
elecommunication	-11.9646
Đốc	-11.9646
अभूतपूर्व	-11.9646
रिट्रिया	-11.9646
व्यावहारिक	-11.9646
▁Armstrong	-11.9646
▁Birmingham	-11.9646
▁Bolivia	-11.9646
▁Cambodia	-11.9646
▁Chibitty	-11.9646
▁Engineer	-11.9646
▁Higgs	-11.9646
▁Protocol	-11.9646
▁Richmond	-11.9646
▁Saturn	-11.9646
▁Solidarity	-11.9646
▁Thomson	-11.9646
▁Veteran	-11.9646
▁astronaut	-11.9646
▁bankruptcy	-11.9646
▁behaviour	-11.9646
▁census	-11.9646
▁certificate	-11.9646
▁cigarette	-11.9646
▁combination	-11.9646
▁commence	-11.9646
▁crucial	-11.9646
▁database	-11.9646
▁democratic	-11.9646
▁dialogue	-11.9646
▁eBay	-11.9646
▁entrance	-11.9646
▁epidemic	-11.9646
▁executed	-11.9646
▁exploit	-11.9646
▁frustrat	-11.9646
▁gậy	-11.9646
▁herself	-11.9646
▁implications	-11.9646
▁initiated	-11.9646
▁initiative	-11.9646
▁intervention	-11.9646
▁maintenance	-11.9646
▁negotiate	-11.9646
▁permission	-11.9646
▁replied	-11.9646
▁rắn	-11.9646
▁strategy	-11.9646
▁studied	-11.9646
▁suspicion	-11.9646
▁taught	-11.9646
▁temporarily	-11.9646
▁thầy	-11.9646
▁trồng	-11.9646
▁unemployment	-11.9646
▁variety	-11.9646
▁verdict	-11.9646
▁असहमति	-11.9646
▁ऑस्ट्रिया	-11.9646
▁कैथोलिक	-11.9646
▁गड़बड़	-11.9646
▁गतिरोध	-11.9646
▁गरुड़	-11.9646
▁ढेर	-11.9646
▁पैरालिम्पिक्स	-11.9646
▁प्रतिभागियों	-11.9646
▁प्रोफ़ेसर	-11.9646
▁ब्रॉडकास्ट	-11.9646
▁मेहनत	-11.9646
▁रोबोट	-11.9646
▁लुटेर	-11.9646
▁विकीपीडिया	-11.9646
▁वेनेजुएल	-11.9646
▁शरणार्थ	-11.9646
▁सर्वसम्मत	-11.9646
▁सिक्योरिटी	-11.9646
▁सेल्सियस	-11.9646
▁स्टूडियो	-11.9646
▁हाइड्रो	-11.9646
▁हेराल्ड	-11.9646
Voyage	-11.9646
▁Amiăng	-11.9646
▁CERN	-11.9646
▁Harvard	-11.9646
▁Waitangi	-11.9646
▁adequate	-11.9646
▁electronic	-11.9646
▁examination	-11.9646
▁harsh	-11.9646
▁laboratory	-11.9646
▁thorough	-11.9646
▁एडिलेड	-11.9646
▁चेयरमैन	-11.9646
▁फेलिप	-11.9646
▁स्पर्धा	-11.9646
▁Denmark	-11.9646
▁MTR	-11.9646
▁attribut	-11.9646
▁contrast	-11.9646
▁dominate	-11.9646
▁obvious	-11.9646
▁stories	-11.9646
▁sudden	-11.9646
▁उत्तेज	-11.9646
▁दाहिन	-11.9646
▁रहस्य	-11.9646
▁विलंब	-11.9646
▁शत्रु	-11.9646
▁हज़ार	-11.9646
▁Protest	-11.9646
▁contradict	-11.9646
▁disorder	-11.9646
▁प्रचल	-11.9646
▁वितरित	-11.9646
▁UoW	-11.9646
▁lợn	-11.9646
▁sharp	-11.9646
▁trafficking	-11.9646
▁गैलन	-11.9646
▁Physic	-11.9646
▁Company	-11.9646
▁Strip	-11.9646
▁conceal	-11.9646
▁बॉस	-11.9646
▁स्पेक्ट्र	-11.9646
▁गिब्स	-11.9646
▁नरसंहार	-11.9646
▁स्ट्रेट	-11.9646
▁spam	-11.9646
▁Large	-11.9646
▁invited	-11.9646
छाड़	-11.9646
▁ninth	-11.9646
▁terminal	-11.9646
श्वेत	-11.9646
▁Garin	-11.9646
▁कट्टरपंथी	-11.9646
▁Lunas	-11.9646
▁उन्ह	-11.9646
▁motor	-11.9646
▁अंश	-11.9646
▁Drug	-11.9646
magnet	-11.9646
▁copy	-11.9646
▁shirt	-11.9646
▁पर्वत	-11.9646
ंबुल	-11.9646
▁स्केल	-11.9646
RPG	-11.9646
▁Among	-11.9646
▁capability	-11.9646
▁भाइयों	-11.9646
▁रशियन	-11.9646
▁Express	-11.9646
▁मॉस्को	-11.9646
▁वायुमंडल	-11.9646
▁resist	-11.9646
▁ज्यूर	-11.9646
▁टेलिविज	-11.9646
▁smil	-11.9646
▁items	-11.9647
्रामक	-11.9647
▁Medicare	-11.9647
▁điệu	-11.9647
▁अनजान	-11.9647
▁external	-11.9647
▁कारखान	-11.9647
▁स्पैम	-11.9647
▁salt	-11.9647
▁đùa	-11.9647
▁रम्सफ	-11.9647
▁Arena	-11.9647
▁Shays	-11.9647
▁interfer	-11.9647
▁profits	-11.9647
haps	-11.9647
▁ग्रीक	-11.9647
▁smokers	-11.9647
▁फुटेज	-11.9647
▁virút	-11.9647
astro	-11.9648
▁đúc	-11.9648
▁inject	-11.9648
▁अनुवाद	-11.9648
▁ग्रांड	-11.9648
▁स्टीवर्ट	-11.9648
▁tháp	-11.9648
▁डेनिस	-11.9648
▁प्रतिज्ञा	-11.9648
▁assum	-11.9648
▁nhị	-11.9649
▁पीड़ा	-11.9649
▁hospitalized	-11.9649
▁hán	-11.9649
▁वॉइस	-11.9649
▁एचबी	-11.9649
▁फॉक्स	-11.965
▁hê	-11.965
▁cheap	-11.965
▁Winter	-11.965
थाम	-11.965
▁stake	-11.965
▁Trans	-11.965
▁शेपर	-11.965
▁कठिनाई	-11.965
▁Grey	-11.965
▁बतख	-11.965
▁Ground	-11.9651
wond	-11.9651
▁arrive	-11.9651
▁Area	-11.9651
unique	-11.9651
▁proud	-11.9652
▁स्नो	-11.9652
uýt	-11.9652
▁flat	-11.9652
▁farmers	-11.9652
▁nút	-11.9652
▁prosecuted	-11.9652
▁advertisement	-11.9653
▁उदार	-11.9653
▁difficulties	-11.9654
▁upset	-11.9654
▁Rando	-11.9654
onservation	-11.9654
▁Chart	-11.9654
▁आगमन	-11.9655
▁trend	-11.9655
▁नीदरलैंड्स	-11.9655
▁consultation	-11.9655
▁bias	-11.9656
▁क्रेग	-11.9656
▁Alias	-11.9656
▁underway	-11.9656
▁Congo	-11.9657
ौती	-11.9657
▁Đỏ	-11.9657
▁निवार	-11.9657
▁हैरान	-11.9658
▁मिडिल	-11.9658
▁viewers	-11.9658
▁examined	-11.9659
▁lơ	-11.9659
▁रिवर	-11.966
▁नाकाम	-11.966
▁मनम	-11.966
▁हॉट	-11.966
▁प्रतिष्ठान	-11.9661
▁आइल	-11.9661
▁7.5	-11.9662
▁writer	-11.9662
▁Love	-11.9663
▁classes	-11.9663
llery	-11.9664
▁contributed	-11.9664
▁(03	-11.9665
▁Đế	-11.9665
▁losses	-11.9666
▁ngạch	-11.9666
▁taxes	-11.9666
▁बाथ	-11.9667
▁lăng	-11.9667
▁titled	-11.9668
▁Heath	-11.9668
▁45%	-11.967
▁normally	-11.9672
मबर्ग	-11.9672
▁lung	-11.9673
▁nhở	-11.9677
▁Hunt	-11.9678
▁5.1	-11.9681
▁6.1	-11.9682
▁Jet	-11.9683
▁टाई	-11.9685
thia	-11.9688
▁encouraged	-11.9688
▁RB	-11.9689
▁डीए	-11.9691
दर्न	-11.9694
▁Lama	-11.9697
▁collection	-11.9698
▁Nazi	-11.9699
▁gà	-11.9705
▁Speak	-11.9715
ब्लू	-11.9718
Benson	-11.9721
▁Rich	-11.9729
▁compromise	-11.9731
स्टाइल	-11.9734
▁क्लाइ	-11.975
▁गुस्स	-11.9766
▁đuô	-11.9782
▁अन्त	-11.979
स्थापित	-11.9794
▁Vince	-11.9795
▁शक्तिय	-11.9796
hear	-11.9801
▁पाठक	-11.9802
ega	-11.9807
ोहन	-11.9809
▁फ्रेंक	-11.9814
pun	-11.9822
▁Gene	-11.9839
▁eat	-11.984
dated	-11.9847
▁6.0	-11.9848
▁दिखाए	-11.9852
▁Phụ	-11.9864
▁skier	-11.9868
तिहा	-11.987
▁Wai	-11.9885
फ़ै	-11.9898
▁सीरिय	-11.9901
एलए	-11.9907
▁ट्रू	-11.992
320	-11.993
▁allege	-11.9932
tensive	-11.9933
म्पट	-11.9935
चेंग	-11.9937
▁मैरि	-11.9963
▁publication	-11.9977
erner	-11.9986
▁3:1	-11.999
▁लिबर	-11.9992
असाधारण	-11.9994
▁Roch	-12.0005
anticipated	-12.0047
इरा	-12.0069
▁प्रतिभा	-12.0076
1.1	-12.0085
faced	-12.0146
▁container	-12.0149
▁urge	-12.0151
▁आंक	-12.0152
▁mòn	-12.0152
▁आनेवाल	-12.0168
▁argu	-12.018
▁4.5	-12.018
▁पाय	-12.0186
noticed	-12.0191
▁डेर	-12.0199
▁(13	-12.0214
▁luâ	-12.0244
▁एफए	-12.0256
ombe	-12.026
▁मुकदम	-12.0293
्कले	-12.0298
डोम	-12.03
ounted	-12.0303
ंबल	-12.0327
जिट	-12.035
ेडोनिय	-12.0359
▁नीं	-12.0363
▁provider	-12.0364
terror	-12.0375
Linux	-12.0375
▁pray	-12.0376
Media	-12.0377
moon	-12.0377
level	-12.0377
Michael	-12.0377
group	-12.0377
घोष	-12.0377
million	-12.0377
बैंड	-12.038
▁Class	-12.0381
आइ	-12.0384
Sara	-12.0385
▁damag	-12.0385
▁Cab	-12.0388
▁piece	-12.0388
▁Representative	-12.0389
Hã	-12.0391
हार्ड	-12.0395
▁rebel	-12.0397
▁बेयर्	-12.04
Ngà	-12.0403
पाइन	-12.0417
मोल	-12.0417
▁संपाद	-12.0426
▁Pres	-12.0429
All	-12.0431
▁niê	-12.0435
▁weigh	-12.0435
र्लिंग	-12.044
▁मात	-12.0446
▁proportion	-12.0447
iệu	-12.0448
▁spend	-12.0451
▁लगात	-12.0452
▁जुर्मान	-12.0452
▁dismiss	-12.0453
▁लुका	-12.0456
▁upgrad	-12.0456
▁detain	-12.0458
▁xé	-12.046
▁announce	-12.0465
▁evacuate	-12.0466
▁chì	-12.0468
▁consult	-12.0468
▁influen	-12.047
apital	-12.0475
▁मैक्सिक	-12.0475
▁kilomet	-12.0476
▁Swed	-12.0477
▁इंटेल	-12.0478
▁अफ़गान	-12.0479
▁कंज़र्वे	-12.0479
▁वैकल्प	-12.0479
▁साप्ताह	-12.0479
TPLF	-12.0479
▁Kansas	-12.0479
▁WMAQ	-12.0479
▁dispatch	-12.0479
▁mortgage	-12.0479
▁precaution	-12.0479
▁ऊँच	-12.0479
▁क्वालीफ़ा	-12.0479
▁धुआं	-12.0479
▁शृंखला	-12.0479
ICRC	-12.0479
Megrahi	-12.0479
UPDF	-12.0479
harmaceutical	-12.0479
नियामक	-12.0479
ेंशियल	-12.0479
▁AIDS	-12.0479
▁Annapolis	-12.0479
▁Antonio	-12.0479
▁Astros	-12.0479
▁Atwah	-12.0479
▁Avenue	-12.0479
▁Barcelona	-12.0479
▁Beatles	-12.0479
▁Berlusconi	-12.0479
▁Blackpool	-12.0479
▁Borneo	-12.0479
▁COMPUTEX	-12.0479
▁Calipari	-12.0479
▁Chaindrawa	-12.0479
▁Cleopatra	-12.0479
▁Democracy	-12.0479
▁Disease	-12.0479
▁Dravid	-12.0479
▁Emirates	-12.0479
▁Fisichella	-12.0479
▁Franchitti	-12.0479
▁Fraser	-12.0479
▁Freedman	-12.0479
▁Fuku	-12.0479
▁Gibbons	-12.0479
▁Gliders	-12.0479
▁Globe	-12.0479
▁Guatemala	-12.0479
▁Habib	-12.0479
▁Hawass	-12.0479
▁Herzegovina	-12.0479
▁Hussain	-12.0479
▁ICANN	-12.0479
▁Ipswich	-12.0479
▁Istanbul	-12.0479
▁Kaczynski	-12.0479
▁Kindle	-12.0479
▁Kosovo	-12.0479
▁Kovalainen	-12.0479
▁Leonard	-12.0479
▁Leterme	-12.0479
▁Likud	-12.0479
▁Mauritania	-12.0479
▁Merkel	-12.0479
▁Muhammad	-12.0479
▁Ophelia	-12.0479
▁Oprah	-12.0479
▁Ortega	-12.0479
▁Piniella	-12.0479
▁Preakness	-12.0479
▁Prevention	-12.0479
▁Punjab	-12.0479
▁Rafael	-12.0479
▁Raleigh	-12.0479
▁Rijsberman	-12.0479
▁Rochester	-12.0479
▁Rompuy	-12.0479
▁Saskatchewan	-12.0479
▁Schulz	-12.0479
▁Semrau	-12.0479
▁Sharansky	-12.0479
▁Sheffield	-12.0479
▁Shinawatra	-12.0479
▁Strikeforce	-12.0479
▁Tharoor	-12.0479
▁Tireless	-12.0479
▁Treaty	-12.0479
▁Trigg	-12.0479
▁Vanuatu	-12.0479
▁Windsor	-12.0479
▁Yeltsin	-12.0479
▁Yemen	-12.0479
▁Youtube	-12.0479
▁absence	-12.0479
▁aggressive	-12.0479
▁allocated	-12.0479
▁anywhere	-12.0479
▁asbestos	-12.0479
▁buồm	-12.0479
▁bypass	-12.0479
▁clothing	-12.0479
▁corporal	-12.0479
▁cắn	-12.0479
▁depression	-12.0479
▁devastated	-12.0479
▁disappear	-12.0479
▁encounter	-12.0479
▁equivalent	-12.0479
▁festival	-12.0479
▁franchise	-12.0479
▁goalkeeper	-12.0479
▁gắt	-12.0479
▁judgment	-12.0479
▁lobby	-12.0479
▁mechanism	-12.0479
▁neologism	-12.0479
▁nhẫn	-12.0479
▁prescription	-12.0479
▁primari	-12.0479
▁prolactin	-12.0479
▁purchasing	-12.0479
▁rainfall	-12.0479
▁rubble	-12.0479
▁spacecraft	-12.0479
▁sprint	-12.0479
▁statistics	-12.0479
▁stimul	-12.0479
▁strategic	-12.0479
▁surveillance	-12.0479
▁telescope	-12.0479
▁territori	-12.0479
▁đậu	-12.0479
[...]
